{
  "version": "1.0",
  "truncation": null,
  "padding": null,
  "added_tokens": [
    {
      "id": 0,
      "content": "[UNK]",
      "single_word": false,
      "lstrip": false,
      "rstrip": false,
      "normalized": false,
      "special": true
    },
    {
      "id": 1,
      "content": "[CLS]",
      "single_word": false,
      "lstrip": false,
      "rstrip": false,
      "normalized": false,
      "special": true
    },
    {
      "id": 2,
      "content": "[SEP]",
      "single_word": false,
      "lstrip": false,
      "rstrip": false,
      "normalized": false,
      "special": true
    },
    {
      "id": 3,
      "content": "[PAD]",
      "single_word": false,
      "lstrip": false,
      "rstrip": false,
      "normalized": false,
      "special": true
    },
    {
      "id": 4,
      "content": "[MASK]",
      "single_word": false,
      "lstrip": false,
      "rstrip": false,
      "normalized": false,
      "special": true
    }
  ],
  "normalizer": null,
  "pre_tokenizer": {
    "type": "Whitespace"
  },
  "post_processor": null,
  "decoder": null,
  "model": {
    "type": "BPE",
    "dropout": null,
    "unk_token": null,
    "continuing_subword_prefix": null,
    "end_of_word_suffix": null,
    "fuse_unk": false,
    "vocab": {
      "[UNK]": 0,
      "[CLS]": 1,
      "[SEP]": 2,
      "[PAD]": 3,
      "[MASK]": 4,
      "!": 5,
      "\"": 6,
      "#": 7,
      "$": 8,
      "%": 9,
      "&": 10,
      "'": 11,
      "(": 12,
      ")": 13,
      "*": 14,
      "+": 15,
      ",": 16,
      "-": 17,
      ".": 18,
      "/": 19,
      "0": 20,
      "1": 21,
      "2": 22,
      "3": 23,
      "4": 24,
      "5": 25,
      "6": 26,
      "7": 27,
      "8": 28,
      "9": 29,
      ":": 30,
      ";": 31,
      "=": 32,
      ">": 33,
      "?": 34,
      "@": 35,
      "A": 36,
      "B": 37,
      "C": 38,
      "D": 39,
      "E": 40,
      "F": 41,
      "G": 42,
      "H": 43,
      "I": 44,
      "J": 45,
      "K": 46,
      "L": 47,
      "M": 48,
      "N": 49,
      "O": 50,
      "P": 51,
      "Q": 52,
      "R": 53,
      "S": 54,
      "T": 55,
      "U": 56,
      "V": 57,
      "W": 58,
      "X": 59,
      "Y": 60,
      "Z": 61,
      "[": 62,
      "]": 63,
      "_": 64,
      "a": 65,
      "b": 66,
      "c": 67,
      "d": 68,
      "e": 69,
      "f": 70,
      "g": 71,
      "h": 72,
      "i": 73,
      "j": 74,
      "k": 75,
      "l": 76,
      "m": 77,
      "n": 78,
      "o": 79,
      "p": 80,
      "q": 81,
      "r": 82,
      "s": 83,
      "t": 84,
      "u": 85,
      "v": 86,
      "w": 87,
      "x": 88,
      "y": 89,
      "z": 90,
      "{": 91,
      "}": 92,
      "~": 93,
      "¡": 94,
      "«": 95,
      "®": 96,
      "·": 97,
      "º": 98,
      "Â": 99,
      "Ó": 100,
      "à": 101,
      "á": 102,
      "â": 103,
      "ã": 104,
      "ä": 105,
      "å": 106,
      "ç": 107,
      "è": 108,
      "é": 109,
      "ë": 110,
      "ì": 111,
      "í": 112,
      "î": 113,
      "ñ": 114,
      "ò": 115,
      "ó": 116,
      "õ": 117,
      "ö": 118,
      "ù": 119,
      "ú": 120,
      "û": 121,
      "ü": 122,
      "Ā": 123,
      "ā": 124,
      "ă": 125,
      "ć": 126,
      "ď": 127,
      "ė": 128,
      "ę": 129,
      "ě": 130,
      "ģ": 131,
      "ħ": 132,
      "ĩ": 133,
      "ī": 134,
      "į": 135,
      "ı": 136,
      "Ķ": 137,
      "ļ": 138,
      "ł": 139,
      "ń": 140,
      "Ņ": 141,
      "ņ": 142,
      "ň": 143,
      "Ř": 144,
      "ř": 145,
      "Ś": 146,
      "ś": 147,
      "Ş": 148,
      "ş": 149,
      "Š": 150,
      "š": 151,
      "ţ": 152,
      "ū": 153,
      "ů": 154,
      "ű": 155,
      "ſ": 156,
      "ư": 157,
      "Ș": 158,
      "ș": 159,
      "ț": 160,
      "ɔ": 161,
      "ə": 162,
      "О": 163,
      "а": 164,
      "с": 165,
      "ं": 166,
      "ः": 167,
      "अ": 168,
      "आ": 169,
      "इ": 170,
      "उ": 171,
      "ए": 172,
      "क": 173,
      "ख": 174,
      "ग": 175,
      "घ": 176,
      "ङ": 177,
      "च": 178,
      "छ": 179,
      "ज": 180,
      "ञ": 181,
      "ट": 182,
      "ठ": 183,
      "ड": 184,
      "ढ": 185,
      "ण": 186,
      "त": 187,
      "थ": 188,
      "द": 189,
      "ध": 190,
      "न": 191,
      "प": 192,
      "फ": 193,
      "ब": 194,
      "भ": 195,
      "म": 196,
      "य": 197,
      "र": 198,
      "ल": 199,
      "व": 200,
      "श": 201,
      "ष": 202,
      "स": 203,
      "ह": 204,
      "ऽ": 205,
      "ा": 206,
      "ि": 207,
      "ी": 208,
      "ु": 209,
      "ू": 210,
      "ृ": 211,
      "ॄ": 212,
      "े": 213,
      "ै": 214,
      "ो": 215,
      "ौ": 216,
      "्": 217,
      "।": 218,
      "॥": 219,
      "ḥ": 220,
      "ṁ": 221,
      "ṇ": 222,
      "ṛ": 223,
      "ṣ": 224,
      "ạ": 225,
      "ả": 226,
      "ấ": 227,
      "ặ": 228,
      "ế": 229,
      "ệ": 230,
      "ỉ": 231,
      "Ị": 232,
      "ị": 233,
      "ọ": 234,
      "ộ": 235,
      "ớ": 236,
      "ụ": 237,
      "–": 238,
      "—": 239,
      "‘": 240,
      "’": 241,
      "“": 242,
      "”": 243,
      "„": 244,
      "•": 245,
      "Ⓡ": 246,
      "th": 247,
      "the": 248,
      "in": 249,
      "an": 250,
      "re": 251,
      "of": 252,
      "on": 253,
      "at": 254,
      "is": 255,
      "ou": 256,
      "ed": 257,
      "er": 258,
      "ing": 259,
      "and": 260,
      "en": 261,
      "ar": 262,
      "es": 263,
      "as": 264,
      "or": 265,
      "al": 266,
      "to": 267,
      "wi": 268,
      "he": 269,
      "se": 270,
      "ow": 271,
      "with": 272,
      "it": 273,
      "be": 274,
      "ce": 275,
      "ha": 276,
      "le": 277,
      "hi": 278,
      "ra": 279,
      "you": 280,
      "st": 281,
      "ri": 282,
      "om": 283,
      "ll": 284,
      "his": 285,
      "that": 286,
      "all": 287,
      "gh": 288,
      "ti": 289,
      "ho": 290,
      "ch": 291,
      "by": 292,
      "de": 293,
      "ir": 294,
      "ld": 295,
      "li": 296,
      "ve": 297,
      "ay": 298,
      "me": 299,
      "sh": 300,
      "for": 301,
      "ly": 302,
      "ad": 303,
      "un": 304,
      "ro": 305,
      "ac": 306,
      "king": 307,
      "id": 308,
      "ver": 309,
      "ent": 310,
      "we": 311,
      "ot": 312,
      "ght": 313,
      "ma": 314,
      "ke": 315,
      "who": 316,
      "are": 317,
      "The": 318,
      "son": 319,
      "fo": 320,
      "fi": 321,
      "ul": 322,
      "ther": 323,
      "od": 324,
      "us": 325,
      "sa": 326,
      "reat": 327,
      "ous": 328,
      "ur": 329,
      "ess": 330,
      "man": 331,
      "ain": 332,
      "res": 333,
      "ts": 334,
      "one": 335,
      "nd": 336,
      "red": 337,
      "ion": 338,
      "up": 339,
      "av": 340,
      "him": 341,
      "fe": 342,
      "ter": 343,
      "con": 344,
      "am": 345,
      "not": 346,
      "com": 347,
      "so": 348,
      "my": 349,
      "ds": 350,
      "fore": 351,
      "your": 352,
      "wor": 353,
      "pe": 354,
      "fr": 355,
      "ak": 356,
      "mo": 357,
      "this": 358,
      "ful": 359,
      "was": 360,
      "ab": 361,
      "est": 362,
      "great": 363,
      "ct": 364,
      "ap": 365,
      "ge": 366,
      "per": 367,
      "su": 368,
      "hen": 369,
      "ut": 370,
      "said": 371,
      "ish": 372,
      "att": 373,
      "qu": 374,
      "their": 375,
      "from": 376,
      "have": 377,
      "row": 378,
      "hat": 379,
      "ex": 380,
      "her": 381,
      "our": 382,
      "ving": 383,
      "ru": 384,
      "ose": 385,
      "ould": 386,
      "sel": 387,
      "mi": 388,
      "like": 389,
      "ag": 390,
      "end": 391,
      "whi": 392,
      "te": 393,
      "ever": 394,
      "pro": 395,
      "do": 396,
      "other": 397,
      "go": 398,
      "own": 399,
      "tion": 400,
      "He": 401,
      "those": 402,
      "har": 403,
      "ana": 404,
      "out": 405,
      "has": 406,
      "ind": 407,
      "na": 408,
      "po": 409,
      "bl": 410,
      "ant": 411,
      "des": 412,
      "ers": 413,
      "war": 414,
      "pl": 415,
      "which": 416,
      "way": 417,
      "men": 418,
      "them": 419,
      "au": 420,
      "ity": 421,
      "there": 422,
      "oun": 423,
      "va": 424,
      "rah": 425,
      "self": 426,
      "Brah": 427,
      "And": 428,
      "ong": 429,
      "will": 430,
      "ill": 431,
      "if": 432,
      "car": 433,
      "ord": 434,
      "dis": 435,
      "should": 436,
      "had": 437,
      "were": 438,
      "si": 439,
      "now": 440,
      "ck": 441,
      "ci": 442,
      "most": 443,
      "ven": 444,
      "having": 445,
      "attle": 446,
      "then": 447,
      "ud": 448,
      "they": 449,
      "vi": 450,
      "ation": 451,
      "battle": 452,
      "rou": 453,
      "ors": 454,
      "les": 455,
      "lo": 456,
      "tain": 457,
      "ear": 458,
      "able": 459,
      "und": 460,
      "been": 461,
      "um": 462,
      "Rā": 463,
      "shall": 464,
      "led": 465,
      "ted": 466,
      "af": 467,
      "ces": 468,
      "et": 469,
      "also": 470,
      "form": 471,
      "mon": 472,
      "tu": 473,
      "ari": 474,
      "fa": 475,
      "ob": 476,
      "im": 477,
      "these": 478,
      "being": 479,
      "ated": 480,
      "orn": 481,
      "high": 482,
      "Then": 483,
      "upon": 484,
      "Brahman": 485,
      "ca": 486,
      "sed": 487,
      "foremost": 488,
      "hish": 489,
      "hear": 490,
      "arrow": 491,
      "pi": 492,
      "du": 493,
      "There": 494,
      "might": 495,
      "ence": 496,
      "its": 497,
      "co": 498,
      "sons": 499,
      "ef": 500,
      "sl": 501,
      "ower": 502,
      "what": 503,
      "als": 504,
      "ple": 505,
      "ved": 506,
      "words": 507,
      "ata": 508,
      "ren": 509,
      "ang": 510,
      "Pand": 511,
      "thus": 512,
      "sac": 513,
      "gi": 514,
      "lesti": 515,
      "ast": 516,
      "rifi": 517,
      "ree": 518,
      "celesti": 519,
      "tha": 520,
      "ves": 521,
      "ya": 522,
      "arm": 523,
      "arrows": 524,
      "mighty": 525,
      "ble": 526,
      "creat": 527,
      "ire": 528,
      "wo": 529,
      "hero": 530,
      "no": 531,
      "bo": 532,
      "sou": 533,
      "again": 534,
      "cl": 535,
      "ach": 536,
      "see": 537,
      "ction": 538,
      "ate": 539,
      "ig": 540,
      "any": 541,
      "ment": 542,
      "thi": 543,
      "ne": 544,
      "aving": 545,
      "Bhar": 546,
      "came": 547,
      "reg": 548,
      "come": 549,
      "pr": 550,
      "ok": 551,
      "tic": 552,
      "warri": 553,
      "ies": 554,
      "power": 555,
      "bow": 556,
      "sha": 557,
      "can": 558,
      "world": 559,
      "ness": 560,
      "pp": 561,
      "urn": 562,
      "know": 563,
      "down": 564,
      "god": 565,
      "ure": 566,
      "coun": 567,
      "here": 568,
      "You": 569,
      "una": 570,
      "dest": 571,
      "ta": 572,
      "thing": 573,
      "vir": 574,
      "well": 575,
      "when": 576,
      "ome": 577,
      "Ar": 578,
      "Having": 579,
      "fu": 580,
      "gr": 581,
      "ands": 582,
      "beg": 583,
      "sacrifi": 584,
      "In": 585,
      "ise": 586,
      "ine": 587,
      "spe": 588,
      "bod": 589,
      "even": 590,
      "virtu": 591,
      "kill": 592,
      "day": 593,
      "best": 594,
      "rit": 595,
      "under": 596,
      "han": 597,
      "exce": 598,
      "many": 599,
      "ust": 600,
      "Th": 601,
      "bro": 602,
      "race": 603,
      "over": 604,
      "ele": 605,
      "ance": 606,
      "himself": 607,
      "earth": 608,
      "sin": 609,
      "ist": 610,
      "hold": 611,
      "hu": 612,
      "Bharata": 613,
      "ni": 614,
      "fl": 615,
      "rish": 616,
      "ath": 617,
      "Yud": 618,
      "pre": 619,
      "je": 620,
      "ons": 621,
      "il": 622,
      "ced": 623,
      "after": 624,
      "thira": 625,
      "eld": 626,
      "key": 627,
      "ene": 628,
      "That": 629,
      "di": 630,
      "par": 631,
      "cted": 632,
      "pt": 633,
      ").": 634,
      "away": 635,
      "ati": 636,
      "Arj": 637,
      "off": 638,
      "aying": 639,
      "roy": 640,
      "Arjuna": 641,
      "pres": 642,
      "into": 643,
      "lord": 644,
      "ures": 645,
      "very": 646,
      "ss": 647,
      "celestials": 648,
      "ace": 649,
      "avas": 650,
      "ans": 651,
      "less": 652,
      "head": 653,
      "warriors": 654,
      "sem": 655,
      "ways": 656,
      "two": 657,
      "every": 658,
      "ser": 659,
      "Yudhish": 660,
      "Ris": 661,
      "Yudhishthira": 662,
      "tra": 663,
      "Dr": 664,
      "time": 665,
      "jo": 666,
      "good": 667,
      "Rāma": 668,
      "weap": 669,
      "elep": 670,
      "aya": 671,
      "chi": 672,
      "deed": 673,
      "ash": 674,
      "ey": 675,
      "ry": 676,
      "qui": 677,
      "tru": 678,
      "ic": 679,
      "ass": 680,
      "monkey": 681,
      "light": 682,
      "ara": 683,
      "but": 684,
      "powerful": 685,
      "It": 686,
      "Su": 687,
      "mind": 688,
      "),": 689,
      "never": 690,
      "father": 691,
      "add": 692,
      "ener": 693,
      "Kar": 694,
      "aring": 695,
      "llow": 696,
      "read": 697,
      "moun": 698,
      "ard": 699,
      "gri": 700,
      "life": 701,
      "fire": 702,
      "tell": 703,
      "ting": 704,
      "always": 705,
      "fear": 706,
      "ga": 707,
      "long": 708,
      "As": 709,
      "lled": 710,
      "such": 711,
      "ressed": 712,
      "began": 713,
      "Ind": 714,
      "Sh": 715,
      "desc": 716,
      "ona": 717,
      "full": 718,
      "ished": 719,
      "sp": 720,
      "cetic": 721,
      "ps": 722,
      "Kur": 723,
      "Drona": 724,
      "wat": 725,
      "ascetic": 726,
      "aught": 727,
      "did": 728,
      "body": 729,
      "ions": 730,
      "thous": 731,
      "ks": 732,
      "jaya": 733,
      "pleas": 734,
      "how": 735,
      "sembl": 736,
      "creatures": 737,
      "forest": 738,
      "some": 739,
      "el": 740,
      "ka": 741,
      "Brahmanas": 742,
      "tro": 743,
      "fri": 744,
      "Be": 745,
      "follow": 746,
      "born": 747,
      "stand": 748,
      "brother": 749,
      "cap": 750,
      "vari": 751,
      "wh": 752,
      "highly": 753,
      "three": 754,
      "dom": 755,
      "ens": 756,
      "arch": 757,
      "ound": 758,
      "rough": 759,
      "Dh": 760,
      "Indra": 761,
      "gif": 762,
      "Va": 763,
      "sub": 764,
      "without": 765,
      "kings": 766,
      "made": 767,
      "became": 768,
      "rowess": 769,
      "prowess": 770,
      "asas": 771,
      "ten": 772,
      "Karna": 773,
      "mountain": 774,
      "When": 775,
      "ury": 776,
      "gold": 777,
      "appe": 778,
      "ret": 779,
      "ged": 780,
      "round": 781,
      "Do": 782,
      "ered": 783,
      "mit": 784,
      "Pandavas": 785,
      "before": 786,
      "prote": 787,
      "pen": 788,
      "ins": 789,
      "spo": 790,
      "alth": 791,
      "among": 792,
      "Bhish": 793,
      "fight": 794,
      "pri": 795,
      "ceed": 796,
      "Brahmana": 797,
      "Bhishma": 798,
      "person": 799,
      "wards": 800,
      "desire": 801,
      "pra": 802,
      "nor": 803,
      "bir": 804,
      "cked": 805,
      "about": 806,
      "gods": 807,
      "mer": 808,
      "various": 809,
      "ama": 810,
      "hana": 811,
      "perform": 812,
      "ssess": 813,
      "joy": 814,
      "sup": 815,
      "ber": 816,
      "alled": 817,
      "sor": 818,
      "Krish": 819,
      "destroy": 820,
      "ities": 821,
      "vers": 822,
      "tre": 823,
      "shaf": 824,
      "may": 825,
      "she": 826,
      "They": 827,
      "ep": 828,
      "through": 829,
      "This": 830,
      "right": 831,
      "ring": 832,
      "stru": 833,
      "Krishna": 834,
      "resembl": 835,
      "possess": 836,
      "went": 837,
      "ala": 838,
      "weapons": 839,
      "llent": 840,
      "army": 841,
      "addressed": 842,
      "another": 843,
      "ents": 844,
      "cts": 845,
      "ars": 846,
      "killed": 847,
      "asa": 848,
      "auti": 849,
      "eyes": 850,
      "uni": 851,
      "ack": 852,
      "hants": 853,
      "anjaya": 854,
      "vered": 855,
      "virtue": 856,
      "cess": 857,
      "excellent": 858,
      "ory": 859,
      "hand": 860,
      "ances": 861,
      "mies": 862,
      "aughter": 863,
      "chari": 864,
      "em": 865,
      "elephants": 866,
      "happ": 867,
      "rious": 868,
      "odhana": 869,
      "ued": 870,
      "dev": 871,
      "ared": 872,
      "Rak": 873,
      "chariot": 874,
      "count": 875,
      "called": 876,
      "hima": 877,
      "Thereupon": 878,
      "monkeys": 879,
      "Ved": 880,
      "Bhima": 881,
      "char": 882,
      "ena": 883,
      "comp": 884,
      "ite": 885,
      "cious": 886,
      "beauti": 887,
      "capable": 888,
      "ayana": 889,
      "arms": 890,
      "cons": 891,
      "undred": 892,
      "qual": 893,
      "Vas": 894,
      "med": 895,
      "shafts": 896,
      "suc": 897,
      "where": 898,
      "shi": 899,
      "If": 900,
      "water": 901,
      "Thus": 902,
      "hundred": 903,
      "iness": 904,
      "sun": 905,
      "gu": 906,
      "saying": 907,
      "orses": 908,
      "prin": 909,
      "fli": 910,
      "both": 911,
      "fru": 912,
      "Gand": 913,
      "vas": 914,
      "Vi": 915,
      "Pandu": 916,
      "cept": 917,
      "ste": 918,
      "place": 919,
      "heav": 920,
      "heard": 921,
      "look": 922,
      "wealth": 923,
      "horses": 924,
      "only": 925,
      "anger": 926,
      "act": 927,
      "Dury": 928,
      "towards": 929,
      "ited": 930,
      "gth": 931,
      "thou": 932,
      "Duryodhana": 933,
      "deva": 934,
      "la": 935,
      "enemies": 936,
      "obtain": 937,
      "van": 938,
      "beautiful": 939,
      "ned": 940,
      "sc": 941,
      "gy": 942,
      "does": 943,
      "heart": 944,
      "slain": 945,
      "grief": 946,
      "hava": 947,
      "lear": 948,
      "lar": 949,
      "therefore": 950,
      "wish": 951,
      "filled": 952,
      "sing": 953,
      "verse": 954,
      "cour": 955,
      "holding": 956,
      "ily": 957,
      "greatly": 958,
      "fir": 959,
      "fall": 960,
      "ol": 961,
      "ally": 962,
      "ations": 963,
      "num": 964,
      "acts": 965,
      "rush": 966,
      "field": 967,
      "hus": 968,
      "age": 969,
      "eous": 970,
      "others": 971,
      "isha": 972,
      "death": 973,
      "pa": 974,
      "Se": 975,
      "each": 976,
      "rul": 977,
      "ties": 978,
      "atri": 979,
      "descend": 980,
      "celestial": 981,
      "sk": 982,
      "monarch": 983,
      "lad": 984,
      "hose": 985,
      "ends": 986,
      "pier": 987,
      "stren": 988,
      "kingdom": 989,
      "ult": 990,
      "live": 991,
      "energy": 992,
      "ledge": 993,
      "arash": 994,
      "hands": 995,
      "Dhrit": 996,
      "worshi": 997,
      "What": 998,
      "seen": 999,
      "mis": 1000,
      ".\"": 1001,
      "strength": 1002,
      "illust": 1003,
      "mp": 1004,
      "whose": 1005,
      "hy": 1006,
      "eng": 1007,
      "wa": 1008,
      "tellig": 1009,
      "illustrious": 1010,
      "truth": 1011,
      "min": 1012,
      "ran": 1013,
      "obje": 1014,
      "Dhritarash": 1015,
      "ering": 1016,
      "sacrifice": 1017,
      "spoke": 1018,
      "asena": 1019,
      "attain": 1020,
      "souled": 1021,
      "Ksh": 1022,
      "thousand": 1023,
      "De": 1024,
      "Dhritarashtra": 1025,
      "ava": 1026,
      "resembling": 1027,
      "wise": 1028,
      "aka": 1029,
      "hak": 1030,
      "proper": 1031,
      "acqu": 1032,
      "ali": 1033,
      "ating": 1034,
      "wel": 1035,
      "ith": 1036,
      "comes": 1037,
      "Those": 1038,
      "ort": 1039,
      "means": 1040,
      "persons": 1041,
      "night": 1042,
      "Ma": 1043,
      "ond": 1044,
      "ked": 1045,
      "Brahma": 1046,
      "See": 1047,
      "become": 1048,
      "child": 1049,
      "Par": 1050,
      "intellig": 1051,
      "take": 1052,
      "cer": 1053,
      "four": 1054,
      "cti": 1055,
      "Rishi": 1056,
      "aged": 1057,
      ".,": 1058,
      "side": 1059,
      "Lak": 1060,
      "ada": 1061,
      "heroes": 1062,
      "rest": 1063,
      "respe": 1064,
      "clou": 1065,
      "name": 1066,
      "covered": 1067,
      "knowledge": 1068,
      "would": 1069,
      "seeing": 1070,
      "daughter": 1071,
      "ņa": 1072,
      "Rishis": 1073,
      "could": 1074,
      "city": 1075,
      "delight": 1076,
      "kş": 1077,
      "slay": 1078,
      "foes": 1079,
      "Kshatri": 1080,
      "comm": 1081,
      "Vedas": 1082,
      "viz": 1083,
      "saw": 1084,
      "ty": 1085,
      "while": 1086,
      "By": 1087,
      "dread": 1088,
      "bet": 1089,
      "Hearing": 1090,
      "dist": 1091,
      "sur": 1092,
      "eri": 1093,
      "wife": 1094,
      "against": 1095,
      "host": 1096,
      "armed": 1097,
      "fied": 1098,
      "ingly": 1099,
      "hel": 1100,
      "righteous": 1101,
      "ning": 1102,
      "amed": 1103,
      "ark": 1104,
      "endued": 1105,
      "Sat": 1106,
      "cut": 1107,
      "soul": 1108,
      "wom": 1109,
      "destru": 1110,
      "yas": 1111,
      "owers": 1112,
      "Kuru": 1113,
      "acc": 1114,
      "food": 1115,
      "friends": 1116,
      "dreadful": 1117,
      "sens": 1118,
      "uty": 1119,
      "fully": 1120,
      "more": 1121,
      "ments": 1122,
      "ras": 1123,
      "heaven": 1124,
      "kn": 1125,
      "give": 1126,
      "Seeing": 1127,
      "descendant": 1128,
      "ms": 1129,
      "bre": 1130,
      "unti": 1131,
      "bed": 1132,
      "vis": 1133,
      "Gandhar": 1134,
      "known": 1135,
      "however": 1136,
      "sto": 1137,
      "proceed": 1138,
      "possessed": 1139,
      "living": 1140,
      "ined": 1141,
      "All": 1142,
      "ken": 1143,
      "cing": 1144,
      "sacrifices": 1145,
      "But": 1146,
      "ile": 1147,
      "dif": 1148,
      "vow": 1149,
      "duties": 1150,
      "Mad": 1151,
      "tak": 1152,
      "One": 1153,
      "happiness": 1154,
      "ng": 1155,
      "birth": 1156,
      "acqui": 1157,
      "senses": 1158,
      "mother": 1159,
      "pur": 1160,
      "pierced": 1161,
      "burn": 1162,
      "cei": 1163,
      "On": 1164,
      "virtuous": 1165,
      "Kunti": 1166,
      "pped": 1167,
      "hon": 1168,
      "ween": 1169,
      "fulg": 1170,
      "Raksh": 1171,
      "destruction": 1172,
      "kin": 1173,
      "obser": 1174,
      "rel": 1175,
      "With": 1176,
      "year": 1177,
      "thin": 1178,
      "standing": 1179,
      "Nar": 1180,
      "five": 1181,
      "enjoy": 1182,
      "Ear": 1183,
      "ople": 1184,
      "nal": 1185,
      "say": 1186,
      "ised": 1187,
      "engaged": 1188,
      "took": 1189,
      "cannot": 1190,
      "selves": 1191,
      "between": 1192,
      "effulg": 1193,
      "fruits": 1194,
      "Earth": 1195,
      "sho": 1196,
      "atter": 1197,
      "return": 1198,
      "worlds": 1199,
      "For": 1200,
      "cur": 1201,
      "regard": 1202,
      "exceed": 1203,
      "mpayana": 1204,
      "Vaisha": 1205,
      "Kurus": 1206,
      "husb": 1207,
      "used": 1208,
      "contro": 1209,
      "Vaishampayana": 1210,
      "sum": 1211,
      "blo": 1212,
      "set": 1213,
      "clouds": 1214,
      "whom": 1215,
      "ris": 1216,
      "mar": 1217,
      "mu": 1218,
      "account": 1219,
      "fic": 1220,
      "affli": 1221,
      "ops": 1222,
      "irous": 1223,
      "Bhim": 1224,
      "ja": 1225,
      "ft": 1226,
      "Let": 1227,
      "troops": 1228,
      "trees": 1229,
      "struck": 1230,
      "ides": 1231,
      "universe": 1232,
      "given": 1233,
      "large": 1234,
      "precept": 1235,
      "ight": 1236,
      "chief": 1237,
      "rin": 1238,
      "pal": 1239,
      "Sanjaya": 1240,
      "shar": 1241,
      "appro": 1242,
      "sorrow": 1243,
      "ings": 1244,
      "sky": 1245,
      "aus": 1246,
      "ause": 1247,
      "people": 1248,
      "cont": 1249,
      "heroic": 1250,
      "reas": 1251,
      "Rama": 1252,
      "subje": 1253,
      "let": 1254,
      "ied": 1255,
      "dra": 1256,
      "appeared": 1257,
      "grand": 1258,
      "protect": 1259,
      "reme": 1260,
      "Bhimasena": 1261,
      "terri": 1262,
      "back": 1263,
      "enemy": 1264,
      "rep": 1265,
      "warrior": 1266,
      "certain": 1267,
      "ext": 1268,
      "rushed": 1269,
      "Ag": 1270,
      "cause": 1271,
      "anim": 1272,
      "becomes": 1273,
      "brothers": 1274,
      "Therefore": 1275,
      "ouse": 1276,
      "Shak": 1277,
      "bes": 1278,
      "than": 1279,
      "sacred": 1280,
      "along": 1281,
      "taking": 1282,
      "ura": 1283,
      "poin": 1284,
      "Rākş": 1285,
      "ones": 1286,
      "make": 1287,
      "sound": 1288,
      "desirous": 1289,
      "get": 1290,
      "wicked": 1291,
      "same": 1292,
      "accord": 1293,
      "course": 1294,
      "speak": 1295,
      "Pan": 1296,
      "stri": 1297,
      "abo": 1298,
      "cial": 1299,
      "things": 1300,
      "pleased": 1301,
      "cean": 1302,
      "vict": 1303,
      "rath": 1304,
      "plac": 1305,
      "den": 1306,
      "old": 1307,
      "Li": 1308,
      "Pri": 1309,
      "ches": 1310,
      "deeds": 1311,
      "cars": 1312,
      "coming": 1313,
      "che": 1314,
      "sper": 1315,
      "ats": 1316,
      "erior": 1317,
      "pu": 1318,
      "region": 1319,
      "gether": 1320,
      "terrible": 1321,
      "cas": 1322,
      "hant": 1323,
      "fell": 1324,
      "rought": 1325,
      "done": 1326,
      "pass": 1327,
      "condu": 1328,
      "present": 1329,
      "much": 1330,
      "together": 1331,
      "husband": 1332,
      "reli": 1333,
      "lot": 1334,
      "We": 1335,
      "ruler": 1336,
      "wrath": 1337,
      "soon": 1338,
      "first": 1339,
      "lead": 1340,
      "rong": 1341,
      "ried": 1342,
      "ado": 1343,
      "Indeed": 1344,
      "regions": 1345,
      "eds": 1346,
      "exceedingly": 1347,
      "devot": 1348,
      "adorn": 1349,
      "thousands": 1350,
      "command": 1351,
      "ray": 1352,
      "defe": 1353,
      "elephant": 1354,
      "action": 1355,
      "penances": 1356,
      "entered": 1357,
      "ious": 1358,
      "prosper": 1359,
      "ached": 1360,
      "enti": 1361,
      "Saty": 1362,
      "ctions": 1363,
      "onder": 1364,
      "ters": 1365,
      "merit": 1366,
      "col": 1367,
      "oud": 1368,
      "lotus": 1369,
      "looked": 1370,
      "ide": 1371,
      "wind": 1372,
      "kinds": 1373,
      "years": 1374,
      "Sou": 1375,
      "preceptor": 1376,
      "art": 1377,
      "chariote": 1378,
      "tā": 1379,
      "sle": 1380,
      "adorned": 1381,
      "aras": 1382,
      "golden": 1383,
      "dire": 1384,
      "performed": 1385,
      "speed": 1386,
      "ue": 1387,
      "wood": 1388,
      "ither": 1389,
      "ground": 1390,
      "fam": 1391,
      "blood": 1392,
      "ough": 1393,
      "bless": 1394,
      "Pritha": 1395,
      "equal": 1396,
      "compl": 1397,
      "ending": 1398,
      "bla": 1399,
      "descri": 1400,
      "pos": 1401,
      "ary": 1402,
      "bring": 1403,
      "isten": 1404,
      "ban": 1405,
      "gave": 1406,
      "thought": 1407,
      "Yo": 1408,
      "Sī": 1409,
      "fier": 1410,
      "themselves": 1411,
      "cal": 1412,
      "oured": 1413,
      "days": 1414,
      "learned": 1415,
      "success": 1416,
      "Panch": 1417,
      "swe": 1418,
      "lady": 1419,
      "once": 1420,
      "conf": 1421,
      "gifted": 1422,
      "Partha": 1423,
      "sat": 1424,
      "gifts": 1425,
      "Af": 1426,
      "ese": 1427,
      "accompl": 1428,
      "weapon": 1429,
      "taken": 1430,
      "cy": 1431,
      "mountains": 1432,
      "fre": 1433,
      "ress": 1434,
      "yourself": 1435,
      "whe": 1436,
      "tered": 1437,
      "plend": 1438,
      "rated": 1439,
      "aki": 1440,
      "sides": 1441,
      "inv": 1442,
      "cit": 1443,
      "cle": 1444,
      "ched": 1445,
      "Dhan": 1446,
      "Vish": 1447,
      "ition": 1448,
      "house": 1449,
      "ternal": 1450,
      "ocean": 1451,
      "main": 1452,
      "succeed": 1453,
      "conduct": 1454,
      "mid": 1455,
      "These": 1456,
      "alas": 1457,
      "hadeva": 1458,
      "pure": 1459,
      "ants": 1460,
      "rain": 1461,
      "encoun": 1462,
      "mil": 1463,
      "nu": 1464,
      "Vasu": 1465,
      "named": 1466,
      "fort": 1467,
      "depri": 1468,
      "quick": 1469,
      "Sītā": 1470,
      "ature": 1471,
      "brought": 1472,
      "picious": 1473,
      "superior": 1474,
      "going": 1475,
      "surround": 1476,
      "lives": 1477,
      "six": 1478,
      "At": 1479,
      "oub": 1480,
      "order": 1481,
      "objects": 1482,
      "kine": 1483,
      "por": 1484,
      "orig": 1485,
      "prosperity": 1486,
      "sequ": 1487,
      "origin": 1488,
      "mb": 1489,
      "Dhananjaya": 1490,
      "How": 1491,
      "wonder": 1492,
      "sold": 1493,
      "worship": 1494,
      "Soul": 1495,
      "consid": 1496,
      "according": 1497,
      "sire": 1498,
      "charioteer": 1499,
      "pas": 1500,
      "vana": 1501,
      "whole": 1502,
      "spee": 1503,
      "spr": 1504,
      "ained": 1505,
      "beings": 1506,
      "ries": 1507,
      "twi": 1508,
      "oc": 1509,
      "intelligent": 1510,
      "myself": 1511,
      "soldi": 1512,
      "devoted": 1513,
      "vil": 1514,
      "ornam": 1515,
      "though": 1516,
      "victory": 1517,
      "mana": 1518,
      "auspicious": 1519,
      "itu": 1520,
      "numer": 1521,
      "Sa": 1522,
      "Go": 1523,
      "Jan": 1524,
      "thunder": 1525,
      "conqu": 1526,
      "bu": 1527,
      "avana": 1528,
      "exist": 1529,
      "respect": 1530,
      "afflicted": 1531,
      "akes": 1532,
      "Being": 1533,
      "care": 1534,
      "kind": 1535,
      "ped": 1536,
      "ign": 1537,
      "bra": 1538,
      "too": 1539,
      "desi": 1540,
      "pious": 1541,
      "After": 1542,
      "hur": 1543,
      "soldiers": 1544,
      "Al": 1545,
      "ba": 1546,
      "asked": 1547,
      "sure": 1548,
      "Pra": 1549,
      "convers": 1550,
      "royal": 1551,
      "ism": 1552,
      "Ra": 1553,
      "lu": 1554,
      "ān": 1555,
      "use": 1556,
      "tim": 1557,
      "div": 1558,
      "Ash": 1559,
      "human": 1560,
      "ush": 1561,
      "ought": 1562,
      "rites": 1563,
      "mas": 1564,
      "deprived": 1565,
      "huge": 1566,
      "uras": 1567,
      "consequ": 1568,
      "ready": 1569,
      "sion": 1570,
      "moon": 1571,
      "worth": 1572,
      "Gandharvas": 1573,
      "Dra": 1574,
      "compan": 1575,
      "iz": 1576,
      "lying": 1577,
      "force": 1578,
      "gone": 1579,
      "sharp": 1580,
      "fierce": 1581,
      "Vir": 1582,
      "ghava": 1583,
      "ened": 1584,
      "today": 1585,
      "alone": 1586,
      "Rakshasas": 1587,
      "forth": 1588,
      "steeds": 1589,
      "ounded": 1590,
      "evil": 1591,
      "twice": 1592,
      "Sun": 1593,
      "Vid": 1594,
      "stood": 1595,
      "entire": 1596,
      "ank": 1597,
      "tr": 1598,
      "everything": 1599,
      "show": 1600,
      "hor": 1601,
      "belong": 1602,
      "river": 1603,
      "bly": 1604,
      "surrounded": 1605,
      "rage": 1606,
      "lt": 1607,
      "His": 1608,
      "held": 1609,
      "sweet": 1610,
      "oth": 1611,
      "Lakş": 1612,
      "Kshatriya": 1613,
      "bea": 1614,
      "friend": 1615,
      "blessed": 1616,
      "adi": 1617,
      "loud": 1618,
      "Rāghava": 1619,
      "Shal": 1620,
      "anu": 1621,
      "dischar": 1622,
      "feren": 1623,
      "sacrificial": 1624,
      "sinful": 1625,
      "conside": 1626,
      "ascetics": 1627,
      "Satyaki": 1628,
      "vat": 1629,
      "rid": 1630,
      "ours": 1631,
      "considered": 1632,
      "doub": 1633,
      "Draup": 1634,
      ".”": 1635,
      "cast": 1636,
      "beholding": 1637,
      "dered": 1638,
      "Beholding": 1639,
      "vere": 1640,
      "uring": 1641,
      "diffic": 1642,
      "pract": 1643,
      "acquired": 1644,
      "within": 1645,
      "iring": 1646,
      "created": 1647,
      "tures": 1648,
      "making": 1649,
      "proceeded": 1650,
      "encounter": 1651,
      "help": 1652,
      "vows": 1653,
      "wn": 1654,
      "val": 1655,
      "speech": 1656,
      "suf": 1657,
      "flowers": 1658,
      "giving": 1659,
      "prince": 1660,
      "number": 1661,
      "iled": 1662,
      "Dhar": 1663,
      "eternal": 1664,
      "furn": 1665,
      "enter": 1666,
      "understanding": 1667,
      "tree": 1668,
      "effulgent": 1669,
      "Kshatriyas": 1670,
      "Rākşasas": 1671,
      "op": 1672,
      "appear": 1673,
      "think": 1674,
      "put": 1675,
      "Lord": 1676,
      "ribut": 1677,
      "ended": 1678,
      "obtained": 1679,
      "object": 1680,
      "ality": 1681,
      "udra": 1682,
      "Gang": 1683,
      "leb": 1684,
      "maņa": 1685,
      "slayer": 1686,
      "yum": 1687,
      "inj": 1688,
      "recei": 1689,
      "celeb": 1690,
      "destroyed": 1691,
      "times": 1692,
      "Draupadi": 1693,
      "fare": 1694,
      "tou": 1695,
      "hal": 1696,
      "birds": 1697,
      ".'": 1698,
      "Re": 1699,
      "mal": 1700,
      "word": 1701,
      "miser": 1702,
      "animals": 1703,
      "furnished": 1704,
      "quickly": 1705,
      "beauty": 1706,
      "Asuras": 1707,
      "Som": 1708,
      "Who": 1709,
      "inc": 1710,
      "ards": 1711,
      "bodies": 1712,
      "intelligence": 1713,
      "grace": 1714,
      "control": 1715,
      "peace": 1716,
      "ety": 1717,
      "Vasudeva": 1718,
      "clo": 1719,
      "seven": 1720,
      "abode": 1721,
      "cow": 1722,
      "rā": 1723,
      "incapable": 1724,
      "Pandava": 1725,
      "waters": 1726,
      "Some": 1727,
      "highest": 1728,
      "blaz": 1729,
      "strong": 1730,
      "former": 1731,
      "gar": 1732,
      "worthy": 1733,
      ",-": 1734,
      "crow": 1735,
      "yumna": 1736,
      "duly": 1737,
      "acquire": 1738,
      "lect": 1739,
      "pati": 1740,
      "fra": 1741,
      "arri": 1742,
      "uta": 1743,
      "spoken": 1744,
      "burning": 1745,
      "young": 1746,
      "ster": 1747,
      "comple": 1748,
      "cited": 1749,
      "ini": 1750,
      "drin": 1751,
      "ice": 1752,
      "root": 1753,
      "women": 1754,
      "duty": 1755,
      "gl": 1756,
      "vo": 1757,
      "ded": 1758,
      "dead": 1759,
      "thir": 1760,
      "fav": 1761,
      "itra": 1762,
      "kes": 1763,
      "ates": 1764,
      "Lakşmaņa": 1765,
      "alut": 1766,
      "tions": 1767,
      "ctive": 1768,
      "shot": 1769,
      "white": 1770,
      "qualities": 1771,
      "face": 1772,
      "told": 1773,
      "difficult": 1774,
      "infl": 1775,
      "cu": 1776,
      "wives": 1777,
      "following": 1778,
      "none": 1779,
      "ying": 1780,
      "fair": 1781,
      "conversant": 1782,
      "headed": 1783,
      "splend": 1784,
      "dark": 1785,
      "achi": 1786,
      "rip": 1787,
      "hearing": 1788,
      "renoun": 1789,
      "turn": 1790,
      "anas": 1791,
      "feet": 1792,
      "pleasure": 1793,
      "Shi": 1794,
      "children": 1795,
      "Bh": 1796,
      "chast": 1797,
      "aces": 1798,
      "affe": 1799,
      "Rāvana": 1800,
      "gra": 1801,
      "bear": 1802,
      "cks": 1803,
      "mace": 1804,
      "eve": 1805,
      "still": 1806,
      "minded": 1807,
      "An": 1808,
      "cro": 1809,
      "ell": 1810,
      "int": 1811,
      "followed": 1812,
      "sen": 1813,
      "next": 1814,
      "lied": 1815,
      "hab": 1816,
      "ornaments": 1817,
      "got": 1818,
      "inf": 1819,
      "ask": 1820,
      "Ka": 1821,
      "eas": 1822,
      "find": 1823,
      "tw": 1824,
      "ner": 1825,
      "fame": 1826,
      "Sup": 1827,
      "atas": 1828,
      "asc": 1829,
      "work": 1830,
      "boon": 1831,
      "meas": 1832,
      "ula": 1833,
      "why": 1834,
      "Know": 1835,
      "rang": 1836,
      "sn": 1837,
      "indeed": 1838,
      "depar": 1839,
      "hill": 1840,
      "doing": 1841,
      "raged": 1842,
      "dear": 1843,
      "asceticism": 1844,
      "sight": 1845,
      "protected": 1846,
      "freed": 1847,
      "last": 1848,
      "left": 1849,
      "consider": 1850,
      "agree": 1851,
      "Even": 1852,
      "aking": 1853,
      "Agni": 1854,
      "produ": 1855,
      "due": 1856,
      "Raks": 1857,
      "itself": 1858,
      "vid": 1859,
      "da": 1860,
      "latter": 1861,
      "hair": 1862,
      "wonderful": 1863,
      "instru": 1864,
      "Pur": 1865,
      "pain": 1866,
      "deer": 1867,
      "subjects": 1868,
      "Your": 1869,
      "fled": 1870,
      "yo": 1871,
      "contin": 1872,
      "Like": 1873,
      "ling": 1874,
      "Das": 1875,
      "anx": 1876,
      "owed": 1877,
      "horse": 1878,
      "ging": 1879,
      "seas": 1880,
      "dec": 1881,
      "speedily": 1882,
      "sent": 1883,
      "ising": 1884,
      "spir": 1885,
      "fighting": 1886,
      "either": 1887,
      "meet": 1888,
      "gift": 1889,
      "hundreds": 1890,
      "Why": 1891,
      "inst": 1892,
      "mor": 1893,
      "mom": 1894,
      "Ang": 1895,
      "deep": 1896,
      "cheer": 1897,
      "doubt": 1898,
      "Var": 1899,
      "cir": 1900,
      "Shakra": 1901,
      "sins": 1902,
      "mine": 1903,
      "Sub": 1904,
      "sake": 1905,
      "dro": 1906,
      "tle": 1907,
      "worshipped": 1908,
      "Kes": 1909,
      "ave": 1910,
      "must": 1911,
      "nothing": 1912,
      "true": 1913,
      "path": 1914,
      "consequence": 1915,
      "Vy": 1916,
      "Vrish": 1917,
      "forms": 1918,
      "utter": 1919,
      "bile": 1920,
      "usion": 1921,
      "hermit": 1922,
      "trem": 1923,
      "behold": 1924,
      "holy": 1925,
      "grant": 1926,
      "Death": 1927,
      "gn": 1928,
      "cep": 1929,
      "stud": 1930,
      "yet": 1931,
      "ual": 1932,
      "foot": 1933,
      "passed": 1934,
      "else": 1935,
      "vanqu": 1936,
      "uttered": 1937,
      "companied": 1938,
      "sage": 1939,
      "deser": 1940,
      "ung": 1941,
      "cond": 1942,
      "decked": 1943,
      "mobile": 1944,
      "ordin": 1945,
      "acquires": 1946,
      "satis": 1947,
      "Narada": 1948,
      "Yama": 1949,
      "rom": 1950,
      "refu": 1951,
      "prof": 1952,
      "ges": 1953,
      "adyumna": 1954,
      "My": 1955,
      "Ravana": 1956,
      "lit": 1957,
      "midst": 1958,
      "riptures": 1959,
      "moment": 1960,
      "deities": 1961,
      "Shalya": 1962,
      "quar": 1963,
      "devo": 1964,
      "dwell": 1965,
      "free": 1966,
      "īva": 1967,
      "xed": 1968,
      "vice": 1969,
      "Laks": 1970,
      "delighted": 1971,
      "differen": 1972,
      "nature": 1973,
      "Dan": 1974,
      "heads": 1975,
      "woods": 1976,
      "Vidura": 1977,
      "So": 1978,
      "gion": 1979,
      "ible": 1980,
      "fered": 1981,
      "Ch": 1982,
      "destroyer": 1983,
      "Ad": 1984,
      "sil": 1985,
      "oking": 1986,
      "asts": 1987,
      "grīva": 1988,
      "minis": 1989,
      "lived": 1990,
      "pet": 1991,
      "rays": 1992,
      "Panchalas": 1993,
      "ists": 1994,
      "shin": 1995,
      "Sugrīva": 1996,
      "Ab": 1997,
      "lling": 1998,
      "fortun": 1999,
      "mou": 2000,
      "wis": 2001,
      "rivers": 2002,
      "dep": 2003,
      "ented": 2004,
      "lost": 2005,
      "fearful": 2006,
      "listen": 2007,
      "reason": 2008,
      "sleep": 2009,
      "Yoga": 2010,
      "Yu": 2011,
      "shower": 2012,
      "exer": 2013,
      "lion": 2014,
      "ew": 2015,
      "effulgence": 2016,
      "dden": 2017,
      "knowing": 2018,
      "scriptures": 2019,
      "woman": 2020,
      "owing": 2021,
      "riches": 2022,
      "ames": 2023,
      "sooth": 2024,
      "wield": 2025,
      "sorts": 2026,
      "pie": 2027,
      "Narayana": 2028,
      "accompanied": 2029,
      "eat": 2030,
      "practi": 2031,
      "fallen": 2032,
      "air": 2033,
      "moved": 2034,
      "aura": 2035,
      "part": 2036,
      "family": 2037,
      "snakes": 2038,
      "wisdom": 2039,
      "play": 2040,
      "yours": 2041,
      "righteousness": 2042,
      "blazing": 2043,
      "splendour": 2044,
      "fought": 2045,
      "assa": 2046,
      "aim": 2047,
      "placed": 2048,
      "lay": 2049,
      "company": 2050,
      "mouth": 2051,
      "Kri": 2052,
      "refuge": 2053,
      "Han": 2054,
      "fle": 2055,
      "ratha": 2056,
      "oked": 2057,
      "offering": 2058,
      "hermitage": 2059,
      "accomplish": 2060,
      "touch": 2061,
      "sci": 2062,
      "bolt": 2063,
      "From": 2064,
      "lam": 2065,
      "weak": 2066,
      "Bri": 2067,
      "accept": 2068,
      "formed": 2069,
      "laid": 2070,
      "iti": 2071,
      "approach": 2072,
      "garl": 2073,
      "gious": 2074,
      "Bharatas": 2075,
      "presence": 2076,
      "mean": 2077,
      "Tell": 2078,
      "aves": 2079,
      "ward": 2080,
      "seek": 2081,
      "wing": 2082,
      "feel": 2083,
      "Vishnu": 2084,
      "hard": 2085,
      "view": 2086,
      "slaying": 2087,
      "divis": 2088,
      "defeated": 2089,
      "Vib": 2090,
      "seated": 2091,
      "replied": 2092,
      "master": 2093,
      "opp": 2094,
      "state": 2095,
      "getic": 2096,
      "Kripa": 2097,
      "To": 2098,
      "energetic": 2099,
      "adored": 2100,
      "favour": 2101,
      "prom": 2102,
      "nob": 2103,
      "Hanum": 2104,
      "grow": 2105,
      "akas": 2106,
      "rying": 2107,
      "single": 2108,
      "hostile": 2109,
      "Ganga": 2110,
      "attained": 2111,
      "repe": 2112,
      "wait": 2113,
      "suff": 2114,
      "She": 2115,
      "gs": 2116,
      "mort": 2117,
      "resembled": 2118,
      "chastis": 2119,
      "affection": 2120,
      "peri": 2121,
      "bows": 2122,
      "amongst": 2123,
      "Laksmana": 2124,
      "Such": 2125,
      "Keshava": 2126,
      "os": 2127,
      "vit": 2128,
      "versed": 2129,
      "serp": 2130,
      "showers": 2131,
      "Kaura": 2132,
      "mat": 2133,
      "pour": 2134,
      "remain": 2135,
      "forces": 2136,
      "mber": 2137,
      "misery": 2138,
      "Whi": 2139,
      "Vyasa": 2140,
      "protection": 2141,
      "cha": 2142,
      "charm": 2143,
      "ently": 2144,
      "atta": 2145,
      "love": 2146,
      "ately": 2147,
      "Bhri": 2148,
      "numerous": 2149,
      "discharged": 2150,
      "Suta": 2151,
      "run": 2152,
      "Dharma": 2153,
      "ream": 2154,
      "bearing": 2155,
      "Nak": 2156,
      "slaughter": 2157,
      "directions": 2158,
      "spring": 2159,
      "met": 2160,
      "aratha": 2161,
      "iva": 2162,
      "fruit": 2163,
      "Danavas": 2164,
      "iss": 2165,
      "agreeable": 2166,
      "string": 2167,
      "ided": 2168,
      "God": 2169,
      "gener": 2170,
      "looking": 2171,
      "ju": 2172,
      "inter": 2173,
      "fool": 2174,
      "sea": 2175,
      "termin": 2176,
      "cible": 2177,
      "subject": 2178,
      "charming": 2179,
      "near": 2180,
      "eye": 2181,
      "Nakula": 2182,
      "Yak": 2183,
      "throw": 2184,
      "umb": 2185,
      "sinless": 2186,
      "angry": 2187,
      "occas": 2188,
      "Sahadeva": 2189,
      "gems": 2190,
      "rified": 2191,
      "spot": 2192,
      "dess": 2193,
      "salut": 2194,
      "enraged": 2195,
      "cken": 2196,
      "Dev": 2197,
      "repa": 2198,
      "vata": 2199,
      "norance": 2200,
      "respective": 2201,
      "inte": 2202,
      "killing": 2203,
      "religious": 2204,
      "hara": 2205,
      "posed": 2206,
      "observ": 2207,
      "deity": 2208,
      "move": 2209,
      "welfare": 2210,
      "religion": 2211,
      "kas": 2212,
      "wounded": 2213,
      "caused": 2214,
      "attribut": 2215,
      "offered": 2216,
      "Hanumān": 2217,
      "Bhrigu": 2218,
      "sible": 2219,
      "divine": 2220,
      "roar": 2221,
      "comb": 2222,
      "new": 2223,
      "desires": 2224,
      "chastiser": 2225,
      "Supreme": 2226,
      "firm": 2227,
      "cient": 2228,
      "hearts": 2229,
      "merits": 2230,
      "uts": 2231,
      "law": 2232,
      "vent": 2233,
      "tow": 2234,
      "ture": 2235,
      "repeated": 2236,
      "incible": 2237,
      "Dush": 2238,
      "matter": 2239,
      "circ": 2240,
      "Da": 2241,
      "honour": 2242,
      "male": 2243,
      "commit": 2244,
      "petu": 2245,
      "teen": 2246,
      "manyu": 2247,
      "described": 2248,
      "tri": 2249,
      "hip": 2250,
      "retch": 2251,
      "vereign": 2252,
      "cent": 2253,
      "cru": 2254,
      "jas": 2255,
      "vā": 2256,
      "fect": 2257,
      "agit": 2258,
      "tears": 2259,
      "Kai": 2260,
      "whel": 2261,
      "flict": 2262,
      "rand": 2263,
      "ests": 2264,
      "ressing": 2265,
      "nake": 2266,
      "dar": 2267,
      "mission": 2268,
      "Rakshasa": 2269,
      "invincible": 2270,
      "different": 2271,
      "trans": 2272,
      "fin": 2273,
      "subdu": 2274,
      "just": 2275,
      "sudden": 2276,
      "ison": 2277,
      "Ut": 2278,
      "goddess": 2279,
      "ita": 2280,
      "regarding": 2281,
      "ls": 2282,
      "rema": 2283,
      "auster": 2284,
      "already": 2285,
      "accomplished": 2286,
      "dam": 2287,
      "limb": 2288,
      "suming": 2289,
      "confer": 2290,
      "Dest": 2291,
      "lust": 2292,
      "truly": 2293,
      "pride": 2294,
      "eved": 2295,
      "pressed": 2296,
      "Him": 2297,
      "foe": 2298,
      "sovereign": 2299,
      "stricken": 2300,
      "little": 2301,
      "assembl": 2302,
      "tig": 2303,
      "noble": 2304,
      "Me": 2305,
      "Mo": 2306,
      "Tir": 2307,
      "kins": 2308,
      "beheld": 2309,
      "Mahadeva": 2310,
      "certainly": 2311,
      "increas": 2312,
      "Krit": 2313,
      "ute": 2314,
      "ounding": 2315,
      "controlled": 2316,
      "influ": 2317,
      "shorn": 2318,
      "maid": 2319,
      "relati": 2320,
      "arrived": 2321,
      "ror": 2322,
      "hood": 2323,
      "grati": 2324,
      "King": 2325,
      "eight": 2326,
      "Sum": 2327,
      "pose": 2328,
      "around": 2329,
      "resol": 2330,
      "Of": 2331,
      "cries": 2332,
      "assem": 2333,
      "aband": 2334,
      "ises": 2335,
      "during": 2336,
      "advan": 2337,
      "fal": 2338,
      "ani": 2339,
      "Thereat": 2340,
      "acquiring": 2341,
      "namely": 2342,
      "wheel": 2343,
      "Ti": 2344,
      "orious": 2345,
      "stra": 2346,
      "roars": 2347,
      "surely": 2348,
      "departed": 2349,
      "above": 2350,
      "Virata": 2351,
      "half": 2352,
      "While": 2353,
      "Listen": 2354,
      "Madhu": 2355,
      "pointed": 2356,
      "mass": 2357,
      "damsel": 2358,
      "Rudra": 2359,
      "ested": 2360,
      "exp": 2361,
      "endowed": 2362,
      "learning": 2363,
      "austerities": 2364,
      "fles": 2365,
      "snake": 2366,
      "recit": 2367,
      "asana": 2368,
      "cover": 2369,
      "gir": 2370,
      "thed": 2371,
      "conch": 2372,
      "broken": 2373,
      "eyed": 2374,
      "breast": 2375,
      "whelmed": 2376,
      "fat": 2377,
      "khand": 2378,
      "iny": 2379,
      "carried": 2380,
      "country": 2381,
      "falling": 2382,
      "grandfather": 2383,
      "arna": 2384,
      "liber": 2385,
      "begot": 2386,
      "truthful": 2387,
      "describe": 2388,
      "celebrated": 2389,
      "season": 2390,
      "win": 2391,
      "aming": 2392,
      "Dhrish": 2393,
      "returned": 2394,
      "palace": 2395,
      "hurled": 2396,
      "princes": 2397,
      "gain": 2398,
      "since": 2399,
      "Time": 2400,
      "bull": 2401,
      "received": 2402,
      "lies": 2403,
      "Wind": 2404,
      "adha": 2405,
      "aut": 2406,
      "fold": 2407,
      "anything": 2408,
      "compass": 2409,
      "cruel": 2410,
      "pun": 2411,
      "tail": 2412,
      "joined": 2413,
      "performing": 2414,
      "Bha": 2415,
      "Ku": 2416,
      "adatta": 2417,
      "fault": 2418,
      "cloth": 2419,
      "sword": 2420,
      "beho": 2421,
      "conflict": 2422,
      "goes": 2423,
      "bestow": 2424,
      "yore": 2425,
      "stay": 2426,
      "charac": 2427,
      "itude": 2428,
      "flesh": 2429,
      "kṣ": 2430,
      "low": 2431,
      "month": 2432,
      "Gandiva": 2433,
      "thinking": 2434,
      "conquer": 2435,
      "limbs": 2436,
      "Grand": 2437,
      "cost": 2438,
      "ught": 2439,
      "ples": 2440,
      "hadra": 2441,
      "Alas": 2442,
      "Soma": 2443,
      "garlands": 2444,
      "treat": 2445,
      "attached": 2446,
      "Sam": 2447,
      "edi": 2448,
      "distress": 2449,
      "calam": 2450,
      "stain": 2451,
      "chas": 2452,
      "upada": 2453,
      "Bharad": 2454,
      "Vri": 2455,
      "fast": 2456,
      "cher": 2457,
      "Shakuni": 2458,
      "Ragh": 2459,
      "belonging": 2460,
      "younger": 2461,
      "relatives": 2462,
      "Sav": 2463,
      "whatever": 2464,
      "purpose": 2465,
      "bri": 2466,
      "mod": 2467,
      "rew": 2468,
      "wenty": 2469,
      "obtains": 2470,
      "range": 2471,
      "sounds": 2472,
      "devotion": 2473,
      "character": 2474,
      "cho": 2475,
      "sec": 2476,
      "pread": 2477,
      "Pit": 2478,
      "land": 2479,
      "vati": 2480,
      "separ": 2481,
      "bey": 2482,
      "leaving": 2483,
      "Drupada": 2484,
      "Pr": 2485,
      "velo": 2486,
      "brave": 2487,
      "drink": 2488,
      "anxi": 2489,
      "Abhi": 2490,
      "cou": 2491,
      "isting": 2492,
      "points": 2493,
      "numerable": 2494,
      "tor": 2495,
      "inhab": 2496,
      "youth": 2497,
      "fright": 2498,
      "destroying": 2499,
      "len": 2500,
      "port": 2501,
      "standard": 2502,
      "beh": 2503,
      "idd": 2504,
      "tem": 2505,
      "creature": 2506,
      "science": 2507,
      "ention": 2508,
      "attack": 2509,
      "Varuna": 2510,
      "depend": 2511,
      "lake": 2512,
      "assembly": 2513,
      "abandon": 2514,
      "attered": 2515,
      "exal": 2516,
      "milar": 2517,
      "eping": 2518,
      "kinsmen": 2519,
      "Rä": 2520,
      "twenty": 2521,
      "vanquished": 2522,
      "thas": 2523,
      "attach": 2524,
      "banks": 2525,
      "morality": 2526,
      "wishes": 2527,
      "repeatedly": 2528,
      "bs": 2529,
      "equ": 2530,
      "Kaikey": 2531,
      "sages": 2532,
      "curse": 2533,
      "Janaka": 2534,
      "spread": 2535,
      "anka": 2536,
      "overwhelmed": 2537,
      "suppor": 2538,
      "exalted": 2539,
      "Nag": 2540,
      "Sind": 2541,
      "ular": 2542,
      "astya": 2543,
      "darkness": 2544,
      "sell": 2545,
      "occasion": 2546,
      "lum": 2547,
      "virtues": 2548,
      "Vaish": 2549,
      "defeat": 2550,
      "Raksasas": 2551,
      "pat": 2552,
      "seat": 2553,
      "because": 2554,
      "disc": 2555,
      "isted": 2556,
      "sever": 2557,
      "usha": 2558,
      "ously": 2559,
      "ques": 2560,
      "followers": 2561,
      "getting": 2562,
      "Panchala": 2563,
      "Vā": 2564,
      "sw": 2565,
      "ses": 2566,
      "iding": 2567,
      "sura": 2568,
      "conscious": 2569,
      "rushing": 2570,
      "formerly": 2571,
      "aw": 2572,
      "const": 2573,
      "bling": 2574,
      "begin": 2575,
      "honoured": 2576,
      "anxiety": 2577,
      "No": 2578,
      "fit": 2579,
      "hya": 2580,
      "inion": 2581,
      "penet": 2582,
      "assembled": 2583,
      "que": 2584,
      "voice": 2585,
      "gard": 2586,
      "khandin": 2587,
      "Abhimanyu": 2588,
      "ive": 2589,
      "ield": 2590,
      "ayas": 2591,
      "swi": 2592,
      "tas": 2593,
      "seiz": 2594,
      "station": 2595,
      "acha": 2596,
      "ministers": 2597,
      "vast": 2598,
      "incl": 2599,
      "remon": 2600,
      "existence": 2601,
      "Mar": 2602,
      "lau": 2603,
      "feat": 2604,
      "disci": 2605,
      "actions": 2606,
      "-\"": 2607,
      "innumerable": 2608,
      "ador": 2609,
      "Dasaratha": 2610,
      "Mant": 2611,
      "ator": 2612,
      "counten": 2613,
      "happy": 2614,
      "princi": 2615,
      "takes": 2616,
      "wings": 2617,
      "ishment": 2618,
      "vaja": 2619,
      "milk": 2620,
      "Sha": 2621,
      "yield": 2622,
      "second": 2623,
      "succeeds": 2624,
      "ivid": 2625,
      "consu": 2626,
      "apa": 2627,
      "app": 2628,
      "clad": 2629,
      "Vaide": 2630,
      "Aps": 2631,
      "lib": 2632,
      "aksha": 2633,
      "taining": 2634,
      "medi": 2635,
      "cting": 2636,
      "permission": 2637,
      "regarded": 2638,
      "izens": 2639,
      "Dhrisht": 2640,
      "leave": 2641,
      "makes": 2642,
      "odara": 2643,
      "jewel": 2644,
      "Janard": 2645,
      "graceful": 2646,
      "complete": 2647,
      "lament": 2648,
      "attributes": 2649,
      "Dushasana": 2650,
      "Pitris": 2651,
      "rate": 2652,
      "haspati": 2653,
      "necess": 2654,
      "observing": 2655,
      "drawn": 2656,
      "Lank": 2657,
      "ref": 2658,
      "assu": 2659,
      "ceas": 2660,
      "gover": 2661,
      "approached": 2662,
      "sense": 2663,
      "combat": 2664,
      "gratified": 2665,
      "acrifi": 2666,
      "poison": 2667,
      "position": 2668,
      "united": 2669,
      "vaņa": 2670,
      "ility": 2671,
      "array": 2672,
      "manif": 2673,
      "avar": 2674,
      "ityas": 2675,
      "bowman": 2676,
      "neither": 2677,
      "dart": 2678,
      "diverse": 2679,
      "supreme": 2680,
      "dha": 2681,
      "vants": 2682,
      "pursu": 2683,
      "becoming": 2684,
      "rose": 2685,
      "sm": 2686,
      "vind": 2687,
      "fixed": 2688,
      "nder": 2689,
      "uda": 2690,
      "shaft": 2691,
      "embra": 2692,
      "fortune": 2693,
      "Raghu": 2694,
      "rig": 2695,
      "save": 2696,
      "sive": 2697,
      "antly": 2698,
      "parts": 2699,
      "servants": 2700,
      "study": 2701,
      "Up": 2702,
      "hum": 2703,
      "raised": 2704,
      "Rākṣ": 2705,
      "point": 2706,
      "var": 2707,
      "wit": 2708,
      "armour": 2709,
      "knows": 2710,
      "leading": 2711,
      "Vrik": 2712,
      "Creat": 2713,
      "ets": 2714,
      "mn": 2715,
      "haust": 2716,
      "ladies": 2717,
      "assailed": 2718,
      "Dhrishtadyumna": 2719,
      "stup": 2720,
      "terror": 2721,
      "akra": 2722,
      "dust": 2723,
      "measura": 2724,
      "swift": 2725,
      "Un": 2726,
      "Where": 2727,
      "want": 2728,
      "loved": 2729,
      "influence": 2730,
      "roots": 2731,
      "uttering": 2732,
      "suddenly": 2733,
      "Lankā": 2734,
      "fish": 2735,
      "smil": 2736,
      "amp": 2737,
      "moving": 2738,
      "grieve": 2739,
      "alive": 2740,
      "offerings": 2741,
      "poured": 2742,
      "rad": 2743,
      "maṇ": 2744,
      "ishing": 2745,
      "dice": 2746,
      "Liber": 2747,
      "agitated": 2748,
      "darts": 2749,
      "Asura": 2750,
      "short": 2751,
      "Shant": 2752,
      "rings": 2753,
      "places": 2754,
      "Vrikodara": 2755,
      "Jay": 2756,
      "Kumb": 2757,
      "ithi": 2758,
      "idence": 2759,
      "wearing": 2760,
      "exhaust": 2761,
      "speaking": 2762,
      "offspring": 2763,
      "lotuses": 2764,
      "Srin": 2765,
      "Tru": 2766,
      "ceremon": 2767,
      "eldest": 2768,
      "remember": 2769,
      "Rākşasa": 2770,
      "Moon": 2771,
      "Jam": 2772,
      "Kal": 2773,
      "Man": 2774,
      "Na": 2775,
      "adv": 2776,
      "immeasura": 2777,
      "prehen": 2778,
      "sme": 2779,
      "abl": 2780,
      "seless": 2781,
      "orders": 2782,
      "ima": 2783,
      "anc": 2784,
      "Jana": 2785,
      "Nala": 2786,
      "found": 2787,
      "gate": 2788,
      "mejaya": 2789,
      "whether": 2790,
      "excited": 2791,
      "conquered": 2792,
      "pieces": 2793,
      "Brā": 2794,
      "cor": 2795,
      "dri": 2796,
      "rable": 2797,
      "herself": 2798,
      "black": 2799,
      "iling": 2800,
      "Gar": 2801,
      "sit": 2802,
      "iron": 2803,
      "immort": 2804,
      "giver": 2805,
      "counsell": 2806,
      "holder": 2807,
      "Vasava": 2808,
      "satisf": 2809,
      "vital": 2810,
      "Shantanu": 2811,
      "really": 2812,
      "orning": 2813,
      "caus": 2814,
      "cove": 2815,
      "addressing": 2816,
      "colour": 2817,
      "worshipful": 2818,
      "Brihaspati": 2819,
      "Am": 2820,
      "eth": 2821,
      "sis": 2822,
      "marks": 2823,
      "gives": 2824,
      "boons": 2825,
      "bowmen": 2826,
      "Brāh": 2827,
      "cri": 2828,
      "fron": 2829,
      "grass": 2830,
      "butter": 2831,
      "visible": 2832,
      "Janamejaya": 2833,
      "Ex": 2834,
      "twel": 2835,
      "stream": 2836,
      "flag": 2837,
      "Shikhandin": 2838,
      "Sacrifi": 2839,
      "swords": 2840,
      "severed": 2841,
      "ages": 2842,
      "Brahm": 2843,
      "although": 2844,
      "Des": 2845,
      "nis": 2846,
      "rut": 2847,
      "establ": 2848,
      "pping": 2849,
      "flaming": 2850,
      "burnt": 2851,
      "dropped": 2852,
      "Janardana": 2853,
      "Or": 2854,
      "bene": 2855,
      "anti": 2856,
      "stead": 2857,
      "false": 2858,
      "countenance": 2859,
      "gated": 2860,
      "skilled": 2861,
      "try": 2862,
      "lly": 2863,
      "ils": 2864,
      "presents": 2865,
      "pened": 2866,
      "chariots": 2867,
      "Bharadvaja": 2868,
      "manifest": 2869,
      "Liberation": 2870,
      "morning": 2871,
      "aven": 2872,
      "stationed": 2873,
      "thern": 2874,
      "immobile": 2875,
      "distressed": 2876,
      "bran": 2877,
      "cat": 2878,
      "igh": 2879,
      "tal": 2880,
      "yed": 2881,
      "ze": 2882,
      "entering": 2883,
      "broad": 2884,
      "purified": 2885,
      "Vrishni": 2886,
      "hope": 2887,
      "perfect": 2888,
      "practice": 2889,
      "mad": 2890,
      "Thereafter": 2891,
      "handsome": 2892,
      "Kritavar": 2893,
      "mus": 2894,
      "vin": 2895,
      "vara": 2896,
      "inten": 2897,
      "ults": 2898,
      "Hear": 2899,
      "icated": 2900,
      "slew": 2901,
      "division": 2902,
      "Kauravas": 2903,
      "cup": 2904,
      "tras": 2905,
      "vul": 2906,
      "search": 2907,
      "vel": 2908,
      "restrain": 2909,
      "appearance": 2910,
      "ease": 2911,
      "anda": 2912,
      "ainted": 2913,
      "opinion": 2914,
      "quarters": 2915,
      "Mantras": 2916,
      "Shu": 2917,
      "kha": 2918,
      "names": 2919,
      "story": 2920,
      "expl": 2921,
      "priest": 2922,
      "rising": 2923,
      "portion": 2924,
      "Saras": 2925,
      "beasts": 2926,
      "abha": 2927,
      "real": 2928,
      "appears": 2929,
      "princess": 2930,
      "Gandhari": 2931,
      "faces": 2932,
      "outs": 2933,
      "decl": 2934,
      "resc": 2935,
      "ciation": 2936,
      "bha": 2937,
      "wal": 2938,
      "iting": 2939,
      "redu": 2940,
      "seemed": 2941,
      "Shudra": 2942,
      "glory": 2943,
      "calamity": 2944,
      ");": 2945,
      "Kaus": 2946,
      "Sar": 2947,
      "wand": 2948,
      "wrong": 2949,
      "asy": 2950,
      "star": 2951,
      "deli": 2952,
      "mail": 2953,
      "thers": 2954,
      "slaught": 2955,
      "Sugri": 2956,
      "Kā": 2957,
      "gni": 2958,
      "unable": 2959,
      "citizens": 2960,
      "Sugriva": 2961,
      "Mand": 2962,
      "Sidd": 2963,
      "bad": 2964,
      "reached": 2965,
      "harsh": 2966,
      "lessly": 2967,
      "Ashvat": 2968,
      "lecting": 2969,
      "foolish": 2970,
      "ben": 2971,
      "hī": 2972,
      "rob": 2973,
      "female": 2974,
      "otherwise": 2975,
      "Here": 2976,
      "sometimes": 2977,
      "colle": 2978,
      "remained": 2979,
      "ividual": 2980,
      "jewels": 2981,
      "din": 2982,
      "greatest": 2983,
      "forests": 2984,
      "elf": 2985,
      "cry": 2986,
      "shas": 2987,
      "teeth": 2988,
      "girl": 2989,
      "reach": 2990,
      "resplend": 2991,
      "praise": 2992,
      "Oh": 2993,
      "ade": 2994,
      "cite": 2995,
      "repres": 2996,
      "bird": 2997,
      "sort": 2998,
      "puiss": 2999,
      "Angada": 3000,
      "interest": 3001,
      ".)": 3002,
      "Ay": 3003,
      "hell": 3004,
      "hap": 3005,
      "perfor": 3006,
      "rific": 3007,
      "properly": 3008,
      "sand": 3009,
      "display": 3010,
      "furious": 3011,
      "presented": 3012,
      "witness": 3013,
      "puissant": 3014,
      "ding": 3015,
      "issu": 3016,
      "distance": 3017,
      "cross": 3018,
      "Subhadra": 3019,
      "beginning": 3020,
      "bur": 3021,
      "playing": 3022,
      "disso": 3023,
      "pleasant": 3024,
      "Brāhmaṇ": 3025,
      "wild": 3026,
      "create": 3027,
      "Behold": 3028,
      "versal": 3029,
      "striking": 3030,
      "commanded": 3031,
      "question": 3032,
      "Kash": 3033,
      "Pro": 3034,
      "aj": 3035,
      "nar": 3036,
      "wretch": 3037,
      "ences": 3038,
      "artic": 3039,
      "stars": 3040,
      "noise": 3041,
      "longer": 3042,
      "protecting": 3043,
      "Subala": 3044,
      "hun": 3045,
      "shape": 3046,
      "Vishv": 3047,
      "bathed": 3048,
      "ascended": 3049,
      "serpents": 3050,
      "behind": 3051,
      "counsellors": 3052,
      "hes": 3053,
      "kept": 3054,
      "illusion": 3055,
      "vicious": 3056,
      "ila": 3057,
      "approaching": 3058,
      "Gaut": 3059,
      "Many": 3060,
      "bright": 3061,
      "itable": 3062,
      "Heaven": 3063,
      "follows": 3064,
      "crushed": 3065,
      "open": 3066,
      "rist": 3067,
      "san": 3068,
      "itation": 3069,
      "turned": 3070,
      "wielder": 3071,
      "fatig": 3072,
      "Ashvattha": 3073,
      "jit": 3074,
      "roaring": 3075,
      "boy": 3076,
      "suffer": 3077,
      "Shar": 3078,
      "march": 3079,
      "rating": 3080,
      "carry": 3081,
      "claim": 3082,
      "partic": 3083,
      "entertain": 3084,
      "beloved": 3085,
      "sign": 3086,
      "loss": 3087,
      "desired": 3088,
      "cheerful": 3089,
      "attacked": 3090,
      "keen": 3091,
      "percei": 3092,
      "prop": 3093,
      "standards": 3094,
      "Chit": 3095,
      "benef": 3096,
      "bers": 3097,
      "home": 3098,
      "clu": 3099,
      "Through": 3100,
      "sharpened": 3101,
      "clean": 3102,
      "twelve": 3103,
      "ordered": 3104,
      "meat": 3105,
      "oney": 3106,
      "grandson": 3107,
      "thirst": 3108,
      "osity": 3109,
      "immeasurable": 3110,
      "ame": 3111,
      "bent": 3112,
      "glad": 3113,
      "ler": 3114,
      "tive": 3115,
      "shed": 3116,
      "Vik": 3117,
      "protector": 3118,
      "Agastya": 3119,
      "Jayad": 3120,
      "May": 3121,
      "wash": 3122,
      "ordained": 3123,
      "bodied": 3124,
      "spor": 3125,
      "Radha": 3126,
      "leas": 3127,
      "wered": 3128,
      "arified": 3129,
      "faith": 3130,
      "creation": 3131,
      "answered": 3132,
      "rulers": 3133,
      "cloud": 3134,
      "continu": 3135,
      "maces": 3136,
      "skill": 3137,
      "requ": 3138,
      "ashes": 3139,
      "acquainted": 3140,
      "thunderbolt": 3141,
      "Kumbhak": 3142,
      "slaughtered": 3143,
      "Ac": 3144,
      "bewa": 3145,
      "blow": 3146,
      "regards": 3147,
      "gage": 3148,
      "satisfied": 3149,
      "smit": 3150,
      "Without": 3151,
      "trun": 3152,
      "Tirtha": 3153,
      "advanced": 3154,
      "tran": 3155,
      "reve": 3156,
      "engage": 3157,
      "hist": 3158,
      "roud": 3159,
      "counsel": 3160,
      "urged": 3161,
      "ager": 3162,
      "similar": 3163,
      "Though": 3164,
      "Dhrist": 3165,
      "continued": 3166,
      "seized": 3167,
      "libations": 3168,
      "Jayadratha": 3169,
      "Ba": 3170,
      "jour": 3171,
      "ured": 3172,
      "fif": 3173,
      "period": 3174,
      "several": 3175,
      "laugh": 3176,
      "Ak": 3177,
      "Now": 3178,
      "far": 3179,
      "mode": 3180,
      "sought": 3181,
      "please": 3182,
      "universal": 3183,
      "looks": 3184,
      "practised": 3185,
      "equi": 3186,
      "hika": 3187,
      "determin": 3188,
      "lions": 3189,
      "forsooth": 3190,
      "avo": 3191,
      "mercy": 3192,
      "Vedic": 3193,
      "drag": 3194,
      "famous": 3195,
      "Utt": 3196,
      "Apsaras": 3197,
      "Garuda": 3198,
      "covet": 3199,
      "music": 3200,
      "resplendent": 3201,
      "Nature": 3202,
      "fly": 3203,
      "yapa": 3204,
      "terrific": 3205,
      "peak": 3206,
      "hosts": 3207,
      "originated": 3208,
      "practices": 3209,
      "Dhristadyumna": 3210,
      "pes": 3211,
      "arose": 3212,
      "raid": 3213,
      "udras": 3214,
      "immedi": 3215,
      "clarified": 3216,
      "ignorance": 3217,
      "shoot": 3218,
      "renounce": 3219,
      "Dur": 3220,
      "bound": 3221,
      "flying": 3222,
      "lap": 3223,
      "otk": 3224,
      "poor": 3225,
      "pily": 3226,
      "renown": 3227,
      "elements": 3228,
      "die": 3229,
      "crowned": 3230,
      "hills": 3231,
      "Daityas": 3232,
      "Sarasvati": 3233,
      "history": 3234,
      "dru": 3235,
      "ki": 3236,
      "assuming": 3237,
      "leaves": 3238,
      "union": 3239,
      "greater": 3240,
      "retched": 3241,
      "straight": 3242,
      "ika": 3243,
      "obl": 3244,
      "apart": 3245,
      "perpetu": 3246,
      "agon": 3247,
      "subju": 3248,
      "sovereignty": 3249,
      "Ghat": 3250,
      "maiden": 3251,
      "asylum": 3252,
      "Hanu": 3253,
      "smo": 3254,
      "ishtha": 3255,
      "exists": 3256,
      "rendered": 3257,
      "elder": 3258,
      "piercing": 3259,
      "proceeding": 3260,
      "anxious": 3261,
      "Kaikeyi": 3262,
      "consciousness": 3263,
      "Mark": 3264,
      "Mats": 3265,
      "Sur": 3266,
      "cul": 3267,
      "won": 3268,
      "ernal": 3269,
      "accep": 3270,
      "rule": 3271,
      "ancest": 3272,
      "ax": 3273,
      "gent": 3274,
      "nat": 3275,
      "proud": 3276,
      "rent": 3277,
      "utstha": 3278,
      "necessary": 3279,
      "Hence": 3280,
      "smi": 3281,
      "ficial": 3282,
      "friendship": 3283,
      "Madras": 3284,
      "Nagas": 3285,
      "branches": 3286,
      "Ghatotk": 3287,
      "Self": 3288,
      "hung": 3289,
      "mali": 3290,
      "nt": 3291,
      "ration": 3292,
      "conso": 3293,
      "heavy": 3294,
      "case": 3295,
      "tiger": 3296,
      "happily": 3297,
      "Hanuman": 3298,
      "hom": 3299,
      "shone": 3300,
      "ake": 3301,
      "ints": 3302,
      "ching": 3303,
      "attention": 3304,
      "class": 3305,
      "renouncing": 3306,
      "articles": 3307,
      "Ghatotkacha": 3308,
      "Yad": 3309,
      "andha": 3310,
      "conne": 3311,
      "abounding": 3312,
      "carrying": 3313,
      "viol": 3314,
      "Forsooth": 3315,
      "luck": 3316,
      "wheels": 3317,
      "Gautama": 3318,
      "Ig": 3319,
      "Yay": 3320,
      "cra": 3321,
      "asha": 3322,
      "tible": 3323,
      "chan": 3324,
      "detail": 3325,
      "afraid": 3326,
      "prep": 3327,
      "Madri": 3328,
      "blame": 3329,
      "Nahus": 3330,
      "Siddhas": 3331,
      "call": 3332,
      "yoked": 3333,
      "fea": 3334,
      "giveness": 3335,
      "practise": 3336,
      "Yuga": 3337,
      "begotten": 3338,
      "Hari": 3339,
      "baf": 3340,
      "result": 3341,
      "tern": 3342,
      "mild": 3343,
      "possessing": 3344,
      "coursing": 3345,
      "lution": 3346,
      "fraught": 3347,
      "Yakshas": 3348,
      "saluted": 3349,
      "compet": 3350,
      "attains": 3351,
      "rangers": 3352,
      "small": 3353,
      "Kashyapa": 3354,
      "Nor": 3355,
      "hous": 3356,
      "sees": 3357,
      "severe": 3358,
      "Shrad": 3359,
      "obtaining": 3360,
      "pair": 3361,
      "serpent": 3362,
      "Lo": 3363,
      "Si": 3364,
      "hā": 3365,
      "tiv": 3366,
      "mention": 3367,
      "guise": 3368,
      "Viś": 3369,
      "rules": 3370,
      "acquis": 3371,
      "placing": 3372,
      "piece": 3373,
      "Sau": 3374,
      "Under": 3375,
      "pot": 3376,
      "ye": 3377,
      "tired": 3378,
      "soli": 3379,
      "skin": 3380,
      "observe": 3381,
      "divisions": 3382,
      "vinda": 3383,
      "sister": 3384,
      "Ren": 3385,
      "cities": 3386,
      "danger": 3387,
      "line": 3388,
      "trou": 3389,
      "thor": 3390,
      "lif": 3391,
      "blue": 3392,
      "promise": 3393,
      "Ayod": 3394,
      "immediately": 3395,
      "competent": 3396,
      "Vrit": 3397,
      "bus": 3398,
      "ere": 3399,
      "beha": 3400,
      "oming": 3401,
      "lightning": 3402,
      "welkin": 3403,
      "summit": 3404,
      "adore": 3405,
      "shining": 3406,
      "committed": 3407,
      "covering": 3408,
      "particular": 3409,
      "Sank": 3410,
      "clear": 3411,
      "gained": 3412,
      "thes": 3413,
      "itute": 3414,
      "bears": 3415,
      "souls": 3416,
      "observed": 3417,
      "practising": 3418,
      "Yuy": 3419,
      "fleet": 3420,
      "performan": 3421,
      "sour": 3422,
      "ancient": 3423,
      "experi": 3424,
      "ender": 3425,
      "carwarriors": 3426,
      "speci": 3427,
      "mounted": 3428,
      "purity": 3429,
      "graced": 3430,
      "repair": 3431,
      "Grandfather": 3432,
      "Truth": 3433,
      "Fire": 3434,
      "fact": 3435,
      "ping": 3436,
      "pers": 3437,
      "Shrut": 3438,
      "inflamed": 3439,
      "eru": 3440,
      "unciation": 3441,
      "worldly": 3442,
      "Yudhis": 3443,
      "injury": 3444,
      "Ignorance": 3445,
      "Nahusha": 3446,
      "Vritra": 3447,
      "nine": 3448,
      "phy": 3449,
      "tong": 3450,
      "ords": 3451,
      "gets": 3452,
      "uture": 3453,
      "drinking": 3454,
      "twang": 3455,
      "deserve": 3456,
      "veloped": 3457,
      "supported": 3458,
      "reduced": 3459,
      "Yudhisthira": 3460,
      "Men": 3461,
      "advice": 3462,
      "attend": 3463,
      "extre": 3464,
      "need": 3465,
      "Brahmachar": 3466,
      "brell": 3467,
      "Yog": 3468,
      "beyond": 3469,
      "front": 3470,
      "En": 3471,
      "eager": 3472,
      "xing": 3473,
      "demon": 3474,
      "serve": 3475,
      "quality": 3476,
      "established": 3477,
      "beneficial": 3478,
      "Saying": 3479,
      "guna": 3480,
      "ishad": 3481,
      "aloud": 3482,
      "ears": 3483,
      "neck": 3484,
      "consisting": 3485,
      "umbrell": 3486,
      "produced": 3487,
      "equally": 3488,
      "bar": 3489,
      "rasena": 3490,
      "top": 3491,
      "lie": 3492,
      "feats": 3493,
      "concl": 3494,
      "abstain": 3495,
      "evening": 3496,
      "passing": 3497,
      "circum": 3498,
      "covetous": 3499,
      "Kam": 3500,
      "Phal": 3501,
      "cen": 3502,
      "kara": 3503,
      "liness": 3504,
      "mament": 3505,
      "exceeding": 3506,
      "bloss": 3507,
      "strike": 3508,
      "Raksasa": 3509,
      "extreme": 3510,
      "Sud": 3511,
      "Salut": 3512,
      "lances": 3513,
      "least": 3514,
      "appointed": 3515,
      "udge": 3516,
      "tingu": 3517,
      "commun": 3518,
      "enjoyment": 3519,
      "observance": 3520,
      "tranqu": 3521,
      "hunger": 3522,
      "houses": 3523,
      "eya": 3524,
      "forgiveness": 3525,
      "indul": 3526,
      "gras": 3527,
      "bera": 3528,
      "carefully": 3529,
      "castes": 3530,
      "accepted": 3531,
      "performance": 3532,
      "Per": 3533,
      "gro": 3534,
      "heat": 3535,
      "accost": 3536,
      "keep": 3537,
      "thick": 3538,
      "pray": 3539,
      "installed": 3540,
      "Is": 3541,
      "mits": 3542,
      "rejo": 3543,
      "andeya": 3544,
      "guests": 3545,
      "firmament": 3546,
      "wrathful": 3547,
      "sprung": 3548,
      "profuse": 3549,
      "Kritavarman": 3550,
      "iv": 3551,
      "seed": 3552,
      "tering": 3553,
      "works": 3554,
      "pect": 3555,
      "pelled": 3556,
      "shame": 3557,
      "answ": 3558,
      "leader": 3559,
      "Knowing": 3560,
      "Both": 3561,
      "kutstha": 3562,
      "ghna": 3563,
      "complex": 3564,
      "Shiva": 3565,
      "Sindhus": 3566,
      "oblations": 3567,
      "emit": 3568,
      "Their": 3569,
      "obedi": 3570,
      "Madhava": 3571,
      "itual": 3572,
      "Good": 3573,
      "Praj": 3574,
      "install": 3575,
      "ordinary": 3576,
      "Kubera": 3577,
      "reveren": 3578,
      "Markandeya": 3579,
      "fac": 3580,
      "gan": 3581,
      "vol": 3582,
      "recite": 3583,
      "apati": 3584,
      "summon": 3585,
      "Ashv": 3586,
      "infant": 3587,
      "Dam": 3588,
      "eating": 3589,
      "sy": 3590,
      "aly": 3591,
      "forward": 3592,
      "plan": 3593,
      "except": 3594,
      "Yayati": 3595,
      "Dark": 3596,
      "mark": 3597,
      "rise": 3598,
      "enced": 3599,
      "concei": 3600,
      "understand": 3601,
      "countries": 3602,
      "minds": 3603,
      "Vaidehi": 3604,
      "tted": 3605,
      "şa": 3606,
      "staying": 3607,
      "delay": 3608,
      "delightful": 3609,
      "drawing": 3610,
      "riding": 3611,
      "achieve": 3612,
      "conchs": 3613,
      "sitting": 3614,
      "Con": 3615,
      "St": 3616,
      "hour": 3617,
      "ranger": 3618,
      "armies": 3619,
      "hence": 3620,
      "necked": 3621,
      "scor": 3622,
      "match": 3623,
      "thrown": 3624,
      "discus": 3625,
      "Hima": 3626,
      "enhan": 3627,
      "haka": 3628,
      "rich": 3629,
      "unto": 3630,
      "manes": 3631,
      "impetu": 3632,
      "Every": 3633,
      "Mag": 3634,
      "pite": 3635,
      "ssed": 3636,
      "capit": 3637,
      "Yaj": 3638,
      "resis": 3639,
      "regain": 3640,
      "Destroy": 3641,
      "intention": 3642,
      "accosted": 3643,
      "Manu": 3644,
      "Ni": 3645,
      "ceit": 3646,
      "hither": 3647,
      "ayanti": 3648,
      "offer": 3649,
      "direction": 3650,
      "Meru": 3651,
      "jack": 3652,
      "recited": 3653,
      "lls": 3654,
      "ural": 3655,
      "avati": 3656,
      "amitra": 3657,
      "ourselves": 3658,
      "outed": 3659,
      "auste": 3660,
      "discourse": 3661,
      "sigh": 3662,
      "thigh": 3663,
      "retreat": 3664,
      "husbands": 3665,
      "subdued": 3666,
      "dissolution": 3667,
      "fying": 3668,
      "honey": 3669,
      "ming": 3670,
      "tried": 3671,
      "ascertain": 3672,
      "acious": 3673,
      "pless": 3674,
      "mental": 3675,
      "everywhere": 3676,
      "support": 3677,
      "attaining": 3678,
      "patience": 3679,
      "Vāli": 3680,
      "Sacrifice": 3681,
      "janas": 3682,
      "thr": 3683,
      "alt": 3684,
      "rughna": 3685,
      "vig": 3686,
      "furi": 3687,
      "hue": 3688,
      "ranks": 3689,
      "enjoys": 3690,
      "possible": 3691,
      "achieved": 3692,
      "intent": 3693,
      "queen": 3694,
      "causes": 3695,
      "complexion": 3696,
      "irresis": 3697,
      "arer": 3698,
      "motion": 3699,
      "disappeared": 3700,
      "pale": 3701,
      "Virtu": 3702,
      "Vrishnis": 3703,
      "punishment": 3704,
      "bit": 3705,
      "offi": 3706,
      "ulted": 3707,
      "exile": 3708,
      "Rāvaņa": 3709,
      "bowed": 3710,
      "bringing": 3711,
      "cheerfully": 3712,
      "condition": 3713,
      "acquisition": 3714,
      "Great": 3715,
      "Ocean": 3716,
      "stances": 3717,
      "bled": 3718,
      "share": 3719,
      "flames": 3720,
      "serving": 3721,
      "araja": 3722,
      "handed": 3723,
      "preceptors": 3724,
      "conferred": 3725,
      "journe": 3726,
      "drums": 3727,
      "reap": 3728,
      "till": 3729,
      "worked": 3730,
      "cape": 3731,
      "vessel": 3732,
      "fathers": 3733,
      "Vasus": 3734,
      "scattered": 3735,
      "directed": 3736,
      "fortunate": 3737,
      "Bhag": 3738,
      "hini": 3739,
      "escape": 3740,
      "aside": 3741,
      "creator": 3742,
      "super": 3743,
      "nights": 3744,
      "related": 3745,
      "tremble": 3746,
      "Savyas": 3747,
      "rigid": 3748,
      "Jamad": 3749,
      "rescue": 3750,
      "prepared": 3751,
      "Darkness": 3752,
      "Kir": 3753,
      "Kap": 3754,
      "Sk": 3755,
      "camp": 3756,
      "dan": 3757,
      "net": 3758,
      "vill": 3759,
      "vable": 3760,
      "stal": 3761,
      "containing": 3762,
      "piety": 3763,
      "Once": 3764,
      "honest": 3765,
      "whetted": 3766,
      "spiritual": 3767,
      "modes": 3768,
      "Creator": 3769,
      "Among": 3770,
      "started": 3771,
      "Prish": 3772,
      "efied": 3773,
      "ners": 3774,
      "situ": 3775,
      "sore": 3776,
      "temp": 3777,
      "blind": 3778,
      "womb": 3779,
      "frequ": 3780,
      "maintain": 3781,
      "sixty": 3782,
      "waiting": 3783,
      "irresistible": 3784,
      "cles": 3785,
      "ksh": 3786,
      "lords": 3787,
      "inner": 3788,
      "infuri": 3789,
      "uncle": 3790,
      "road": 3791,
      "ami": 3792,
      "myster": 3793,
      "agni": 3794,
      "locks": 3795,
      "Suy": 3796,
      "treas": 3797,
      "hyā": 3798,
      "twins": 3799,
      "ranging": 3800,
      "courage": 3801,
      "?\"": 3802,
      "Ap": 3803,
      "ination": 3804,
      "shouts": 3805,
      "mitra": 3806,
      "relate": 3807,
      "animal": 3808,
      "third": 3809,
      "spirit": 3810,
      "Kaurava": 3811,
      "Nishad": 3812,
      "Shat": 3813,
      "jayas": 3814,
      "powers": 3815,
      "displaying": 3816,
      "grieved": 3817,
      "breath": 3818,
      "victorious": 3819,
      "Going": 3820,
      "casting": 3821,
      "touched": 3822,
      "intel": 3823,
      "Rākṣasas": 3824,
      "Phalguna": 3825,
      "Damayanti": 3826,
      "Dis": 3827,
      "future": 3828,
      "refle": 3829,
      "stone": 3830,
      "stones": 3831,
      "palms": 3832,
      "bathing": 3833,
      "ordinances": 3834,
      "Suyodhana": 3835,
      "past": 3836,
      "deceit": 3837,
      "lips": 3838,
      "rows": 3839,
      "ative": 3840,
      "trust": 3841,
      "sport": 3842,
      "fourth": 3843,
      "entirely": 3844,
      "oppressed": 3845,
      "Destiny": 3846,
      "govern": 3847,
      "gentle": 3848,
      "cs": 3849,
      "sence": 3850,
      "rod": 3851,
      "apprehen": 3852,
      "brosi": 3853,
      "Govinda": 3854,
      "Sumit": 3855,
      "Kin": 3856,
      "Ten": 3857,
      "fer": 3858,
      "mixed": 3859,
      "poli": 3860,
      "lessness": 3861,
      "merly": 3862,
      "happened": 3863,
      "paid": 3864,
      "Madra": 3865,
      "patched": 3866,
      "Kākutstha": 3867,
      "answer": 3868,
      "Gif": 3869,
      "Sin": 3870,
      "Taking": 3871,
      "nas": 3872,
      "ining": 3873,
      "lli": 3874,
      "felt": 3875,
      "service": 3876,
      "appearing": 3877,
      "stell": 3878,
      "Formerly": 3879,
      "passion": 3880,
      "leaders": 3881,
      "successful": 3882,
      "midd": 3883,
      "chaste": 3884,
      "change": 3885,
      "Virtue": 3886,
      "Jamadagni": 3887,
      "hall": 3888,
      "obstru": 3889,
      "cool": 3890,
      "hymn": 3891,
      "passions": 3892,
      "dwellers": 3893,
      "tigers": 3894,
      "Srinjayas": 3895,
      "sandal": 3896,
      "Ashvatthaman": 3897,
      "Mat": 3898,
      "Mithi": 3899,
      "spi": 3900,
      "chest": 3901,
      "acting": 3902,
      "fires": 3903,
      "saints": 3904,
      "manner": 3905,
      "commen": 3906,
      "plun": 3907,
      "guard": 3908,
      "ctible": 3909,
      "better": 3910,
      "marri": 3911,
      "Dharm": 3912,
      "Regard": 3913,
      "meaning": 3914,
      "subduer": 3915,
      "smoke": 3916,
      "business": 3917,
      "capital": 3918,
      "pow": 3919,
      "pit": 3920,
      "pare": 3921,
      "invisible": 3922,
      "wide": 3923,
      "ows": 3924,
      "rents": 3925,
      "varie": 3926,
      "wake": 3927,
      "vāmitra": 3928,
      "attachment": 3929,
      "Vishvamitra": 3930,
      "Prishata": 3931,
      "intellect": 3932,
      "Sumitrā": 3933,
      "fro": 3934,
      "ired": 3935,
      "uka": 3936,
      "ines": 3937,
      "rice": 3938,
      "vehi": 3939,
      "absence": 3940,
      "bles": 3941,
      "thereof": 3942,
      "uding": 3943,
      "aries": 3944,
      "borne": 3945,
      "setting": 3946,
      "silent": 3947,
      "policy": 3948,
      "Char": 3949,
      "chall": 3950,
      "ably": 3951,
      "antagon": 3952,
      "quired": 3953,
      "monarchs": 3954,
      "Whatever": 3955,
      "ignity": 3956,
      "finding": 3957,
      "exerc": 3958,
      "combatants": 3959,
      "perfectly": 3960,
      "collected": 3961,
      "Ayodhyā": 3962,
      "brosia": 3963,
      "Regarding": 3964,
      "Ră": 3965,
      "depressed": 3966,
      "aci": 3967,
      "empt": 3968,
      "winged": 3969,
      "remaining": 3970,
      "behove": 3971,
      "taste": 3972,
      "completely": 3973,
      "stupefied": 3974,
      "malice": 3975,
      "sex": 3976,
      "oma": 3977,
      "flower": 3978,
      "precious": 3979,
      "Indrajit": 3980,
      "Vasishtha": 3981,
      "Laksh": 3982,
      "cursed": 3983,
      "meeting": 3984,
      "ception": 3985,
      "resolved": 3986,
      "length": 3987,
      "principal": 3988,
      "baffled": 3989,
      "Gu": 3990,
      "fun": 3991,
      "seems": 3992,
      "priests": 3993,
      "charged": 3994,
      "respected": 3995,
      "helpless": 3996,
      "brea": 3997,
      "ascending": 3998,
      "profit": 3999,
      "assumed": 4000,
      "embraced": 4001,
      "shooting": 4002,
      "Chand": 4003,
      "Ri": 4004,
      "driver": 4005,
      "fur": 4006,
      "mul": 4007,
      "seats": 4008,
      "saint": 4009,
      "aff": 4010,
      "close": 4011,
      "destroys": 4012,
      "married": 4013,
      "inferior": 4014,
      "Understanding": 4015,
      "Dharmaraja": 4016,
      "dignity": 4017,
      "fury": 4018,
      "pan": 4019,
      "sions": 4020,
      "thered": 4021,
      "informed": 4022,
      "removed": 4023,
      "tile": 4024,
      "composed": 4025,
      "plo": 4026,
      "bowing": 4027,
      "waited": 4028,
      "adopt": 4029,
      "daily": 4030,
      "devoid": 4031,
      "general": 4032,
      "Tirthas": 4033,
      "increase": 4034,
      "inhabited": 4035,
      "Brāhmaṇas": 4036,
      "Chitrasena": 4037,
      "source": 4038,
      "Bhagadatta": 4039,
      "variegated": 4040,
      "dress": 4041,
      "vad": 4042,
      "rained": 4043,
      "chang": 4044,
      "deter": 4045,
      "weeping": 4046,
      "sol": 4047,
      "cardin": 4048,
      "ashva": 4049,
      "riders": 4050,
      "ordinance": 4051,
      "consumed": 4052,
      "ceremonies": 4053,
      "advance": 4054,
      "Destroyer": 4055,
      "throne": 4056,
      "journey": 4057,
      "cardinal": 4058,
      "Sure": 4059,
      "Sakra": 4060,
      "Vis": 4061,
      "rous": 4062,
      "tus": 4063,
      "unt": 4064,
      "extra": 4065,
      "pends": 4066,
      "honours": 4067,
      "succeeded": 4068,
      "Somadatta": 4069,
      "cherish": 4070,
      "Mā": 4071,
      "corn": 4072,
      "ior": 4073,
      "ku": 4074,
      "ayu": 4075,
      "access": 4076,
      "esseng": 4077,
      "amb": 4078,
      "preser": 4079,
      "praised": 4080,
      "shel": 4081,
      "guest": 4082,
      "showed": 4083,
      "Skanda": 4084,
      "marriage": 4085,
      "remove": 4086,
      "depends": 4087,
      "anta": 4088,
      "cip": 4089,
      "Gandharva": 4090,
      "spirits": 4091,
      "disciples": 4092,
      "Viśvāmitra": 4093,
      "safe": 4094,
      "atted": 4095,
      "diade": 4096,
      "spent": 4097,
      "aughters": 4098,
      "inspi": 4099,
      "embodied": 4100,
      "fication": 4101,
      "Vibhī": 4102,
      "cease": 4103,
      "propiti": 4104,
      "heap": 4105,
      "ident": 4106,
      "mense": 4107,
      "seeks": 4108,
      "companions": 4109,
      "belongs": 4110,
      "pouring": 4111,
      "Kumbhakar": 4112,
      "circumstances": 4113,
      "Himavat": 4114,
      "Sita": 4115,
      "messeng": 4116,
      "uk": 4117,
      "health": 4118,
      "stands": 4119,
      "actu": 4120,
      "concent": 4121,
      "whir": 4122,
      "bore": 4123,
      "seeking": 4124,
      "vision": 4125,
      "mothers": 4126,
      "Rajas": 4127,
      "brilli": 4128,
      "equipped": 4129,
      "infantry": 4130,
      "şaņa": 4131,
      "Bala": 4132,
      "Dva": 4133,
      "daughters": 4134,
      "ip": 4135,
      "forsa": 4136,
      "residence": 4137,
      "constell": 4138,
      "immense": 4139,
      "flicted": 4140,
      "puri": 4141,
      "cured": 4142,
      "smilingly": 4143,
      "Surely": 4144,
      "knew": 4145,
      "ening": 4146,
      "enveloped": 4147,
      "beli": 4148,
      "vehe": 4149,
      "aval": 4150,
      "exper": 4151,
      "receive": 4152,
      "Räkş": 4153,
      "smiling": 4154,
      "keeping": 4155,
      "faults": 4156,
      "cogn": 4157,
      "whence": 4158,
      "ounds": 4159,
      "numberless": 4160,
      "deeply": 4161,
      "exertion": 4162,
      "consume": 4163,
      "Upon": 4164,
      "remembering": 4165,
      "vultures": 4166,
      "physi": 4167,
      "Salutations": 4168,
      "shelter": 4169,
      "Jaras": 4170,
      "cre": 4171,
      "town": 4172,
      "leap": 4173,
      "staff": 4174,
      "lic": 4175,
      "itya": 4176,
      "hyas": 4177,
      "Knowledge": 4178,
      "touching": 4179,
      "ancestors": 4180,
      "Bal": 4181,
      "Vin": 4182,
      "obey": 4183,
      "mach": 4184,
      "filling": 4185,
      "mansion": 4186,
      "fet": 4187,
      "worshipping": 4188,
      "fourteen": 4189,
      "senseless": 4190,
      "masses": 4191,
      "signs": 4192,
      "middle": 4193,
      "mand": 4194,
      "ution": 4195,
      "aco": 4196,
      "north": 4197,
      "norant": 4198,
      "distin": 4199,
      "enjoyed": 4200,
      "instruments": 4201,
      "advancing": 4202,
      "Jarasandha": 4203,
      "Kus": 4204,
      "Shas": 4205,
      "Sauti": 4206,
      "gre": 4207,
      "ravas": 4208,
      "stretch": 4209,
      "peaco": 4210,
      "akshin": 4211,
      "cutting": 4212,
      "vanquish": 4213,
      "petals": 4214,
      "folded": 4215,
      "fatigue": 4216,
      "Neither": 4217,
      "leep": 4218,
      "idity": 4219,
      "terrified": 4220,
      "comfor": 4221,
      "dog": 4222,
      "originate": 4223,
      "occup": 4224,
      "tremend": 4225,
      "promised": 4226,
      "Brahmacharya": 4227,
      "Amb": 4228,
      "Others": 4229,
      "dream": 4230,
      "pper": 4231,
      "shattered": 4232,
      "mang": 4233,
      "conce": 4234,
      "aked": 4235,
      "orns": 4236,
      "higher": 4237,
      "neg": 4238,
      "grat": 4239,
      "space": 4240,
      "banner": 4241,
      "suffi": 4242,
      "males": 4243,
      "crown": 4244,
      "Purand": 4245,
      "Angir": 4246,
      "repaired": 4247,
      "disciple": 4248,
      "avoid": 4249,
      "mentioned": 4250,
      "reverence": 4251,
      "Khara": 4252,
      "Shan": 4253,
      "flo": 4254,
      "lets": 4255,
      "tide": 4256,
      "uproar": 4257,
      "excess": 4258,
      "prog": 4259,
      "anga": 4260,
      "blew": 4261,
      "overcome": 4262,
      "pleasing": 4263,
      "draw": 4264,
      "thighs": 4265,
      "tremendous": 4266,
      "Push": 4267,
      "Sini": 4268,
      "Uma": 4269,
      "fed": 4270,
      "fulfilled": 4271,
      "emplo": 4272,
      "Veda": 4273,
      "scion": 4274,
      "caste": 4275,
      "confidence": 4276,
      "Hast": 4277,
      "dy": 4278,
      "pay": 4279,
      "zed": 4280,
      "tir": 4281,
      "uplif": 4282,
      "exclaim": 4283,
      "ructible": 4284,
      "vile": 4285,
      "meditation": 4286,
      "heavens": 4287,
      "court": 4288,
      "dwelling": 4289,
      "suffering": 4290,
      "Vaishya": 4291,
      "further": 4292,
      "Lom": 4293,
      "Ro": 4294,
      "Vali": 4295,
      "sof": 4296,
      "espe": 4297,
      "ories": 4298,
      "shine": 4299,
      "advers": 4300,
      "individual": 4301,
      "ify": 4302,
      "clothes": 4303,
      "ranged": 4304,
      "circled": 4305,
      "penetrated": 4306,
      "exhausted": 4307,
      "benefit": 4308,
      "axes": 4309,
      "Po": 4310,
      "Rag": 4311,
      "fine": 4312,
      "pted": 4313,
      "ators": 4314,
      "hot": 4315,
      "hatsu": 4316,
      "udhana": 4317,
      "angu": 4318,
      "oks": 4319,
      "flu": 4320,
      "repitude": 4321,
      "poses": 4322,
      "Although": 4323,
      "produce": 4324,
      "accomplishments": 4325,
      "Bhur": 4326,
      "eman": 4327,
      "fond": 4328,
      "lakes": 4329,
      "matted": 4330,
      "oms": 4331,
      "hendra": 4332,
      "thereupon": 4333,
      "copper": 4334,
      "lightness": 4335,
      "possession": 4336,
      "property": 4337,
      "restrained": 4338,
      "chiefs": 4339,
      "thoughts": 4340,
      "crossed": 4341,
      "maternal": 4342,
      "embracing": 4343,
      "determined": 4344,
      "austere": 4345,
      "gam": 4346,
      "task": 4347,
      "asleep": 4348,
      "mere": 4349,
      "shana": 4350,
      "worn": 4351,
      "hereafter": 4352,
      "charity": 4353,
      "distribut": 4354,
      "break": 4355,
      "originates": 4356,
      "discharge": 4357,
      "granted": 4358,
      "sleeping": 4359,
      "remains": 4360,
      "inhabit": 4361,
      "Purandara": 4362,
      "Daksha": 4363,
      "Pu": 4364,
      "vation": 4365,
      "orous": 4366,
      "mill": 4367,
      "cide": 4368,
      "woe": 4369,
      "ignorant": 4370,
      "humil": 4371,
      "Viş": 4372,
      "Deity": 4373,
      "devote": 4374,
      "fragrant": 4375,
      "arrival": 4376,
      "Dashar": 4377,
      "silver": 4378,
      "Shraddha": 4379,
      "Yuyudhana": 4380,
      "diadem": 4381,
      "dare": 4382,
      "fow": 4383,
      "kra": 4384,
      "mult": 4385,
      "chana": 4386,
      "acted": 4387,
      "bliss": 4388,
      "cold": 4389,
      "destitute": 4390,
      "Mahendra": 4391,
      "twin": 4392,
      "Savit": 4393,
      "immortals": 4394,
      "streams": 4395,
      "apartment": 4396,
      "conceal": 4397,
      "Hastin": 4398,
      "humility": 4399,
      "Dand": 4400,
      "grew": 4401,
      "lance": 4402,
      "beget": 4403,
      "del": 4404,
      "adas": 4405,
      "conve": 4406,
      "ctar": 4407,
      "vices": 4408,
      "Thin": 4409,
      "flowing": 4410,
      "steps": 4411,
      "Mahes": 4412,
      "putting": 4413,
      "trembling": 4414,
      "secret": 4415,
      "burden": 4416,
      "San": 4417,
      "dose": 4418,
      "garm": 4419,
      "vain": 4420,
      "licity": 4421,
      "females": 4422,
      "comfort": 4423,
      "disease": 4424,
      "prey": 4425,
      "subs": 4426,
      "descendants": 4427,
      "infin": 4428,
      "bestowed": 4429,
      "Sindhu": 4430,
      "swiftly": 4431,
      "Uttara": 4432,
      ",\"": 4433,
      "Bho": 4434,
      "None": 4435,
      "Nara": 4436,
      "slight": 4437,
      "reft": 4438,
      "compar": 4439,
      "utas": 4440,
      "illus": 4441,
      "highsouled": 4442,
      "grate": 4443,
      "Vai": 4444,
      "ortun": 4445,
      "encountered": 4446,
      "celebrate": 4447,
      "instructions": 4448,
      "grown": 4449,
      "Gifted": 4450,
      "Raghava": 4451,
      "Ke": 4452,
      "mut": 4453,
      "routed": 4454,
      "sal": 4455,
      "wrought": 4456,
      "fill": 4457,
      "cogni": 4458,
      "reasons": 4459,
      "considering": 4460,
      "lutions": 4461,
      "doubts": 4462,
      "difficulty": 4463,
      "renounced": 4464,
      "costly": 4465,
      "tongue": 4466,
      "Prajapati": 4467,
      "powered": 4468,
      "Kas": 4469,
      "Vr": 4470,
      "fum": 4471,
      "itions": 4472,
      "exam": 4473,
      "indic": 4474,
      "armours": 4475,
      "nectar": 4476,
      "downpour": 4477,
      "penance": 4478,
      "Satvata": 4479,
      "purposes": 4480,
      "thinks": 4481,
      "garland": 4482,
      "expan": 4483,
      "furiously": 4484,
      "clubs": 4485,
      "umbrella": 4486,
      "mangled": 4487,
      "Lomasha": 4488,
      "Savitri": 4489,
      "Hastinap": 4490,
      "Cons": 4491,
      "bas": 4492,
      "dry": 4493,
      "vant": 4494,
      "ency": 4495,
      "acy": 4496,
      "theirs": 4497,
      "teach": 4498,
      "unders": 4499,
      "clas": 4500,
      "grandsire": 4501,
      "checked": 4502,
      "faultless": 4503,
      "ceremony": 4504,
      "driven": 4505,
      "repressible": 4506,
      "grateful": 4507,
      "Pi": 4508,
      "cree": 4509,
      "jum": 4510,
      "rav": 4511,
      "raz": 4512,
      "rocks": 4513,
      "perfum": 4514,
      "unda": 4515,
      "rank": 4516,
      "divided": 4517,
      "hairs": 4518,
      "growing": 4519,
      "juice": 4520,
      "months": 4521,
      "swans": 4522,
      "ceased": 4523,
      "fifth": 4524,
      "Matsya": 4525,
      "tinguished": 4526,
      "Kali": 4527,
      "Pul": 4528,
      "sway": 4529,
      "vali": 4530,
      "hau": 4531,
      "folly": 4532,
      "abst": 4533,
      "herds": 4534,
      "cave": 4535,
      "purged": 4536,
      "reply": 4537,
      "winds": 4538,
      "Grandsire": 4539,
      "Srinjaya": 4540,
      "Kausaly": 4541,
      "classes": 4542,
      "infinite": 4543,
      "cran": 4544,
      "deri": 4545,
      "gas": 4546,
      "aster": 4547,
      "irrepressible": 4548,
      "concer": 4549,
      "ablutions": 4550,
      "expi": 4551,
      "achin": 4552,
      "regener": 4553,
      "flame": 4554,
      "afterwards": 4555,
      "sorry": 4556,
      "discharging": 4557,
      "easily": 4558,
      "minister": 4559,
      "cleansed": 4560,
      "covetousness": 4561,
      "Goodness": 4562,
      "dancing": 4563,
      "bing": 4564,
      "dish": 4565,
      "leon": 4566,
      "tip": 4567,
      "magn": 4568,
      "amid": 4569,
      "Individual": 4570,
      "falls": 4571,
      "Only": 4572,
      "approved": 4573,
      "reciting": 4574,
      "issued": 4575,
      "obedient": 4576,
      "tled": 4577,
      "anya": 4578,
      "betide": 4579,
      "allow": 4580,
      "estructible": 4581,
      "something": 4582,
      "guil": 4583,
      "content": 4584,
      "youthful": 4585,
      "interests": 4586,
      "perceive": 4587,
      "plunged": 4588,
      "Pe": 4589,
      "knot": 4590,
      "useless": 4591,
      "wished": 4592,
      "eral": 4593,
      "legs": 4594,
      "keya": 4595,
      "mantra": 4596,
      "avi": 4597,
      "feed": 4598,
      "contra": 4599,
      "extermin": 4600,
      "author": 4601,
      "disregard": 4602,
      "effect": 4603,
      "slow": 4604,
      "spect": 4605,
      "broke": 4606,
      "waxing": 4607,
      "Maithi": 4608,
      "stopped": 4609,
      "curing": 4610,
      "desirable": 4611,
      "wielders": 4612,
      "Brihad": 4613,
      "secure": 4614,
      "pursued": 4615,
      "explain": 4616,
      "declared": 4617,
      "displayed": 4618,
      "extremely": 4619,
      "installation": 4620,
      "Mithila": 4621,
      "cried": 4622,
      "vak": 4623,
      "encircled": 4624,
      "arrange": 4625,
      "itut": 4626,
      "pear": 4627,
      "impure": 4628,
      "fearlessly": 4629,
      "spouse": 4630,
      "emin": 4631,
      "enjoying": 4632,
      "marked": 4633,
      "ference": 4634,
      "decrepitude": 4635,
      "observant": 4636,
      "Bhagi": 4637,
      "Vaishyas": 4638,
      "continually": 4639,
      "dragged": 4640,
      "leonine": 4641,
      ",'": 4642,
      "Fo": 4643,
      "Her": 4644,
      "Not": 4645,
      "Ver": 4646,
      "Vind": 4647,
      "crying": 4648,
      "hit": 4649,
      "estic": 4650,
      "tood": 4651,
      "riosity": 4652,
      "fulness": 4653,
      "aggrieved": 4654,
      "hasta": 4655,
      "fears": 4656,
      "spacious": 4657,
      "Vide": 4658,
      "Mahar": 4659,
      "returning": 4660,
      "Again": 4661,
      "meritorious": 4662,
      "blessings": 4663,
      "considers": 4664,
      "oppos": 4665,
      "favourite": 4666,
      "running": 4667,
      "behavi": 4668,
      "Vibhīşaņa": 4669,
      "Val": 4670,
      "bones": 4671,
      "iş": 4672,
      "istic": 4673,
      "ridi": 4674,
      "deb": 4675,
      "ulties": 4676,
      "mya": 4677,
      "herd": 4678,
      "destiny": 4679,
      "commands": 4680,
      "beside": 4681,
      "Yojanas": 4682,
      "kindness": 4683,
      "loudly": 4684,
      "measure": 4685,
      "quarrel": 4686,
      "fishes": 4687,
      "natural": 4688,
      "reflected": 4689,
      "expert": 4690,
      "inhabitants": 4691,
      "regenerate": 4692,
      "crush": 4693,
      "kar": 4694,
      "send": 4695,
      "threw": 4696,
      "seeds": 4697,
      "contem": 4698,
      "exten": 4699,
      "import": 4700,
      "spit": 4701,
      "protects": 4702,
      "ruled": 4703,
      "skins": 4704,
      "sumes": 4705,
      "showing": 4706,
      "curiosity": 4707,
      "quarter": 4708,
      "including": 4709,
      "trunk": 4710,
      "trunks": 4711,
      "yellow": 4712,
      "Dvaip": 4713,
      "Dvaipayana": 4714,
      "!'": 4715,
      "hvara": 4716,
      "mend": 4717,
      "swell": 4718,
      "vap": 4719,
      "rapt": 4720,
      "ravana": 4721,
      "plants": 4722,
      "forming": 4723,
      "achas": 4724,
      "prime": 4725,
      "wishing": 4726,
      "enjoyments": 4727,
      "contented": 4728,
      "fami": 4729,
      "brings": 4730,
      "showered": 4731,
      "thirty": 4732,
      "eaten": 4733,
      "Kaling": 4734,
      "marched": 4735,
      "renowned": 4736,
      "solicit": 4737,
      "inspired": 4738,
      "soft": 4739,
      ")?": 4740,
      "eps": 4741,
      "lose": 4742,
      "almost": 4743,
      "def": 4744,
      "manliness": 4745,
      "rescu": 4746,
      "provin": 4747,
      "illed": 4748,
      "cibly": 4749,
      "south": 4750,
      "mount": 4751,
      "devour": 4752,
      "numbers": 4753,
      "pierce": 4754,
      "delighter": 4755,
      "distur": 4756,
      "summits": 4757,
      "Puru": 4758,
      "Ched": 4759,
      "throwing": 4760,
      "autum": 4761,
      "treated": 4762,
      "Savyasachin": 4763,
      "deterior": 4764,
      ".*": 4765,
      "End": 4766,
      "lac": 4767,
      "anks": 4768,
      "behalf": 4769,
      "stat": 4770,
      "mantras": 4771,
      "assist": 4772,
      "portions": 4773,
      "Shalva": 4774,
      "accomplishment": 4775,
      "opportun": 4776,
      "Sumitra": 4777,
      "modest": 4778,
      "Shukra": 4779,
      "planets": 4780,
      "amiable": 4781,
      "akshina": 4782,
      "valiant": 4783,
      "guilty": 4784,
      "Chedis": 4785,
      "Dar": 4786,
      "eving": 4787,
      "swo": 4788,
      "sevent": 4789,
      "forcibly": 4790,
      "consuming": 4791,
      "agara": 4792,
      "improper": 4793,
      "dicted": 4794,
      "sunk": 4795,
      "shore": 4796,
      "risen": 4797,
      "Ashva": 4798,
      "twiceborn": 4799,
      "airs": 4800,
      "saluting": 4801,
      "firmly": 4802,
      "Bathing": 4803,
      "impetuosity": 4804,
      "challen": 4805,
      "understood": 4806,
      "Ati": 4807,
      "Fi": 4808,
      "Kic": 4809,
      "Tod": 4810,
      "don": 4811,
      "drun": 4812,
      "mity": 4813,
      "wall": 4814,
      "revi": 4815,
      "enough": 4816,
      "rap": 4817,
      "stre": 4818,
      "stretched": 4819,
      "proach": 4820,
      "impar": 4821,
      "accents": 4822,
      "births": 4823,
      "grandsons": 4824,
      "injure": 4825,
      "cows": 4826,
      "finished": 4827,
      "Brahmā": 4828,
      "falsehood": 4829,
      "crossing": 4830,
      "musical": 4831,
      "comparable": 4832,
      "Today": 4833,
      "\".": 4834,
      "Hid": 4835,
      "ārā": 4836,
      "rains": 4837,
      "chant": 4838,
      "weight": 4839,
      "essence": 4840,
      "resisted": 4841,
      "sole": 4842,
      "harm": 4843,
      "indu": 4844,
      "iment": 4845,
      "game": 4846,
      "Parva": 4847,
      "rishi": 4848,
      "existent": 4849,
      "ascend": 4850,
      "difference": 4851,
      "depending": 4852,
      "resolution": 4853,
      "satisfy": 4854,
      "washed": 4855,
      "perpetuator": 4856,
      "spies": 4857,
      "Kumbhakarņa": 4858,
      "uplifted": 4859,
      "millions": 4860,
      "Thinking": 4861,
      "Hastinapur": 4862,
      "Hidim": 4863,
      "-'": 4864,
      "dana": 4865,
      "nose": 4866,
      "pained": 4867,
      "rat": 4868,
      "ral": 4869,
      "ende": 4870,
      "ites": 4871,
      "lean": 4872,
      "meets": 4873,
      "avya": 4874,
      "uded": 4875,
      "udha": 4876,
      "earn": 4877,
      "slave": 4878,
      "servant": 4879,
      "kingdoms": 4880,
      "besides": 4881,
      "leads": 4882,
      "occur": 4883,
      "ornament": 4884,
      "miserable": 4885,
      "thirteen": 4886,
      "seasons": 4887,
      "observances": 4888,
      "transg": 4889,
      "lustre": 4890,
      "Mean": 4891,
      "damsels": 4892,
      "liberated": 4893,
      "Vikarna": 4894,
      "sufficient": 4895,
      "Kausalyā": 4896,
      "Dhau": 4897,
      "Ikş": 4898,
      "Pari": 4899,
      "Pleas": 4900,
      "Tri": 4901,
      "sending": 4902,
      "wretched": 4903,
      "hips": 4904,
      "sti": 4905,
      "unrighteous": 4906,
      "robes": 4907,
      "ulo": 4908,
      "avari": 4909,
      "slender": 4910,
      "creating": 4911,
      "nether": 4912,
      "served": 4913,
      "Sumantra": 4914,
      "praises": 4915,
      "Devas": 4916,
      "passes": 4917,
      "banners": 4918,
      "divested": 4919,
      "Ganges": 4920,
      "injun": 4921,
      "decor": 4922,
      "morrow": 4923,
      "assail": 4924,
      "milarly": 4925,
      "attachments": 4926,
      "counsels": 4927,
      "feathers": 4928,
      "Similarly": 4929,
      "frequented": 4930,
      "magnanim": 4931,
      "Kichaka": 4932,
      "Chy": 4933,
      "Kshe": 4934,
      "fasts": 4935,
      "contain": 4936,
      "worst": 4937,
      "inding": 4938,
      "domestic": 4939,
      "householder": 4940,
      "sprang": 4941,
      "Prahasta": 4942,
      "deserving": 4943,
      "connected": 4944,
      "species": 4945,
      "Possess": 4946,
      "Maheshvara": 4947,
      "drunk": 4948,
      "Dhaumya": 4949,
      "Rå": 4950,
      "pir": 4951,
      "plight": 4952,
      "notes": 4953,
      "pict": 4954,
      "subtile": 4955,
      "surpr": 4956,
      "bulls": 4957,
      "communicated": 4958,
      "matchless": 4959,
      "stretching": 4960,
      "Chyavana": 4961,
      "Rit": 4962,
      "beat": 4963,
      "shown": 4964,
      "saved": 4965,
      "felled": 4966,
      "conci": 4967,
      "comprehen": 4968,
      "solar": 4969,
      "warfare": 4970,
      "willing": 4971,
      "arrowy": 4972,
      "performs": 4973,
      "fruition": 4974,
      "fiery": 4975,
      "Prad": 4976,
      "gaining": 4977,
      "behoves": 4978,
      "adoration": 4979,
      "Shuka": 4980,
      "robbers": 4981,
      "sancti": 4982,
      "vigour": 4983,
      "Since": 4984,
      "Are": 4985,
      "Kan": 4986,
      "Yam": 4987,
      "sus": 4988,
      "beit": 4989,
      "bereft": 4990,
      "unfair": 4991,
      "expres": 4992,
      "herbs": 4993,
      "disregarding": 4994,
      "cially": 4995,
      "overpowered": 4996,
      "Shve": 4997,
      "pleasures": 4998,
      "conversation": 4999,
      "Asht": 5000,
      "compassion": 5001,
      "Maruts": 5002,
      "bewailing": 5003,
      "peaks": 5004,
      "slowly": 5005,
      "Sagara": 5006,
      "fate": 5007,
      "releas": 5008,
      "onds": 5009,
      "hospit": 5010,
      "appl": 5011,
      "thereby": 5012,
      "thither": 5013,
      "elders": 5014,
      "Shudras": 5015,
      "prink": 5016,
      "current": 5017,
      "commander": 5018,
      "receiving": 5019,
      "splendid": 5020,
      "Kail": 5021,
      "deserves": 5022,
      "frightened": 5023,
      "akshaka": 5024,
      "subjugated": 5025,
      "homage": 5026,
      "Renunciation": 5027,
      "paren": 5028,
      "Meanwhile": 5029,
      "Pa": 5030,
      "crushing": 5031,
      "east": 5032,
      "fing": 5033,
      "incur": 5034,
      "aneous": 5035,
      "idi": 5036,
      "ulated": 5037,
      "constru": 5038,
      "bludge": 5039,
      "disagreeable": 5040,
      "sig": 5041,
      "kills": 5042,
      "emble": 5043,
      "beds": 5044,
      "stomach": 5045,
      "departure": 5046,
      "couple": 5047,
      "Vaidehī": 5048,
      "demons": 5049,
      "razor": 5050,
      "pearls": 5051,
      "Bali": 5052,
      "mā": 5053,
      "vy": 5054,
      "asso": 5055,
      "ceans": 5056,
      "ayani": 5057,
      "addicted": 5058,
      "using": 5059,
      "quite": 5060,
      "fuel": 5061,
      "istine": 5062,
      "party": 5063,
      "wherever": 5064,
      "learnt": 5065,
      "sixth": 5066,
      "Somakas": 5067,
      "painful": 5068,
      "occasions": 5069,
      "restraint": 5070,
      "sanction": 5071,
      "Aksha": 5072,
      "commenced": 5073,
      "Lakshmana": 5074,
      "multip": 5075,
      "..": 5076,
      "During": 5077,
      "Mal": 5078,
      "Takshaka": 5079,
      "Ur": 5080,
      "cord": 5081,
      "hang": 5082,
      "ption": 5083,
      "enmity": 5084,
      "assed": 5085,
      "raising": 5086,
      "stem": 5087,
      "ulent": 5088,
      "carwarrior": 5089,
      "simp": 5090,
      "shapes": 5091,
      "quivers": 5092,
      "charioteers": 5093,
      "ornamented": 5094,
      "opposed": 5095,
      "constitut": 5096,
      "yields": 5097,
      "flags": 5098,
      "purifying": 5099,
      "Nand": 5100,
      "ices": 5101,
      "lands": 5102,
      "torn": 5103,
      "atra": 5104,
      "ley": 5105,
      "active": 5106,
      "pervad": 5107,
      "pled": 5108,
      "rested": 5109,
      "Saman": 5110,
      "recitation": 5111,
      "separated": 5112,
      "abandoned": 5113,
      "awful": 5114,
      "lamentations": 5115,
      "governed": 5116,
      "steady": 5117,
      "entertained": 5118,
      "Yadu": 5119,
      "tivity": 5120,
      "experienced": 5121,
      "sighing": 5122,
      "antagonist": 5123,
      "tusks": 5124,
      "messenger": 5125,
      "Rajasu": 5126,
      "Vrisha": 5127,
      "creepers": 5128,
      "Hrishi": 5129,
      "Lanka": 5130,
      "brace": 5131,
      "eulo": 5132,
      "kā": 5133,
      "uable": 5134,
      "inis": 5135,
      "rear": 5136,
      "istha": 5137,
      "aris": 5138,
      "hee": 5139,
      "heed": 5140,
      "shout": 5141,
      "untruth": 5142,
      "ote": 5143,
      "fig": 5144,
      "few": 5145,
      "quant": 5146,
      "pige": 5147,
      "pristine": 5148,
      "ashed": 5149,
      "lighted": 5150,
      "countless": 5151,
      "Living": 5152,
      "evils": 5153,
      "injured": 5154,
      "fragr": 5155,
      "matters": 5156,
      "transc": 5157,
      "characteristic": 5158,
      "Rākṣasa": 5159,
      "Manes": 5160,
      "causing": 5161,
      "cupidity": 5162,
      "wandering": 5163,
      "Surya": 5164,
      "treasury": 5165,
      "Shastras": 5166,
      "Hrishikes": 5167,
      "Cha": 5168,
      "Filled": 5169,
      "Le": 5170,
      "Mind": 5171,
      "Our": 5172,
      "Rudras": 5173,
      "sprink": 5174,
      "wro": 5175,
      "inions": 5176,
      "recogn": 5177,
      "enqu": 5178,
      "enquired": 5179,
      "riv": 5180,
      "attended": 5181,
      "plant": 5182,
      "urning": 5183,
      "prec": 5184,
      "trave": 5185,
      "medic": 5186,
      "shield": 5187,
      "learn": 5188,
      "welcome": 5189,
      "Kapila": 5190,
      "Matali": 5191,
      "vehicles": 5192,
      "Räkşasas": 5193,
      "expansive": 5194,
      "behaviour": 5195,
      "provinces": 5196,
      "Eternal": 5197,
      "Nila": 5198,
      "Right": 5199,
      "glo": 5200,
      "ost": 5201,
      "yu": 5202,
      "inse": 5203,
      "albeit": 5204,
      "limit": 5205,
      "aded": 5206,
      "usto": 5207,
      "ambrosia": 5208,
      "venom": 5209,
      "Brahmani": 5210,
      "heroism": 5211,
      "boat": 5212,
      "grim": 5213,
      "Vaj": 5214,
      "Paras": 5215,
      "eriors": 5216,
      "says": 5217,
      "controlling": 5218,
      "repent": 5219,
      "calm": 5220,
      "affected": 5221,
      "Purusha": 5222,
      "frightful": 5223,
      "skillful": 5224,
      "emitting": 5225,
      "Amongst": 5226,
      "funeral": 5227,
      "status": 5228,
      "fragrance": 5229,
      "wroth": 5230,
      "Whe": 5231,
      "eats": 5232,
      "flight": 5233,
      "lun": 5234,
      "preg": 5235,
      "ues": 5236,
      "orse": 5237,
      "withstand": 5238,
      "uproot": 5239,
      "sink": 5240,
      "addened": 5241,
      "happen": 5242,
      "scatter": 5243,
      "misfortune": 5244,
      "destructive": 5245,
      "mukha": 5246,
      "collecting": 5247,
      "calf": 5248,
      "household": 5249,
      "weakness": 5250,
      "penetrating": 5251,
      "gardens": 5252,
      "satisfaction": 5253,
      "constellation": 5254,
      "especially": 5255,
      "Rajasuya": 5256,
      "Righteous": 5257,
      "pregn": 5258,
      "?”": 5259,
      "Bless": 5260,
      "Coming": 5261,
      "Trig": 5262,
      "waves": 5263,
      "incomparable": 5264,
      "rend": 5265,
      "mel": 5266,
      "acks": 5267,
      "rum": 5268,
      "illum": 5269,
      "previ": 5270,
      "consult": 5271,
      "consists": 5272,
      "settled": 5273,
      "consequences": 5274,
      "Reli": 5275,
      "Vibhatsu": 5276,
      "appare": 5277,
      "smell": 5278,
      "cipation": 5279,
      "Ikşvā": 5280,
      "aneously": 5281,
      "Horse": 5282,
      "Ja": 5283,
      "ira": 5284,
      "render": 5285,
      "cellent": 5286,
      "hil": 5287,
      "tire": 5288,
      "member": 5289,
      "usual": 5290,
      "reser": 5291,
      "resto": 5292,
      "akar": 5293,
      "creates": 5294,
      "boast": 5295,
      "earthly": 5296,
      "flow": 5297,
      "prepar": 5298,
      "died": 5299,
      "Satrughna": 5300,
      "summer": 5301,
      "rainy": 5302,
      "chastise": 5303,
      "intended": 5304,
      "attribute": 5305,
      "lumin": 5306,
      "features": 5307,
      "subjug": 5308,
      "attendants": 5309,
      "Vinata": 5310,
      "convey": 5311,
      "families": 5312,
      "Ashvatha": 5313,
      "Possessed": 5314,
      "!-": 5315,
      "Fal": 5316,
      "Give": 5317,
      "Jar": 5318,
      "Khand": 5319,
      "Ob": 5320,
      "cking": 5321,
      "gha": 5322,
      "ified": 5323,
      "rup": 5324,
      "topi": 5325,
      "races": 5326,
      "forts": 5327,
      "forgive": 5328,
      "moves": 5329,
      "ability": 5330,
      "pras": 5331,
      "ilities": 5332,
      "possesses": 5333,
      "Parthas": 5334,
      "Satyavati": 5335,
      "invited": 5336,
      "sixteen": 5337,
      "Likewise": 5338,
      "horsemen": 5339,
      "Vibhis": 5340,
      "Devayani": 5341,
      "abandoning": 5342,
      "Naga": 5343,
      "reaching": 5344,
      "sporting": 5345,
      "request": 5346,
      "Matsyas": 5347,
      "smiles": 5348,
      "erect": 5349,
      "conclusion": 5350,
      "hymns": 5351,
      "Maithili": 5352,
      "Hir": 5353,
      "Other": 5354,
      "caval": 5355,
      "dance": 5356,
      "vya": 5357,
      "resem": 5358,
      "ater": 5359,
      "haw": 5360,
      "rava": 5361,
      "acle": 5362,
      "results": 5363,
      "comment": 5364,
      "pol": 5365,
      "affair": 5366,
      "Shini": 5367,
      "kshe": 5368,
      "supp": 5369,
      "Gandha": 5370,
      "adopted": 5371,
      "prosperous": 5372,
      "bank": 5373,
      "valuable": 5374,
      "cheerless": 5375,
      "Himal": 5376,
      "velocity": 5377,
      "humble": 5378,
      "Brāhmaṇa": 5379,
      "consoled": 5380,
      "connection": 5381,
      "Sankhya": 5382,
      "Kambo": 5383,
      "summoned": 5384,
      "infuriate": 5385,
      "cranes": 5386,
      "People": 5387,
      "decorated": 5388,
      "magnanimous": 5389,
      "pictures": 5390,
      "applau": 5391,
      "Akshau": 5392,
      "caught": 5393,
      "dig": 5394,
      "eves": 5395,
      "oceans": 5396,
      "roared": 5397,
      "forehead": 5398,
      "suitable": 5399,
      "etc": 5400,
      "prescri": 5401,
      "speaks": 5402,
      "coloured": 5403,
      "surrounding": 5404,
      "encountering": 5405,
      "Adhi": 5406,
      "punish": 5407,
      "conqueror": 5408,
      "dependent": 5409,
      "Excellent": 5410,
      "accessible": 5411,
      "Hidimba": 5412,
      "endeav": 5413,
      "Vibhisana": 5414,
      "cavalry": 5415,
      ",*": 5416,
      "Che": 5417,
      "bid": 5418,
      "horns": 5419,
      "ldered": 5420,
      "thro": 5421,
      "inno": 5422,
      "often": 5423,
      "leg": 5424,
      "stro": 5425,
      "stake": 5426,
      "uru": 5427,
      "indestructible": 5428,
      "post": 5429,
      "disposition": 5430,
      "renunciation": 5431,
      "regained": 5432,
      "prev": 5433,
      "intox": 5434,
      "asses": 5435,
      "surface": 5436,
      "contact": 5437,
      "Well": 5438,
      "drinks": 5439,
      "lasting": 5440,
      "shines": 5441,
      "blossoms": 5442,
      "jackal": 5443,
      "Kinn": 5444,
      "extraordinary": 5445,
      "peacocks": 5446,
      "knots": 5447,
      "Endued": 5448,
      "hospitality": 5449,
      "Hridi": 5450,
      "dressed": 5451,
      "wre": 5452,
      "wounds": 5453,
      "yell": 5454,
      "fail": 5455,
      "address": 5456,
      "Vasiş": 5457,
      "Vasistha": 5458,
      "skies": 5459,
      "stolen": 5460,
      "appropri": 5461,
      "Atri": 5462,
      "suffered": 5463,
      "increased": 5464,
      "fatigued": 5465,
      "grasp": 5466,
      "Dandaka": 5467,
      "cogniz": 5468,
      "abstention": 5469,
      "emblem": 5470,
      "Hrishikesha": 5471,
      "resemble": 5472,
      "Hridika": 5473,
      "Vasiştha": 5474,
      "Aj": 5475,
      "Com": 5476,
      "Kum": 5477,
      "Kala": 5478,
      "brid": 5479,
      "ctic": 5480,
      "drew": 5481,
      "lower": 5482,
      "wine": 5483,
      "eness": 5484,
      "escap": 5485,
      "sets": 5486,
      "securing": 5487,
      "bell": 5488,
      "bells": 5489,
      "tially": 5490,
      "unknown": 5491,
      "room": 5492,
      "expect": 5493,
      "shoulders": 5494,
      "dually": 5495,
      "effe": 5496,
      "insulted": 5497,
      "emaci": 5498,
      "properties": 5499,
      "artana": 5500,
      "dame": 5501,
      "Vrishasena": 5502,
      "feelings": 5503,
      "truthfulness": 5504,
      "adoring": 5505,
      "principles": 5506,
      "lamenting": 5507,
      "reflecting": 5508,
      "assume": 5509,
      "Unmanifest": 5510,
      "immortal": 5511,
      "Sacrifices": 5512,
      "smitten": 5513,
      "blameless": 5514,
      "Persons": 5515,
      "concentrated": 5516,
      "brilliant": 5517,
      "strewn": 5518,
      "picturesque": 5519,
      "Its": 5520,
      "Kusha": 5521,
      "Main": 5522,
      "dhas": 5523,
      "non": 5524,
      "pup": 5525,
      "wond": 5526,
      "ās": 5527,
      "inexhaust": 5528,
      "removing": 5529,
      "behave": 5530,
      "expe": 5531,
      "ifying": 5532,
      "ashing": 5533,
      "superiors": 5534,
      "waist": 5535,
      "attainment": 5536,
      "amedha": 5537,
      "extending": 5538,
      "conquering": 5539,
      "frag": 5540,
      "mortal": 5541,
      "leness": 5542,
      "inclined": 5543,
      "vulture": 5544,
      "club": 5545,
      "blossoming": 5546,
      "jackals": 5547,
      "garments": 5548,
      "opportunity": 5549,
      "kshetra": 5550,
      "Co": 5551,
      "Pun": 5552,
      "awake": 5553,
      "oil": 5554,
      "wed": 5555,
      "reward": 5556,
      "liqu": 5557,
      "upraised": 5558,
      "signi": 5559,
      "simult": 5560,
      "etting": 5561,
      "seem": 5562,
      "els": 5563,
      "devoured": 5564,
      "taketu": 5565,
      "Kurukshetra": 5566,
      "mbers": 5567,
      "speeches": 5568,
      "lux": 5569,
      "liberation": 5570,
      "Prati": 5571,
      "Yogins": 5572,
      "mystery": 5573,
      "empty": 5574,
      "Baladeva": 5575,
      "gambling": 5576,
      "Pier": 5577,
      "parents": 5578,
      "sanctioned": 5579,
      "prescribed": 5580,
      "Prah": 5581,
      "bhi": 5582,
      "fan": 5583,
      "iced": 5584,
      "judge": 5585,
      "arranged": 5586,
      "itating": 5587,
      "allies": 5588,
      "tied": 5589,
      "activity": 5590,
      "resist": 5591,
      "upa": 5592,
      "indif": 5593,
      "blown": 5594,
      "illity": 5595,
      "dismis": 5596,
      "disput": 5597,
      "virulent": 5598,
      "humi": 5599,
      "prevent": 5600,
      "atic": 5601,
      "sometime": 5602,
      "charge": 5603,
      "afflict": 5604,
      "affliction": 5605,
      "celebrating": 5606,
      "Yaksha": 5607,
      "compassing": 5608,
      "separately": 5609,
      "talk": 5610,
      "walking": 5611,
      "sports": 5612,
      "Kumbhakarna": 5613,
      "thorough": 5614,
      "comforted": 5615,
      "Whether": 5616,
      "Trigart": 5617,
      "Religion": 5618,
      "inexhaustible": 5619,
      ":-": 5620,
      "High": 5621,
      "Ko": 5622,
      "Pen": 5623,
      "big": 5624,
      "bending": 5625,
      "brows": 5626,
      "inform": 5627,
      "initi": 5628,
      "inaccessible": 5629,
      "arise": 5630,
      "hole": 5631,
      "weep": 5632,
      "odes": 5633,
      "prove": 5634,
      "disappear": 5635,
      "diseas": 5636,
      "disguise": 5637,
      "gigan": 5638,
      "shaken": 5639,
      "grind": 5640,
      "courses": 5641,
      "hostility": 5642,
      "defeating": 5643,
      "produces": 5644,
      "separation": 5645,
      "Desirous": 5646,
      "Look": 5647,
      "Ashvins": 5648,
      "extensive": 5649,
      "concili": 5650,
      "quantity": 5651,
      "commentator": 5652,
      "gigantic": 5653,
      "Bes": 5654,
      "Tam": 5655,
      "batt": 5656,
      "bhas": 5657,
      "evid": 5658,
      "ib": 5659,
      "tanks": 5660,
      "ourable": 5661,
      "secured": 5662,
      "greatness": 5663,
      "perpet": 5664,
      "desist": 5665,
      "earned": 5666,
      "cooked": 5667,
      "southern": 5668,
      "precep": 5669,
      "reading": 5670,
      "insult": 5671,
      "collect": 5672,
      "ribute": 5673,
      "repairing": 5674,
      "constantly": 5675,
      "trouble": 5676,
      "vessels": 5677,
      "mysteries": 5678,
      "breathing": 5679,
      "mutable": 5680,
      "contempl": 5681,
      "signed": 5682,
      "Righteousness": 5683,
      "innocent": 5684,
      "perpetrated": 5685,
      "Maya": 5686,
      "Satt": 5687,
      "Yav": 5688,
      "bal": 5689,
      "bree": 5690,
      "gans": 5691,
      "kit": 5692,
      "paka": 5693,
      "āna": 5694,
      "inct": 5695,
      "reed": 5696,
      "reins": 5697,
      "estern": 5698,
      "aling": 5699,
      "timid": 5700,
      "devi": 5701,
      "liked": 5702,
      "forsake": 5703,
      "peer": 5704,
      "obli": 5705,
      "rita": 5706,
      "singing": 5707,
      "visit": 5708,
      "dened": 5709,
      "consequent": 5710,
      "difficulties": 5711,
      "scimit": 5712,
      "tribes": 5713,
      "calamities": 5714,
      "rescued": 5715,
      "narrated": 5716,
      "regaining": 5717,
      "Nishadhas": 5718,
      "Răma": 5719,
      "physical": 5720,
      "employed": 5721,
      "Dasharha": 5722,
      "Kek": 5723,
      "sanctified": 5724,
      "Shveta": 5725,
      "prevented": 5726,
      "Kak": 5727,
      "caves": 5728,
      "dried": 5729,
      "rs": 5730,
      "incess": 5731,
      "anni": 5732,
      "ery": 5733,
      "organs": 5734,
      "allowed": 5735,
      "dearer": 5736,
      "common": 5737,
      "perse": 5738,
      "haste": 5739,
      "losing": 5740,
      "shaking": 5741,
      "eleven": 5742,
      "ptakas": 5743,
      "consist": 5744,
      "vanity": 5745,
      "descended": 5746,
      "check": 5747,
      "Afflicted": 5748,
      "closed": 5749,
      "studied": 5750,
      "expir": 5751,
      "humbly": 5752,
      "censure": 5753,
      "Guha": 5754,
      "salvation": 5755,
      "perfumes": 5756,
      "Verily": 5757,
      "affairs": 5758,
      "Kinnaras": 5759,
      "cognizant": 5760,
      "precepts": 5761,
      ".-": 5762,
      "Ush": 5763,
      "een": 5764,
      "tum": 5765,
      "west": 5766,
      "atory": 5767,
      "alms": 5768,
      "tops": 5769,
      "hopes": 5770,
      "mence": 5771,
      "angas": 5772,
      "asty": 5773,
      "jeal": 5774,
      "ilt": 5775,
      "practic": 5776,
      "Remember": 5777,
      "listening": 5778,
      "wielding": 5779,
      "Marut": 5780,
      "deliver": 5781,
      "Mandara": 5782,
      "gladly": 5783,
      "laughing": 5784,
      "Surround": 5785,
      "Shrutis": 5786,
      "Yogin": 5787,
      "conceivable": 5788,
      "tempest": 5789,
      "guarded": 5790,
      "towns": 5791,
      "Videha": 5792,
      "autumnal": 5793,
      "seventy": 5794,
      "Fie": 5795,
      "pigeon": 5796,
      "?'": 5797,
      "Gal": 5798,
      "Kanka": 5799,
      "Sabha": 5800,
      "cr": 5801,
      "rata": 5802,
      "sati": 5803,
      "oned": 5804,
      "atrughna": 5805,
      "orm": 5806,
      "bered": 5807,
      "gem": 5808,
      "prost": 5809,
      "despatched": 5810,
      "carn": 5811,
      "dispe": 5812,
      "Arri": 5813,
      "hued": 5814,
      "quiet": 5815,
      "heavenly": 5816,
      "breasts": 5817,
      "shook": 5818,
      "gradually": 5819,
      "feeling": 5820,
      "behoof": 5821,
      "questions": 5822,
      "Prote": 5823,
      "potent": 5824,
      "communic": 5825,
      "situated": 5826,
      "vehemence": 5827,
      "fluence": 5828,
      "clasped": 5829,
      "Ashvathama": 5830,
      "fragments": 5831,
      "simultaneously": 5832,
      "annihil": 5833,
      "Di": 5834,
      "Vayu": 5835,
      "nasty": 5836,
      "wildered": 5837,
      "adhi": 5838,
      "ulting": 5839,
      "reddened": 5840,
      "ctory": 5841,
      "permit": 5842,
      "nails": 5843,
      "direct": 5844,
      "final": 5845,
      "Prof": 5846,
      "torto": 5847,
      "spreading": 5848,
      "awak": 5849,
      "Uttanka": 5850,
      "specially": 5851,
      "piteously": 5852,
      "Pulastya": 5853,
      "Galava": 5854,
      "Im": 5855,
      "Muni": 5856,
      "Oking": 5857,
      "Res": 5858,
      "Tre": 5859,
      "bath": 5860,
      "cattle": 5861,
      "drivers": 5862,
      "uch": 5863,
      "asth": 5864,
      "assumes": 5865,
      "alya": 5866,
      "wid": 5867,
      "omen": 5868,
      "hotra": 5869,
      "advis": 5870,
      "fee": 5871,
      "dispatched": 5872,
      "gry": 5873,
      "Karti": 5874,
      "verses": 5875,
      "wishers": 5876,
      "hakas": 5877,
      "crooked": 5878,
      "consideration": 5879,
      "mouths": 5880,
      "suffers": 5881,
      "declare": 5882,
      "bewailed": 5883,
      "similarly": 5884,
      "feathered": 5885,
      "Shraddhas": 5886,
      "abstaining": 5887,
      "tranquillity": 5888,
      "villages": 5889,
      "progen": 5890,
      "sprinkled": 5891,
      "emaciated": 5892,
      "aid": 5893,
      "dim": 5894,
      "las": 5895,
      "langu": 5896,
      "mory": 5897,
      "rī": 5898,
      "rity": 5899,
      "zing": 5900,
      "thar": 5901,
      "raging": 5902,
      "omens": 5903,
      "hod": 5904,
      "shrou": 5905,
      "unmanifest": 5906,
      "wear": 5907,
      "ket": 5908,
      "ody": 5909,
      "upwards": 5910,
      "petr": 5911,
      "ountain": 5912,
      "load": 5913,
      "tedly": 5914,
      "coat": 5915,
      "overtaken": 5916,
      "huka": 5917,
      "burns": 5918,
      "swear": 5919,
      "confounded": 5920,
      "verend": 5921,
      "valour": 5922,
      "drop": 5923,
      "increasing": 5924,
      "influenced": 5925,
      "sesame": 5926,
      "Desire": 5927,
      "walk": 5928,
      "burst": 5929,
      "smile": 5930,
      "infuriated": 5931,
      "obstructed": 5932,
      "sexual": 5933,
      "panic": 5934,
      "whirling": 5935,
      "Pushkara": 5936,
      "dynasty": 5937,
      "tirtha": 5938,
      "Anu": 5939,
      "Kama": 5940,
      "Mle": 5941,
      "lab": 5942,
      "trid": 5943,
      "thread": 5944,
      "inity": 5945,
      "mete": 5946,
      "resid": 5947,
      "movable": 5948,
      "hatri": 5949,
      "loO": 5950,
      "pil": 5951,
      "Vais": 5952,
      "northern": 5953,
      "invoked": 5954,
      "original": 5955,
      "built": 5956,
      "horiz": 5957,
      "glorious": 5958,
      "instructed": 5959,
      "Adityas": 5960,
      "vitals": 5961,
      "slaughtering": 5962,
      "laughed": 5963,
      "indulge": 5964,
      "breaths": 5965,
      "dresses": 5966,
      "heaps": 5967,
      "distributed": 5968,
      "dishon": 5969,
      "Kailasa": 5970,
      "Hirany": 5971,
      "jealous": 5972,
      "Dus": 5973,
      "cate": 5974,
      "dies": 5975,
      "drank": 5976,
      "ns": 5977,
      "tall": 5978,
      "tender": 5979,
      "inconceivable": 5980,
      "haught": 5981,
      "lected": 5982,
      "memory": 5983,
      "mansions": 5984,
      "perpetr": 5985,
      "blare": 5986,
      "wol": 5987,
      "noose": 5988,
      "downwards": 5989,
      "Before": 5990,
      "sung": 5991,
      "commits": 5992,
      "erial": 5993,
      "respectfully": 5994,
      "torrents": 5995,
      "Vāl": 5996,
      "hungry": 5997,
      "Ashvatthama": 5998,
      "Renoun": 5999,
      "scorcher": 6000,
      "sorely": 6001,
      "exclaimed": 6002,
      "modesty": 6003,
      "avarice": 6004,
      "Pradyumna": 6005,
      "horizon": 6006,
      "!\"": 6007,
      "Pisha": 6008,
      "Will": 6009,
      "bark": 6010,
      "pā": 6011,
      "rattle": 6012,
      "sad": 6013,
      "āra": 6014,
      "inauspicious": 6015,
      "envy": 6016,
      "aspect": 6017,
      "rival": 6018,
      "decei": 6019,
      "abh": 6020,
      "plain": 6021,
      "disposed": 6022,
      "distinguished": 6023,
      "coats": 6024,
      "sland": 6025,
      "track": 6026,
      "Sushar": 6027,
      "dense": 6028,
      "Janasth": 6029,
      "Alamb": 6030,
      "Gangā": 6031,
      "completed": 6032,
      "turning": 6033,
      "Chitra": 6034,
      "listened": 6035,
      "torment": 6036,
      "behest": 6037,
      "Vikartana": 6038,
      "engagement": 6039,
      "stalks": 6040,
      "changed": 6041,
      "Vişnu": 6042,
      "debt": 6043,
      "rescuing": 6044,
      "transgress": 6045,
      ",—": 6046,
      "Have": 6047,
      "Sak": 6048,
      "fy": 6049,
      "ker": 6050,
      "naked": 6051,
      "shad": 6052,
      "ina": 6053,
      "remn": 6054,
      "island": 6055,
      "hide": 6056,
      "appoint": 6057,
      "everlasting": 6058,
      "imprec": 6059,
      "Argh": 6060,
      "ship": 6061,
      "guided": 6062,
      "relations": 6063,
      "subjection": 6064,
      "colours": 6065,
      "clever": 6066,
      "existing": 6067,
      "blazed": 6068,
      "Aditi": 6069,
      "strings": 6070,
      "cloths": 6071,
      "troubles": 6072,
      "exercised": 6073,
      "coppery": 6074,
      "fowler": 6075,
      "delusion": 6076,
      "Blessed": 6077,
      "Ikşvāku": 6078,
      "Gandhamad": 6079,
      "Profit": 6080,
      "Bhava": 6081,
      "dren": 6082,
      "mist": 6083,
      "trying": 6084,
      "asmuch": 6085,
      "bewildered": 6086,
      "radi": 6087,
      "deem": 6088,
      "forgiving": 6089,
      "wept": 6090,
      "reside": 6091,
      "territ": 6092,
      "ables": 6093,
      "abodes": 6094,
      "sull": 6095,
      "attenti": 6096,
      "rub": 6097,
      "agri": 6098,
      "venge": 6099,
      "ump": 6100,
      "bol": 6101,
      "goodness": 6102,
      "possessions": 6103,
      "guide": 6104,
      "stop": 6105,
      "backed": 6106,
      "enedi": 6107,
      "iniqu": 6108,
      "feels": 6109,
      "intercourse": 6110,
      "news": 6111,
      "Samvar": 6112,
      "idding": 6113,
      "advant": 6114,
      "Magadha": 6115,
      "deceitful": 6116,
      "Charanas": 6117,
      "emancipation": 6118,
      "Brahmanicide": 6119,
      "lunar": 6120,
      "contemplation": 6121,
      "Surrounded": 6122,
      "Alambusha": 6123,
      "Dakshina": 6124,
      "ape": 6125,
      "bare": 6126,
      "benedi": 6127,
      "custo": 6128,
      "gree": 6129,
      "guni": 6130,
      "mes": 6131,
      "retired": 6132,
      "anded": 6133,
      "bees": 6134,
      "rily": 6135,
      "device": 6136,
      "ades": 6137,
      "adhara": 6138,
      "idable": 6139,
      "Rāks": 6140,
      "formidable": 6141,
      "failed": 6142,
      "efforts": 6143,
      "noon": 6144,
      "Artha": 6145,
      "holds": 6146,
      "courti": 6147,
      "resting": 6148,
      "breaking": 6149,
      "relation": 6150,
      "cycle": 6151,
      "fresh": 6152,
      "Vasuki": 6153,
      "crows": 6154,
      "Krita": 6155,
      "conquerable": 6156,
      "satisfying": 6157,
      "wander": 6158,
      "collection": 6159,
      "repressor": 6160,
      "shedding": 6161,
      "Saumit": 6162,
      "umbrellas": 6163,
      "faced": 6164,
      "system": 6165,
      "Everything": 6166,
      "Rohini": 6167,
      "concealed": 6168,
      "contentment": 6169,
      "diseases": 6170,
      "expiration": 6171,
      "attentive": 6172,
      "Div": 6173,
      "Gi": 6174,
      "Mari": 6175,
      "Sv": 6176,
      "Ud": 6177,
      "aqu": 6178,
      "fes": 6179,
      "uries": 6180,
      "ukha": 6181,
      "reverend": 6182,
      "chitra": 6183,
      "enters": 6184,
      "saving": 6185,
      "resor": 6186,
      "door": 6187,
      "nage": 6188,
      "carnage": 6189,
      "impious": 6190,
      "aston": 6191,
      "flowed": 6192,
      "sped": 6193,
      "compassed": 6194,
      "lada": 6195,
      "accordingly": 6196,
      "Vidy": 6197,
      "achieving": 6198,
      "instrument": 6199,
      "circle": 6200,
      "trembled": 6201,
      "mortals": 6202,
      "utsu": 6203,
      "Prana": 6204,
      "Yuyutsu": 6205,
      "rejoiced": 6206,
      "Ashvamedha": 6207,
      "bitter": 6208,
      "Angirasa": 6209,
      "scattering": 6210,
      "Adhiratha": 6211,
      "Marutta": 6212,
      "shrouded": 6213,
      "Gandhamadana": 6214,
      "Diti": 6215,
      "Mun": 6216,
      "Pin": 6217,
      "Ruk": 6218,
      "Water": 6219,
      "bi": 6220,
      "eg": 6221,
      "mouse": 6222,
      "pity": 6223,
      "swar": 6224,
      "spl": 6225,
      "ws": 6226,
      "attired": 6227,
      "hidden": 6228,
      "unconquerable": 6229,
      "fil": 6230,
      "fies": 6231,
      "sable": 6232,
      "resounding": 6233,
      "attempt": 6234,
      "desiring": 6235,
      "ordain": 6236,
      "asting": 6237,
      "neigh": 6238,
      "Rākşas": 6239,
      "slept": 6240,
      "miseries": 6241,
      "depart": 6242,
      "fasting": 6243,
      "intentions": 6244,
      "wilder": 6245,
      "achievements": 6246,
      "challenged": 6247,
      "chastisement": 6248,
      "satiated": 6249,
      "Arghya": 6250,
      "Ast": 6251,
      "ball": 6252,
      "hind": 6253,
      "ochana": 6254,
      "pul": 6255,
      "sang": 6256,
      "tank": 6257,
      "vom": 6258,
      "andi": 6259,
      "oral": 6260,
      "ading": 6261,
      "upper": 6262,
      "utmost": 6263,
      "excl": 6264,
      "rust": 6265,
      "therewith": 6266,
      "disregarded": 6267,
      "dispir": 6268,
      "impossible": 6269,
      "virya": 6270,
      "riti": 6271,
      "parties": 6272,
      "subtle": 6273,
      "scent": 6274,
      "Depri": 6275,
      "cerity": 6276,
      "relating": 6277,
      "cased": 6278,
      "presenting": 6279,
      "confusion": 6280,
      "paste": 6281,
      "producing": 6282,
      "accepting": 6283,
      "Utanka": 6284,
      "gains": 6285,
      "choked": 6286,
      "temples": 6287,
      "stupef": 6288,
      "smeared": 6289,
      "explained": 6290,
      "experience": 6291,
      "altar": 6292,
      "village": 6293,
      "Balhika": 6294,
      "Sanat": 6295,
      "Vindhya": 6296,
      "deteriorating": 6297,
      "insects": 6298,
      "Khandava": 6299,
      "humili": 6300,
      "Kad": 6301,
      "Kund": 6302,
      "Sri": 6303,
      "Ulu": 6304,
      "dressing": 6305,
      "ny": 6306,
      "pond": 6307,
      "tribute": 6308,
      "incarn": 6309,
      "revered": 6310,
      "represented": 6311,
      "atis": 6312,
      "itate": 6313,
      "step": 6314,
      "unworthy": 6315,
      "comed": 6316,
      "ruin": 6317,
      "vener": 6318,
      "Intellig": 6319,
      "sincerity": 6320,
      "Karma": 6321,
      "resembles": 6322,
      "embod": 6323,
      "Vichitra": 6324,
      "accordance": 6325,
      "Puranas": 6326,
      "silence": 6327,
      "swan": 6328,
      "principle": 6329,
      "tranquil": 6330,
      "enhancer": 6331,
      "kshit": 6332,
      "actuated": 6333,
      "arrangements": 6334,
      "injunctions": 6335,
      "hanging": 6336,
      "Prahlada": 6337,
      "sullied": 6338,
      "aquatic": 6339,
      "dispirited": 6340,
      "Kos": 6341,
      "Prin": 6342,
      "Sit": 6343,
      "Tārā": 6344,
      "Whose": 6345,
      "ait": 6346,
      "br": 6347,
      "elo": 6348,
      "gant": 6349,
      "ghee": 6350,
      "laying": 6351,
      "pill": 6352,
      "assigned": 6353,
      "tomorrow": 6354,
      "heir": 6355,
      "stained": 6356,
      "tily": 6357,
      "members": 6358,
      "forin": 6359,
      "fie": 6360,
      "ruti": 6361,
      "doer": 6362,
      "plough": 6363,
      "vaha": 6364,
      "gies": 6365,
      "rite": 6366,
      "services": 6367,
      "icant": 6368,
      "Rakş": 6369,
      "Vashish": 6370,
      "alight": 6371,
      "rises": 6372,
      "palaces": 6373,
      "buf": 6374,
      "Another": 6375,
      "decay": 6376,
      "justice": 6377,
      "Kritavarma": 6378,
      "narr": 6379,
      "dragging": 6380,
      "Durmukha": 6381,
      "pairs": 6382,
      "exercise": 6383,
      "Chandala": 6384,
      "propitiated": 6385,
      "Angiras": 6386,
      "excessive": 6387,
      "Bhurish": 6388,
      "Kashi": 6389,
      "swelling": 6390,
      "Yamuna": 6391,
      "constructed": 6392,
      "constituted": 6393,
      "eulog": 6394,
      "Parashara": 6395,
      "pregnant": 6396,
      "effects": 6397,
      "trident": 6398,
      "Deprived": 6399,
      "Bring": 6400,
      "Over": 6401,
      "bidding": 6402,
      "ger": 6403,
      "gers": 6404,
      "gates": 6405,
      "oes": 6406,
      "rect": 6407,
      "allied": 6408,
      "urine": 6409,
      "felicity": 6410,
      "perception": 6411,
      "disper": 6412,
      "truck": 6413,
      "Vivas": 6414,
      "welcomed": 6415,
      "Mahā": 6416,
      "calcul": 6417,
      "sharpness": 6418,
      "shows": 6419,
      "measures": 6420,
      "showering": 6421,
      "fruitless": 6422,
      "Devala": 6423,
      "delivered": 6424,
      "perceived": 6425,
      "Accord": 6426,
      "apartments": 6427,
      "tongues": 6428,
      "emitted": 6429,
      "obedience": 6430,
      "Yajn": 6431,
      "believe": 6432,
      "karu": 6433,
      "mendicant": 6434,
      "proaching": 6435,
      "bridge": 6436,
      "Ushanas": 6437,
      "Vichitravirya": 6438,
      "Each": 6439,
      "Kill": 6440,
      "Sā": 6441,
      "jana": 6442,
      "voc": 6443,
      "atkaru": 6444,
      "eni": 6445,
      "arising": 6446,
      "rathi": 6447,
      "undeteriorating": 6448,
      "avakra": 6449,
      "pets": 6450,
      "expressed": 6451,
      "counter": 6452,
      "fling": 6453,
      "pret": 6454,
      "ciousness": 6455,
      "oubtedly": 6456,
      "drove": 6457,
      "weakened": 6458,
      "respectively": 6459,
      "haratha": 6460,
      "anika": 6461,
      "edifi": 6462,
      "Räks": 6463,
      "walked": 6464,
      "hunting": 6465,
      "blows": 6466,
      "crags": 6467,
      "offici": 6468,
      "safety": 6469,
      "amidst": 6470,
      "fingers": 6471,
      "associ": 6472,
      "Jaratkaru": 6473,
      "bidden": 6474,
      "Sattva": 6475,
      "hodara": 6476,
      "Uluka": 6477,
      "eloqu": 6478,
      "Aso": 6479,
      "cill": 6480,
      "drow": 6481,
      "echo": 6482,
      "ild": 6483,
      "mour": 6484,
      "recept": 6485,
      "ensu": 6486,
      "beast": 6487,
      "befallen": 6488,
      "stir": 6489,
      "iras": 6490,
      "avan": 6491,
      "avān": 6492,
      "compelled": 6493,
      "hatred": 6494,
      "navel": 6495,
      "councill": 6496,
      "gather": 6497,
      "embell": 6498,
      "afflicting": 6499,
      "ported": 6500,
      "respectable": 6501,
      "careful": 6502,
      "Rahu": 6503,
      "masters": 6504,
      "Sometimes": 6505,
      "instantly": 6506,
      "paths": 6507,
      "Soon": 6508,
      "Daś": 6509,
      "gratification": 6510,
      "cherished": 6511,
      "constant": 6512,
      "Sharad": 6513,
      "Entering": 6514,
      "vehement": 6515,
      "adversary": 6516,
      "authority": 6517,
      "rapid": 6518,
      "characteristics": 6519,
      "intoxicated": 6520,
      "Pishachas": 6521,
      "Vashishtha": 6522,
      "buffal": 6523,
      "Ach": 6524,
      "Hara": 6525,
      "Struck": 6526,
      "jar": 6527,
      "maddened": 6528,
      "phants": 6529,
      "rance": 6530,
      "Śatrughna": 6531,
      "throng": 6532,
      "inflicted": 6533,
      "ancy": 6534,
      "asking": 6535,
      "hikas": 6536,
      "lihood": 6537,
      "outcome": 6538,
      "ount": 6539,
      "obst": 6540,
      "begged": 6541,
      "assing": 6542,
      "Sura": 6543,
      "performer": 6544,
      "Vijaya": 6545,
      "Mahodara": 6546,
      "respects": 6547,
      "survi": 6548,
      "sorrows": 6549,
      "sorrowful": 6550,
      "grave": 6551,
      "Suparna": 6552,
      "continue": 6553,
      "oppon": 6554,
      "generally": 6555,
      "centre": 6556,
      "bride": 6557,
      "immortality": 6558,
      "robbed": 6559,
      "issuing": 6560,
      "Proceed": 6561,
      "conceived": 6562,
      "forsaking": 6563,
      "fetters": 6564,
      "mandate": 6565,
      "Shankara": 6566,
      "Bhuris": 6567,
      "slightest": 6568,
      "Consciousness": 6569,
      "derived": 6570,
      "opposite": 6571,
      "Kalingas": 6572,
      "walls": 6573,
      "bludgeons": 6574,
      "restored": 6575,
      "topics": 6576,
      "Chekit": 6577,
      "incessantly": 6578,
      "Janasthāna": 6579,
      "courtiers": 6580,
      "Gaya": 6581,
      "Ha": 6582,
      "Rș": 6583,
      "Sthan": 6584,
      "Take": 6585,
      "backs": 6586,
      "cous": 6587,
      "slo": 6588,
      "ann": 6589,
      "rewards": 6590,
      "organ": 6591,
      "toil": 6592,
      "riven": 6593,
      "tial": 6594,
      "fired": 6595,
      "proclaim": 6596,
      "blowing": 6597,
      "earning": 6598,
      "affor": 6599,
      "subst": 6600,
      "priv": 6601,
      "purifi": 6602,
      "banished": 6603,
      "friendly": 6604,
      "decreas": 6605,
      "exert": 6606,
      "lamps": 6607,
      "lovely": 6608,
      "spots": 6609,
      "garden": 6610,
      "adorable": 6611,
      "Truly": 6612,
      "determination": 6613,
      "ivya": 6614,
      "roads": 6615,
      "vehicle": 6616,
      "forsaken": 6617,
      "gratify": 6618,
      "Bhagiratha": 6619,
      "Daruka": 6620,
      "Kshetra": 6621,
      "Ashtavakra": 6622,
      "Remembering": 6623,
      "embodiment": 6624,
      "Cut": 6625,
      "Kra": 6626,
      "Mak": 6627,
      "Stri": 6628,
      "Van": 6629,
      "der": 6630,
      "paying": 6631,
      "insp": 6632,
      "ghost": 6633,
      "meal": 6634,
      "rolling": 6635,
      "mani": 6636,
      "solit": 6637,
      "pool": 6638,
      "cians": 6639,
      "tured": 6640,
      "arily": 6641,
      "hearted": 6642,
      "press": 6643,
      "presiding": 6644,
      "trum": 6645,
      "truths": 6646,
      "rests": 6647,
      "breed": 6648,
      "protectors": 6649,
      "extent": 6650,
      "measuring": 6651,
      "exerting": 6652,
      "flew": 6653,
      "oppress": 6654,
      "increases": 6655,
      "maidens": 6656,
      "cruelty": 6657,
      "poorly": 6658,
      "adopting": 6659,
      "illusions": 6660,
      "Leaving": 6661,
      "hawk": 6662,
      "applauded": 6663,
      "Covered": 6664,
      "thoroughly": 6665,
      "solitary": 6666,
      "Du": 6667,
      "Fa": 6668,
      "Fate": 6669,
      "Jish": 6670,
      "sas": 6671,
      "rem": 6672,
      "rer": 6673,
      "unrighteousness": 6674,
      "uses": 6675,
      "avrata": 6676,
      "carth": 6677,
      "shake": 6678,
      "shaped": 6679,
      "dominion": 6680,
      "happens": 6681,
      "consulted": 6682,
      "livelihood": 6683,
      "hostilities": 6684,
      "helped": 6685,
      "visited": 6686,
      "proceeds": 6687,
      "fications": 6688,
      "fortnight": 6689,
      "ferent": 6690,
      "incident": 6691,
      "crops": 6692,
      "decaying": 6693,
      "drops": 6694,
      "vanquishing": 6695,
      "Danava": 6696,
      "Addressing": 6697,
      "exertions": 6698,
      "Jamb": 6699,
      "drive": 6700,
      "Ambrosia": 6701,
      "Bahuka": 6702,
      "barley": 6703,
      "jumped": 6704,
      "ratu": 6705,
      "preparations": 6706,
      "wondrous": 6707,
      "Trigartas": 6708,
      "communicate": 6709,
      "Kartikeya": 6710,
      "Astika": 6711,
      "councillors": 6712,
      "Chekitana": 6713,
      "Jishnu": 6714,
      "Ah": 6715,
      "Dān": 6716,
      "Never": 6717,
      "brow": 6718,
      "ecked": 6719,
      "jud": 6720,
      "kling": 6721,
      "lines": 6722,
      "yaka": 6723,
      "ņu": 6724,
      "encompassed": 6725,
      "araka": 6726,
      "below": 6727,
      "riad": 6728,
      "verted": 6729,
      "kee": 6730,
      "upala": 6731,
      "conflag": 6732,
      "fulfill": 6733,
      "Andhakas": 6734,
      "discovered": 6735,
      "imped": 6736,
      "immutable": 6737,
      "bos": 6738,
      "books": 6739,
      "Thous": 6740,
      "prefer": 6741,
      "dict": 6742,
      "pleases": 6743,
      "suns": 6744,
      "atriarch": 6745,
      "descending": 6746,
      "marry": 6747,
      "javel": 6748,
      "springs": 6749,
      "injuring": 6750,
      "pains": 6751,
      "Devaki": 6752,
      "Kaikeyas": 6753,
      "paternal": 6754,
      "fifty": 6755,
      "calling": 6756,
      "pitch": 6757,
      "Bhojas": 6758,
      "eminent": 6759,
      "Vajra": 6760,
      "previous": 6761,
      "breeze": 6762,
      "bolts": 6763,
      "advantage": 6764,
      "embellished": 6765,
      "Sthanu": 6766,
      "Come": 6767,
      "Island": 6768,
      "Jā": 6769,
      "Mitra": 6770,
      "Shish": 6771,
      "Sachi": 6772,
      "mson": 6773,
      "pac": 6774,
      "thereat": 6775,
      "asted": 6776,
      "lea": 6777,
      "liar": 6778,
      "unaka": 6779,
      "roam": 6780,
      "myriad": 6781,
      "teem": 6782,
      "posing": 6783,
      "discom": 6784,
      "mightyarmed": 6785,
      "wore": 6786,
      "mentally": 6787,
      "element": 6788,
      "preva": 6789,
      "spend": 6790,
      "Beings": 6791,
      "palm": 6792,
      "bathe": 6793,
      "void": 6794,
      "chamber": 6795,
      "Gods": 6796,
      "honouring": 6797,
      "bestower": 6798,
      "separate": 6799,
      "Räma": 6800,
      "restraining": 6801,
      "gross": 6802,
      "summoning": 6803,
      "Magha": 6804,
      "antagonists": 6805,
      "changes": 6806,
      "feeding": 6807,
      "assistance": 6808,
      "stick": 6809,
      "enquire": 6810,
      "reserved": 6811,
      "Himalayas": 6812,
      "dismissed": 6813,
      "Besides": 6814,
      "persecut": 6815,
      "consistent": 6816,
      "conflagration": 6817,
      "Ek": 6818,
      "Just": 6819,
      "eem": 6820,
      "gently": 6821,
      "mī": 6822,
      "money": 6823,
      "padd": 6824,
      "taught": 6825,
      "ys": 6826,
      "än": 6827,
      "asi": 6828,
      "chor": 6829,
      "mix": 6830,
      "haras": 6831,
      "plu": 6832,
      "arious": 6833,
      "angrily": 6834,
      "clatter": 6835,
      "shade": 6836,
      "assisted": 6837,
      "telling": 6838,
      "sundered": 6839,
      "honor": 6840,
      "speakers": 6841,
      "superiority": 6842,
      "peaceful": 6843,
      "voices": 6844,
      "favourable": 6845,
      "Varu": 6846,
      "studded": 6847,
      "played": 6848,
      "generous": 6849,
      "Daitya": 6850,
      "aware": 6851,
      "crimson": 6852,
      "prayers": 6853,
      "rejoic": 6854,
      "superhuman": 6855,
      "Savyasachi": 6856,
      "Visnu": 6857,
      "actually": 6858,
      "expiation": 6859,
      "indifferent": 6860,
      "conciliation": 6861,
      "peerless": 6862,
      "Susharma": 6863,
      "Saumitri": 6864,
      "paddy": 6865,
      "Has": 6866,
      "Homa": 6867,
      "Kș": 6868,
      "Mani": 6869,
      "Ref": 6870,
      "bala": 6871,
      "dang": 6872,
      "dwel": 6873,
      "eigh": 6874,
      "jun": 6875,
      "ksha": 6876,
      "mir": 6877,
      "ṇa": 6878,
      "ane": 6879,
      "revol": 6880,
      "encamp": 6881,
      "height": 6882,
      "haps": 6883,
      "rather": 6884,
      "meared": 6885,
      "forbidden": 6886,
      "unted": 6887,
      "wholly": 6888,
      "songs": 6889,
      "fixing": 6890,
      "yourselves": 6891,
      "dispelled": 6892,
      "Yudha": 6893,
      "pardon": 6894,
      "trained": 6895,
      "Vip": 6896,
      "heavily": 6897,
      "actor": 6898,
      "Parvata": 6899,
      "bedecked": 6900,
      "sleeps": 6901,
      "build": 6902,
      "humanity": 6903,
      "companion": 6904,
      "forthwith": 6905,
      "blaze": 6906,
      "patient": 6907,
      "easy": 6908,
      "recites": 6909,
      "Prat": 6910,
      "questioned": 6911,
      "narrate": 6912,
      "fleetness": 6913,
      "tinguish": 6914,
      "facing": 6915,
      "green": 6916,
      "Parikshit": 6917,
      "wreath": 6918,
      "dimin": 6919,
      "eighth": 6920,
      "Ele": 6921,
      "Sutas": 6922,
      "bands": 6923,
      "famed": 6924,
      "jars": 6925,
      "nish": 6926,
      "ored": 6927,
      "table": 6928,
      "taka": 6929,
      "vity": 6930,
      "western": 6931,
      "yot": 6932,
      "ori": 6933,
      "ale": 6934,
      "hilo": 6935,
      "degra": 6936,
      "kets": 6937,
      "terrace": 6938,
      "comings": 6939,
      "soo": 6940,
      "provid": 6941,
      "dogs": 6942,
      "design": 6943,
      "disaster": 6944,
      "umer": 6945,
      "immovable": 6946,
      "joyfully": 6947,
      "Maha": 6948,
      "curds": 6949,
      "ficers": 6950,
      "auspiciousness": 6951,
      "ushas": 6952,
      "numbering": 6953,
      "incant": 6954,
      "venture": 6955,
      "brief": 6956,
      "pursue": 6957,
      "console": 6958,
      "homes": 6959,
      "piteous": 6960,
      "maintained": 6961,
      "Approaching": 6962,
      "apprehension": 6963,
      "distinct": 6964,
      "Follow": 6965,
      "swoon": 6966,
      "simply": 6967,
      "judgement": 6968,
      "Pinaka": 6969,
      "Intelligence": 6970,
      "Rakşasas": 6971,
      "announ": 6972,
      "Aira": 6973,
      "Bra": 6974,
      "Gav": 6975,
      "Har": 6976,
      "Lava": 6977,
      "Rş": 6978,
      "Wait": 6979,
      "cam": 6980,
      "dir": 6981,
      "jna": 6982,
      "janya": 6983,
      "lā": 6984,
      "mud": 6985,
      "tend": 6986,
      "tending": 6987,
      "inasmuch": 6988,
      "hiin": 6989,
      "ript": 6990,
      "omed": 6991,
      "saptakas": 6992,
      "hate": 6993,
      "exact": 6994,
      "proved": 6995,
      "proportions": 6996,
      "shoulder": 6997,
      "undoubtedly": 6998,
      "impenet": 6999,
      "counted": 7000,
      "jected": 7001,
      "capture": 7002,
      "insen": 7003,
      "personal": 7004,
      "beautified": 7005,
      "Victory": 7006,
      "ruling": 7007,
      "Making": 7008,
      "maras": 7009,
      "fiercely": 7010,
      "Virochana": 7011,
      "snat": 7012,
      "instruction": 7013,
      "delightedly": 7014,
      "finds": 7015,
      "straw": 7016,
      "liberal": 7017,
      "winning": 7018,
      "inhabiting": 7019,
      "tempt": 7020,
      "ampana": 7021,
      "driving": 7022,
      "witnessed": 7023,
      "boys": 7024,
      "requested": 7025,
      "ancestral": 7026,
      "violence": 7027,
      "Bhagirathi": 7028,
      "devouring": 7029,
      "released": 7030,
      "Samans": 7031,
      "apparent": 7032,
      "Akshauhini": 7033,
      "throat": 7034,
      "Pierced": 7035,
      "eloquent": 7036,
      "Asoka": 7037,
      "Thousands": 7038,
      "hiloso": 7039,
      "Getting": 7040,
      "Jaya": 7041,
      "Next": 7042,
      "Sire": 7043,
      "Uni": 7044,
      "Wor": 7045,
      "athe": 7046,
      "ev": 7047,
      "grou": 7048,
      "hri": 7049,
      "kne": 7050,
      "mbered": 7051,
      "nin": 7052,
      "pours": 7053,
      "tries": 7054,
      "officers": 7055,
      "error": 7056,
      "alarmed": 7057,
      "havoc": 7058,
      "allig": 7059,
      "ungrateful": 7060,
      "roamed": 7061,
      "aved": 7062,
      "soil": 7063,
      "abund": 7064,
      "absol": 7065,
      "exhi": 7066,
      "exped": 7067,
      "ouring": 7068,
      "sires": 7069,
      "boar": 7070,
      "bowstring": 7071,
      "shares": 7072,
      "elegant": 7073,
      "preced": 7074,
      "energies": 7075,
      "longing": 7076,
      "righteously": 7077,
      "afflic": 7078,
      "Sair": 7079,
      "hurl": 7080,
      "Also": 7081,
      "freedom": 7082,
      "agreement": 7083,
      "yojanas": 7084,
      "dropping": 7085,
      "profess": 7086,
      "movements": 7087,
      "vāja": 7088,
      "resolve": 7089,
      "expanded": 7090,
      "punished": 7091,
      "necessity": 7092,
      "wandered": 7093,
      "witnessing": 7094,
      "culture": 7095,
      "motionless": 7096,
      "Kushika": 7097,
      "jumping": 7098,
      "opposites": 7099,
      "surprise": 7100,
      "prastha": 7101,
      "yells": 7102,
      "Highly": 7103,
      "territories": 7104,
      "According": 7105,
      "impenetrable": 7106,
      "Bib": 7107,
      "Chi": 7108,
      "Kine": 7109,
      "Sir": 7110,
      "ian": 7111,
      "marrow": 7112,
      "obe": 7113,
      "tin": 7114,
      "tread": 7115,
      "śa": 7116,
      "instead": 7117,
      "envo": 7118,
      "arshana": 7119,
      "esha": 7120,
      "espi": 7121,
      "developed": 7122,
      "shun": 7123,
      "acking": 7124,
      "arena": 7125,
      "aint": 7126,
      "avata": 7127,
      "esteem": 7128,
      "apped": 7129,
      "uteous": 7130,
      "attem": 7131,
      "exiled": 7132,
      "excite": 7133,
      "mire": 7134,
      "cil": 7135,
      "fails": 7136,
      "regular": 7137,
      "diet": 7138,
      "avasu": 7139,
      "quiver": 7140,
      "lighting": 7141,
      "Assuming": 7142,
      "Because": 7143,
      "watery": 7144,
      "script": 7145,
      "attainable": 7146,
      "Narachas": 7147,
      "remembered": 7148,
      "sounded": 7149,
      "pub": 7150,
      "calves": 7151,
      "passage": 7152,
      "beauteous": 7153,
      "value": 7154,
      "vida": 7155,
      "yoga": 7156,
      "meantime": 7157,
      "Which": 7158,
      "metals": 7159,
      "Bharadvāja": 7160,
      "lauded": 7161,
      "searching": 7162,
      "Sharm": 7163,
      "grasping": 7164,
      "Lakshmi": 7165,
      "Vişņu": 7166,
      "Pleasure": 7167,
      "arisen": 7168,
      "conveyances": 7169,
      "escaped": 7170,
      "wedded": 7171,
      "prostrate": 7172,
      "Treta": 7173,
      "Vālmī": 7174,
      "wilderness": 7175,
      "stupefaction": 7176,
      "venerable": 7177,
      "dangers": 7178,
      "espied": 7179,
      "scriptural": 7180,
      "Vālmīki": 7181,
      "Out": 7182,
      "Paka": 7183,
      "Passing": 7184,
      "Rá": 7185,
      "Rish": 7186,
      "Sad": 7187,
      "Spe": 7188,
      "Tom": 7189,
      "Tris": 7190,
      "cot": 7191,
      "cending": 7192,
      "kum": 7193,
      "paci": 7194,
      "tough": 7195,
      "uter": 7196,
      "uchi": 7197,
      "yuta": 7198,
      "retain": 7199,
      "reverse": 7200,
      "withdraw": 7201,
      "strain": 7202,
      "ayudha": 7203,
      "ungu": 7204,
      "unpleasant": 7205,
      "fever": 7206,
      "amount": 7207,
      "sustain": 7208,
      "blades": 7209,
      "Brahin": 7210,
      "loose": 7211,
      "loos": 7212,
      "sacrificing": 7213,
      "offence": 7214,
      "tenth": 7215,
      "devout": 7216,
      "vasu": 7217,
      "scene": 7218,
      "currents": 7219,
      "repul": 7220,
      "extended": 7221,
      "besmeared": 7222,
      "Pancha": 7223,
      "denizens": 7224,
      "grounds": 7225,
      "worshippers": 7226,
      "piously": 7227,
      "Vidhar": 7228,
      "frame": 7229,
      "habits": 7230,
      "Agnihotra": 7231,
      "Angas": 7232,
      "aiming": 7233,
      "growth": 7234,
      "conferring": 7235,
      "constitute": 7236,
      "Mantra": 7237,
      "smote": 7238,
      "talking": 7239,
      "Kausalya": 7240,
      "hunter": 7241,
      "axe": 7242,
      "Kirit": 7243,
      "leaping": 7244,
      "occupied": 7245,
      "merely": 7246,
      "concerning": 7247,
      "awakened": 7248,
      "remnant": 7249,
      "Dānavas": 7250,
      "Shishupala": 7251,
      "rejoicing": 7252,
      "Sharmishtha": 7253,
      "Car": 7254,
      "Dvi": 7255,
      "Dvap": 7256,
      "Ira": 7257,
      "Ket": 7258,
      "Lok": 7259,
      "Plac": 7260,
      "bill": 7261,
      "bounded": 7262,
      "gj": 7263,
      "jata": 7264,
      "lof": 7265,
      "py": 7266,
      "ın": 7267,
      "unf": 7268,
      "undecaying": 7269,
      "keeps": 7270,
      "resisting": 7271,
      "abide": 7272,
      "endless": 7273,
      "therefrom": 7274,
      "sip": 7275,
      "cience": 7276,
      "vide": 7277,
      "impelled": 7278,
      "hears": 7279,
      "effic": 7280,
      "angled": 7281,
      "cling": 7282,
      "necks": 7283,
      "tama": 7284,
      "Whence": 7285,
      "prayed": 7286,
      "merged": 7287,
      "ringa": 7288,
      "restri": 7289,
      "ficent": 7290,
      "Prith": 7291,
      "Satyavana": 7292,
      "invested": 7293,
      "carelessness": 7294,
      "kindly": 7295,
      "hurling": 7296,
      "Lakşmana": 7297,
      "practises": 7298,
      "habit": 7299,
      "instruct": 7300,
      "Angadas": 7301,
      "darted": 7302,
      "girls": 7303,
      "supporting": 7304,
      "inclination": 7305,
      "poisonous": 7306,
      "Yadavas": 7307,
      "behaved": 7308,
      "eagerly": 7309,
      "Stay": 7310,
      "retreating": 7311,
      "belief": 7312,
      "peacock": 7313,
      "flood": 7314,
      "Kalinga": 7315,
      "Kambojas": 7316,
      "scimitars": 7317,
      "tortoise": 7318,
      "residue": 7319,
      "iniquity": 7320,
      "split": 7321,
      "Varuņa": 7322,
      "dwelt": 7323,
      "loosened": 7324,
      "Dvapara": 7325,
      "Ho": 7326,
      "Pus": 7327,
      "Sus": 7328,
      "bhadra": 7329,
      "ial": 7330,
      "rash": 7331,
      "spar": 7332,
      "tur": 7333,
      "yanta": 7334,
      "zz": 7335,
      "şas": 7336,
      "”.": 7337,
      "thod": 7338,
      "toma": 7339,
      "befall": 7340,
      "likes": 7341,
      "admit": 7342,
      "unconscious": 7343,
      "ross": 7344,
      "acity": 7345,
      "urance": 7346,
      "manage": 7347,
      "sojour": 7348,
      "hata": 7349,
      "extinguished": 7350,
      "indom": 7351,
      "dissens": 7352,
      "loses": 7353,
      "anybody": 7354,
      "undergo": 7355,
      "pression": 7356,
      "joints": 7357,
      "fearless": 7358,
      "madeva": 7359,
      "retches": 7360,
      "shores": 7361,
      "However": 7362,
      "Pragj": 7363,
      "stronger": 7364,
      "turns": 7365,
      "Dasharatha": 7366,
      "profi": 7367,
      "affectionate": 7368,
      "Dhrishtaketu": 7369,
      "Samsaptakas": 7370,
      "Creation": 7371,
      "restraints": 7372,
      "issue": 7373,
      "Durv": 7374,
      "profusely": 7375,
      "Apana": 7376,
      "Răvaņa": 7377,
      "constellations": 7378,
      "distinction": 7379,
      "exclaiming": 7380,
      "uprooted": 7381,
      "Falguni": 7382,
      "liquid": 7383,
      "grinder": 7384,
      "Kekayas": 7385,
      "drenched": 7386,
      "benedictions": 7387,
      "Bhurishravas": 7388,
      "inspiring": 7389,
      "javelins": 7390,
      "hilosophy": 7391,
      "afflicter": 7392,
      "Kiritin": 7393,
      ",”": 7394,
      "Dvar": 7395,
      "Pad": 7396,
      "Vris": 7397,
      "cres": 7398,
      "hin": 7399,
      "wins": 7400,
      "īs": 7401,
      "thorns": 7402,
      "rets": 7403,
      "reared": 7404,
      "ision": 7405,
      "wight": 7406,
      "stable": 7407,
      "alli": 7408,
      "shut": 7409,
      "shouted": 7410,
      "fix": 7411,
      "residing": 7412,
      "compe": 7413,
      "worm": 7414,
      "pered": 7415,
      "exe": 7416,
      "selfcontrol": 7417,
      "carri": 7418,
      "dissip": 7419,
      "uddha": 7420,
      "earing": 7421,
      "imp": 7422,
      "camels": 7423,
      "prison": 7424,
      "spears": 7425,
      "goodly": 7426,
      "watch": 7427,
      "steed": 7428,
      "scents": 7429,
      "coursed": 7430,
      "alike": 7431,
      "rastha": 7432,
      "Agnish": 7433,
      "atsena": 7434,
      "twilight": 7435,
      "seventh": 7436,
      "deadly": 7437,
      "moral": 7438,
      "studies": 7439,
      "sciences": 7440,
      "assemblage": 7441,
      "kṣa": 7442,
      "mediate": 7443,
      "pursuit": 7444,
      "searched": 7445,
      "wrongs": 7446,
      "delicious": 7447,
      "crystal": 7448,
      "bewail": 7449,
      "offices": 7450,
      "Ambika": 7451,
      "progress": 7452,
      "example": 7453,
      "Consid": 7454,
      "disturb": 7455,
      "Ritvi": 7456,
      "figure": 7457,
      "recognise": 7458,
      "consultation": 7459,
      "luxury": 7460,
      "Renouncing": 7461,
      "ensued": 7462,
      "Vipula": 7463,
      "Airavata": 7464,
      "insensible": 7465,
      "Sairand": 7466,
      "unguents": 7467,
      "Pris": 7468,
      "Was": 7469,
      "cure": 7470,
      "ifications": 7471,
      "ko": 7472,
      "lone": 7473,
      "native": 7474,
      "phe": 7475,
      "्र": 7476,
      "inal": 7477,
      "reign": 7478,
      "retire": 7479,
      "arts": 7480,
      "withdrawn": 7481,
      "bearer": 7482,
      "holes": 7483,
      "hoja": 7484,
      "velled": 7485,
      "redoub": 7486,
      "terms": 7487,
      "absor": 7488,
      "Andhaka": 7489,
      "affluence": 7490,
      "slaves": 7491,
      "angs": 7492,
      "yaṇa": 7493,
      "hanu": 7494,
      "ical": 7495,
      "gaze": 7496,
      "dominions": 7497,
      "Krishnas": 7498,
      "guards": 7499,
      "vanti": 7500,
      "approve": 7501,
      "Shakti": 7502,
      "Wealth": 7503,
      "banian": 7504,
      "fortitude": 7505,
      "Always": 7506,
      "wny": 7507,
      "accomplishing": 7508,
      "finite": 7509,
      "temper": 7510,
      "Nothing": 7511,
      "fitting": 7512,
      "vindhya": 7513,
      "immeasurably": 7514,
      "groves": 7515,
      "frequently": 7516,
      "messengers": 7517,
      "disturbed": 7518,
      "householders": 7519,
      "expecting": 7520,
      "battles": 7521,
      "language": 7522,
      "deceived": 7523,
      "dispersed": 7524,
      "Sharadvata": 7525,
      "Yudhamanyu": 7526,
      "public": 7527,
      "Rishy": 7528,
      "indomitable": 7529,
      "Pragjyot": 7530,
      "Sairandhri": 7531,
      "Bhu": 7532,
      "Chak": 7533,
      "Iksh": 7534,
      "Vala": 7535,
      "bhoja": 7536,
      "gence": 7537,
      "list": 7538,
      "nur": 7539,
      "nons": 7540,
      "reck": 7541,
      "islands": 7542,
      "ert": 7543,
      "stu": 7544,
      "hoka": 7545,
      "method": 7546,
      "adhe": 7547,
      "adhas": 7548,
      "unbear": 7549,
      "urally": 7550,
      "myst": 7551,
      "hati": 7552,
      "Hell": 7553,
      "despair": 7554,
      "pic": 7555,
      "thief": 7556,
      "thieves": 7557,
      "begging": 7558,
      "undergone": 7559,
      "excell": 7560,
      "flamed": 7561,
      "flashes": 7562,
      "chika": 7563,
      "gathered": 7564,
      "Shruti": 7565,
      "virtuously": 7566,
      "Kuntibhoja": 7567,
      "bathes": 7568,
      "mastered": 7569,
      "farewell": 7570,
      "arriving": 7571,
      "daunt": 7572,
      "chains": 7573,
      "Dushyanta": 7574,
      "Kaikeya": 7575,
      "Himself": 7576,
      "eighteen": 7577,
      "recitations": 7578,
      "patch": 7579,
      "swer": 7580,
      "apping": 7581,
      "refer": 7582,
      "exhaustion": 7583,
      "vinis": 7584,
      "require": 7585,
      "avoided": 7586,
      "enhancing": 7587,
      "vigor": 7588,
      "reaps": 7589,
      "challeng": 7590,
      "advancement": 7591,
      "companionship": 7592,
      "devotees": 7593,
      "fowls": 7594,
      "Råma": 7595,
      "appropriate": 7596,
      "haughty": 7597,
      "lofty": 7598,
      "unfading": 7599,
      "Avanti": 7600,
      "East": 7601,
      "Freed": 7602,
      "Nam": 7603,
      "Patriarch": 7604,
      "Yonder": 7605,
      "gle": 7606,
      "ients": 7607,
      "kumb": 7608,
      "raratha": 7609,
      "thy": 7610,
      "thorn": 7611,
      "thein": 7612,
      "intro": 7613,
      "issi": 7614,
      "asunder": 7615,
      "alle": 7616,
      "ram": 7617,
      "rare": 7618,
      "states": 7619,
      "ripe": 7620,
      "deaf": 7621,
      "deception": 7622,
      "mage": 7623,
      "maker": 7624,
      "wholes": 7625,
      "fick": 7626,
      "sava": 7627,
      "resent": 7628,
      "attacking": 7629,
      "exto": 7630,
      "ruva": 7631,
      "agas": 7632,
      "prodi": 7633,
      "propri": 7634,
      "doors": 7635,
      "goal": 7636,
      "thence": 7637,
      "neut": 7638,
      "neya": 7639,
      "begins": 7640,
      "parva": 7641,
      "headless": 7642,
      "Shala": 7643,
      "pennons": 7644,
      "sheep": 7645,
      "possessor": 7646,
      "embrace": 7647,
      "Mahab": 7648,
      "distant": 7649,
      "Satya": 7650,
      "Gandhara": 7651,
      "contr": 7652,
      "describing": 7653,
      "successive": 7654,
      "originating": 7655,
      "careered": 7656,
      "celebration": 7657,
      "completion": 7658,
      "gladd": 7659,
      "Chedi": 7660,
      "silently": 7661,
      "agitation": 7662,
      "Raghus": 7663,
      "choice": 7664,
      "Marutas": 7665,
      "adorations": 7666,
      "Shamb": 7667,
      "Upan": 7668,
      "correct": 7669,
      "thirsty": 7670,
      "smiting": 7671,
      "clearly": 7672,
      "grasped": 7673,
      "scorched": 7674,
      "mingled": 7675,
      "ascertained": 7676,
      "ascertaining": 7677,
      "office": 7678,
      "temporal": 7679,
      "Shatanika": 7680,
      "Mārī": 7681,
      "Shankha": 7682,
      "Bhoja": 7683,
      "pupil": 7684,
      "Tamas": 7685,
      "Yavanas": 7686,
      "Arrived": 7687,
      "shadow": 7688,
      "Munis": 7689,
      "narrative": 7690,
      "edifices": 7691,
      "rapidly": 7692,
      "buffaloes": 7693,
      "Bhurisravas": 7694,
      "exactly": 7695,
      "crescent": 7696,
      "introdu": 7697,
      "issimo": 7698,
      "Citra": 7699,
      "Ever": 7700,
      "Master": 7701,
      "Ruru": 7702,
      "Wit": 7703,
      "bards": 7704,
      "ders": 7705,
      "ican": 7706,
      "salt": 7707,
      "ug": 7708,
      "wants": 7709,
      "wretches": 7710,
      "recourse": 7711,
      "itious": 7712,
      "rama": 7713,
      "til": 7714,
      "tives": 7715,
      "veget": 7716,
      "ayam": 7717,
      "unfortunate": 7718,
      "odious": 7719,
      "resort": 7720,
      "avir": 7721,
      "conson": 7722,
      "likewise": 7723,
      "indicated": 7724,
      "popul": 7725,
      "dishe": 7726,
      "loving": 7727,
      "orned": 7728,
      "regulated": 7729,
      "canni": 7730,
      "diam": 7731,
      "sphere": 7732,
      "animate": 7733,
      "idea": 7734,
      "description": 7735,
      "posal": 7736,
      "positions": 7737,
      "citing": 7738,
      "maintaining": 7739,
      "opinions": 7740,
      "crowded": 7741,
      "Anir": 7742,
      "intend": 7743,
      "measured": 7744,
      "deserved": 7745,
      "Aditya": 7746,
      "oppose": 7747,
      "Devavrata": 7748,
      "smelling": 7749,
      "branch": 7750,
      "sandals": 7751,
      "fifteen": 7752,
      "agony": 7753,
      "Sikhandin": 7754,
      "solicited": 7755,
      "troubled": 7756,
      "Matanga": 7757,
      "Vaik": 7758,
      "spectators": 7759,
      "earnest": 7760,
      "simplicity": 7761,
      "gloom": 7762,
      "Mainda": 7763,
      "fanned": 7764,
      "Yajnasena": 7765,
      "teeming": 7766,
      "Sadhyas": 7767,
      "Placing": 7768,
      "contrary": 7769,
      "Witness": 7770,
      "Ishana": 7771,
      "Jat": 7772,
      "Jaj": 7773,
      "Kacha": 7774,
      "Rush": 7775,
      "Women": 7776,
      "bash": 7777,
      "scar": 7778,
      "sena": 7779,
      "tap": 7780,
      "text": 7781,
      "și": 7782,
      "thya": 7783,
      "inqu": 7784,
      "reproach": 7785,
      "revenge": 7786,
      "enched": 7787,
      "heels": 7788,
      "rada": 7789,
      "stakes": 7790,
      "ller": 7791,
      "limits": 7792,
      "shri": 7793,
      "entit": 7794,
      "usions": 7795,
      "consort": 7796,
      "abounded": 7797,
      "owning": 7798,
      "disunion": 7799,
      "vede": 7800,
      "pressing": 7801,
      "mounting": 7802,
      "Asita": 7803,
      "elated": 7804,
      "merch": 7805,
      "vanished": 7806,
      "atriyas": 7807,
      "surve": 7808,
      "contents": 7809,
      "career": 7810,
      "belonged": 7811,
      "circling": 7812,
      "hermitages": 7813,
      "tails": 7814,
      "Vaishravana": 7815,
      "refused": 7816,
      "reflect": 7817,
      "establish": 7818,
      "benevol": 7819,
      "Akampana": 7820,
      "barks": 7821,
      "tranquility": 7822,
      "impetuous": 7823,
      "austerest": 7824,
      "flowery": 7825,
      "Guhy": 7826,
      "untala": 7827,
      "neglect": 7828,
      "devotee": 7829,
      "mendican": 7830,
      "vapour": 7831,
      "thirteenth": 7832,
      "venomous": 7833,
      "illumin": 7834,
      "luminous": 7835,
      "Command": 7836,
      "Penances": 7837,
      "progeny": 7838,
      "jealousy": 7839,
      "wolves": 7840,
      "custom": 7841,
      "cousins": 7842,
      "discomfit": 7843,
      "degraded": 7844,
      "absolute": 7845,
      "unbearable": 7846,
      "prodigious": 7847,
      "Mārīca": 7848,
      "Athar": 7849,
      "Bhadra": 7850,
      "Pl": 7851,
      "Sc": 7852,
      "Sth": 7853,
      "Sain": 7854,
      "Various": 7855,
      "bam": 7856,
      "cav": 7857,
      "hna": 7858,
      "pace": 7859,
      "philosophy": 7860,
      "thc": 7861,
      "arro": 7862,
      "heated": 7863,
      "selected": 7864,
      "owe": 7865,
      "withstanding": 7866,
      "iture": 7867,
      "level": 7868,
      "hily": 7869,
      "raise": 7870,
      "omnis": 7871,
      "shati": 7872,
      "shena": 7873,
      "unuch": 7874,
      "motives": 7875,
      "abiding": 7876,
      "aprastha": 7877,
      "peril": 7878,
      "percep": 7879,
      "suited": 7880,
      "attra": 7881,
      "ruth": 7882,
      "tear": 7883,
      "harman": 7884,
      "carni": 7885,
      "disappears": 7886,
      "earrings": 7887,
      "nephe": 7888,
      "regul": 7889,
      "okes": 7890,
      "cane": 7891,
      "begun": 7892,
      "understands": 7893,
      "sinking": 7894,
      "athas": 7895,
      "joining": 7896,
      "Assa": 7897,
      "praising": 7898,
      "devast": 7899,
      "consent": 7900,
      "ishable": 7901,
      "Parsh": 7902,
      "visaged": 7903,
      "observes": 7904,
      "reput": 7905,
      "extinct": 7906,
      "strive": 7907,
      "sperity": 7908,
      "conduci": 7909,
      "wooden": 7910,
      "blessing": 7911,
      "confused": 7912,
      "respectful": 7913,
      "hurt": 7914,
      "āntaka": 7915,
      "agreeably": 7916,
      "productive": 7917,
      "yoke": 7918,
      "granting": 7919,
      "aimed": 7920,
      "nobody": 7921,
      "newly": 7922,
      "committing": 7923,
      "trick": 7924,
      "stainless": 7925,
      "tempered": 7926,
      "shortcomings": 7927,
      "cheerfulness": 7928,
      "sported": 7929,
      "naturally": 7930,
      "Sankhyas": 7931,
      "Nikumb": 7932,
      "superb": 7933,
      "corners": 7934,
      "Puro": 7935,
      "vaku": 7936,
      "revive": 7937,
      "contains": 7938,
      "incurs": 7939,
      "strokes": 7940,
      "Punishment": 7941,
      "imprecated": 7942,
      "bosom": 7943,
      "alligators": 7944,
      "Dvivida": 7945,
      "propriety": 7946,
      "Jajali": 7947,
      "10": 7948,
      "Put": 7949,
      "Pund": 7950,
      "Sala": 7951,
      "Ushin": 7952,
      "biting": 7953,
      "eunuch": 7954,
      "gava": 7955,
      "nala": 7956,
      "sce": 7957,
      "test": 7958,
      "uals": 7959,
      "ăn": 7960,
      "ṣmaṇ": 7961,
      "inous": 7962,
      "reality": 7963,
      "ofs": 7964,
      "andra": 7965,
      "arti": 7966,
      "celib": 7967,
      "raja": 7968,
      "rive": 7969,
      "shya": 7970,
      "forbear": 7971,
      "verily": 7972,
      "enty": 7973,
      "weigh": 7974,
      "mankind": 7975,
      "conches": 7976,
      "fulfil": 7977,
      "procured": 7978,
      "hasten": 7979,
      "dissu": 7980,
      "disgrace": 7981,
      "size": 7982,
      "vigi": 7983,
      "fath": 7984,
      "duti": 7985,
      "coins": 7986,
      "covers": 7987,
      "ppings": 7988,
      "tawny": 7989,
      "Arund": 7990,
      "parro": 7991,
      "trappings": 7992,
      "Vamadeva": 7993,
      "subdue": 7994,
      "strug": 7995,
      "emiss": 7996,
      "beautifully": 7997,
      "fields": 7998,
      "Lakṣmaṇ": 7999,
      "clouded": 8000,
      "invol": 8001,
      "bahu": 8002,
      "infested": 8003,
      "painted": 8004,
      "conditions": 8005,
      "Myself": 8006,
      "Yaksas": 8007,
      "laws": 8008,
      "transported": 8009,
      "edibles": 8010,
      "chosen": 8011,
      "Shaunaka": 8012,
      "delicate": 8013,
      "Prosperity": 8014,
      "washing": 8015,
      "Accompanied": 8016,
      "cultiv": 8017,
      "sources": 8018,
      "rejoice": 8019,
      "planet": 8020,
      "Magadhas": 8021,
      "danced": 8022,
      "reflection": 8023,
      "Chandra": 8024,
      "adversity": 8025,
      "blissful": 8026,
      "illusive": 8027,
      "important": 8028,
      "challenge": 8029,
      "chanting": 8030,
      "Ashtaka": 8031,
      "idiary": 8032,
      "rumbling": 8033,
      "evident": 8034,
      "calculated": 8035,
      "stirring": 8036,
      "Achyuta": 8037,
      "Surabhi": 8038,
      "private": 8039,
      "provided": 8040,
      "bambo": 8041,
      "conducive": 8042,
      "Lakṣmaṇa": 8043,
      "Born": 8044,
      "Dwar": 8045,
      "Dän": 8046,
      "Gom": 8047,
      "Svaha": 8048,
      "Yet": 8049,
      "aided": 8050,
      "dag": 8051,
      "dung": 8052,
      "fountain": 8053,
      "gest": 8054,
      "oath": 8055,
      "vorous": 8056,
      "्य": 8057,
      "inations": 8058,
      "inflict": 8059,
      "reya": 8060,
      "edged": 8061,
      "ense": 8062,
      "toler": 8063,
      "seve": 8064,
      "storm": 8065,
      "adari": 8066,
      "roving": 8067,
      "roaming": 8068,
      "resour": 8069,
      "avat": 8070,
      "motions": 8071,
      "external": 8072,
      "goism": 8073,
      "therein": 8074,
      "caring": 8075,
      "discer": 8076,
      "vic": 8077,
      "eting": 8078,
      "caver": 8079,
      "effort": 8080,
      "ritual": 8081,
      "hannala": 8082,
      "overtake": 8083,
      "flour": 8084,
      "ashringa": 8085,
      "Shall": 8086,
      "Indraprastha": 8087,
      "fights": 8088,
      "emb": 8089,
      "laden": 8090,
      "kşa": 8091,
      "terribly": 8092,
      "checking": 8093,
      "famy": 8094,
      "careless": 8095,
      "sweetly": 8096,
      "gracious": 8097,
      "habitation": 8098,
      "refuse": 8099,
      "silk": 8100,
      "assailing": 8101,
      "lamp": 8102,
      "Brihannala": 8103,
      "intermediate": 8104,
      "agitating": 8105,
      "treatment": 8106,
      "seizing": 8107,
      "Maruta": 8108,
      "countenances": 8109,
      "Apsar": 8110,
      "Apsara": 8111,
      "hesitation": 8112,
      "violent": 8113,
      "violently": 8114,
      "Saubha": 8115,
      "Shrutay": 8116,
      "Brahmacharin": 8117,
      "Kamyaka": 8118,
      "censu": 8119,
      "Sudakshina": 8120,
      "Yajnas": 8121,
      "Nishadas": 8122,
      "preserve": 8123,
      "crem": 8124,
      "sufferings": 8125,
      "garment": 8126,
      "subsidiary": 8127,
      "derive": 8128,
      "Brihadashva": 8129,
      "Vrishaparva": 8130,
      "polished": 8131,
      "endeavours": 8132,
      "pilgri": 8133,
      "greeted": 8134,
      "wreaths": 8135,
      "Agnishtoma": 8136,
      "redoubtable": 8137,
      "wholesome": 8138,
      "entitled": 8139,
      "vedevas": 8140,
      "fathom": 8141,
      "Day": 8142,
      "Fir": 8143,
      "Light": 8144,
      "Mon": 8145,
      "Mrity": 8146,
      "Night": 8147,
      "OW": 8148,
      "Sand": 8149,
      "Sadd": 8150,
      "Vä": 8151,
      "cli": 8152,
      "dashed": 8153,
      "hinis": 8154,
      "opar": 8155,
      "winter": 8156,
      "yonder": 8157,
      "infamy": 8158,
      "ange": 8159,
      "anchor": 8160,
      "ashi": 8161,
      "tot": 8162,
      "deal": 8163,
      "unclean": 8164,
      "acles": 8165,
      "idle": 8166,
      "idents": 8167,
      "identi": 8168,
      "magni": 8169,
      "manners": 8170,
      "api": 8171,
      "plate": 8172,
      "ckly": 8173,
      "vipa": 8174,
      "loc": 8175,
      "umber": 8176,
      "boars": 8177,
      "special": 8178,
      "tenance": 8179,
      "vashi": 8180,
      "steep": 8181,
      "minist": 8182,
      "avail": 8183,
      "extend": 8184,
      "cleans": 8185,
      "deprive": 8186,
      "Said": 8187,
      "Raja": 8188,
      "curious": 8189,
      "decided": 8190,
      "acceptable": 8191,
      "acceptance": 8192,
      "material": 8193,
      "interval": 8194,
      "fools": 8195,
      "Yakşas": 8196,
      "salute": 8197,
      "firmness": 8198,
      "triple": 8199,
      "finally": 8200,
      "fatal": 8201,
      "stayed": 8202,
      "hump": 8203,
      "fisher": 8204,
      "crime": 8205,
      "continuous": 8206,
      "consoling": 8207,
      "Ayodhya": 8208,
      "Sudhan": 8209,
      "indulging": 8210,
      "enhanced": 8211,
      "situation": 8212,
      "commence": 8213,
      "functions": 8214,
      "concentration": 8215,
      "purify": 8216,
      "contracted": 8217,
      "chanted": 8218,
      "injunction": 8219,
      "release": 8220,
      "pledge": 8221,
      "Kamboja": 8222,
      "pupils": 8223,
      "thronged": 8224,
      "incantations": 8225,
      "pacified": 8226,
      "Iravat": 8227,
      "Prisata": 8228,
      "vigorously": 8229,
      "diamonds": 8230,
      "embry": 8231,
      "Mrityu": 8232,
      "'.": 8233,
      "Cup": 8234,
      "Jān": 8235,
      "Naim": 8236,
      "Pamp": 8237,
      "Riding": 8238,
      "fou": 8239,
      "fts": 8240,
      "fist": 8241,
      "gions": 8242,
      "kot": 8243,
      "lorn": 8244,
      "pon": 8245,
      "pts": 8246,
      "tex": 8247,
      "ui": 8248,
      "wound": 8249,
      "yā": 8250,
      "yal": 8251,
      "recollecting": 8252,
      "arbha": 8253,
      "alo": 8254,
      "withdrawing": 8255,
      "beard": 8256,
      "hook": 8257,
      "vera": 8258,
      "entities": 8259,
      "entrance": 8260,
      "wet": 8261,
      "ketu": 8262,
      "urge": 8263,
      "resound": 8264,
      "resounded": 8265,
      "akav": 8266,
      "waste": 8267,
      "migh": 8268,
      "hastily": 8269,
      "blan": 8270,
      "deshna": 8271,
      "viands": 8272,
      "early": 8273,
      "undu": 8274,
      "slough": 8275,
      "neath": 8276,
      "pron": 8277,
      "tical": 8278,
      "brook": 8279,
      "offers": 8280,
      "Rising": 8281,
      "spite": 8282,
      "appeas": 8283,
      "returns": 8284,
      "Shakuntala": 8285,
      "wickedness": 8286,
      "striving": 8287,
      "South": 8288,
      "Southern": 8289,
      "cymb": 8290,
      "coward": 8291,
      "dedicated": 8292,
      "renounces": 8293,
      "grains": 8294,
      "spirited": 8295,
      "roman": 8296,
      "reasonable": 8297,
      "eater": 8298,
      "termination": 8299,
      "liberality": 8300,
      "applied": 8301,
      "Kumbha": 8302,
      "Brahmă": 8303,
      "catching": 8304,
      "praiseworthy": 8305,
      "propitious": 8306,
      "Accept": 8307,
      "avoiding": 8308,
      "crag": 8309,
      "ashamed": 8310,
      "healthy": 8311,
      "subsisting": 8312,
      "based": 8313,
      "Vinda": 8314,
      "occurred": 8315,
      "Pleased": 8316,
      "Nandana": 8317,
      "bracelets": 8318,
      "medicine": 8319,
      "limited": 8320,
      "melodious": 8321,
      "Kumara": 8322,
      "information": 8323,
      "labour": 8324,
      "attentively": 8325,
      "astonished": 8326,
      "Kadru": 8327,
      "Rșis": 8328,
      "Kshetrajna": 8329,
      "trumpets": 8330,
      "dictates": 8331,
      "persecuted": 8332,
      "soothing": 8333,
      "Bibhatsu": 8334,
      "alliance": 8335,
      "Aniruddha": 8336,
      "Ushinara": 8337,
      "severest": 8338,
      "cymbals": 8339,
      "Finding": 8340,
      "Present": 8341,
      "Son": 8342,
      "Trita": 8343,
      "bot": 8344,
      "bonds": 8345,
      "cod": 8346,
      "crest": 8347,
      "dain": 8348,
      "ether": 8349,
      "fists": 8350,
      "gum": 8351,
      "grain": 8352,
      "iha": 8353,
      "mature": 8354,
      "mates": 8355,
      "sits": 8356,
      "tis": 8357,
      "vated": 8358,
      "xes": 8359,
      "required": 8360,
      "tom": 8361,
      "celer": 8362,
      "start": 8363,
      "rium": 8364,
      "dejected": 8365,
      "lilies": 8366,
      "fores": 8367,
      "usage": 8368,
      "uparna": 8369,
      "commission": 8370,
      "perfe": 8371,
      "perhaps": 8372,
      "proportion": 8373,
      "disgu": 8374,
      "victi": 8375,
      "battlefield": 8376,
      "mony": 8377,
      "destined": 8378,
      "welled": 8379,
      "killer": 8380,
      "undergoing": 8381,
      "underneath": 8382,
      "jewelled": 8383,
      "trade": 8384,
      "join": 8385,
      "joint": 8386,
      "Suka": 8387,
      "Sushena": 8388,
      "reads": 8389,
      "fearfully": 8390,
      "gait": 8391,
      "version": 8392,
      "flies": 8393,
      "steal": 8394,
      "wealthy": 8395,
      "worships": 8396,
      "afflictions": 8397,
      "oneself": 8398,
      "Sīt": 8399,
      "invite": 8400,
      ",-'": 8401,
      "patiently": 8402,
      "youngest": 8403,
      "Shibi": 8404,
      "Varan": 8405,
      "studying": 8406,
      "profusion": 8407,
      "chastisers": 8408,
      "spotless": 8409,
      "circles": 8410,
      "More": 8411,
      "cherishing": 8412,
      "Kaikeyī": 8413,
      "assured": 8414,
      "governing": 8415,
      "smelt": 8416,
      "Kaushika": 8417,
      "repress": 8418,
      "Chitrang": 8419,
      "Yadus": 8420,
      "Northern": 8421,
      "conclusions": 8422,
      "reverentially": 8423,
      "parent": 8424,
      "froth": 8425,
      "Richika": 8426,
      "fettered": 8427,
      "gratifying": 8428,
      "floating": 8429,
      "employ": 8430,
      "teaching": 8431,
      "impartially": 8432,
      "surprised": 8433,
      "Kanva": 8434,
      "rivalled": 8435,
      "Anuvinda": 8436,
      "meteors": 8437,
      "agriculture": 8438,
      "Samvarta": 8439,
      "Divine": 8440,
      "Sanatkum": 8441,
      "incarnate": 8442,
      "vehemently": 8443,
      "Proceeding": 8444,
      "Haiha": 8445,
      "pools": 8446,
      "Jāmb": 8447,
      "encampment": 8448,
      "Lokap": 8449,
      "ayamvara": 8450,
      "merchants": 8451,
      "carnivorous": 8452,
      "Act": 8453,
      "Burning": 8454,
      "Either": 8455,
      "Fear": 8456,
      "Fight": 8457,
      "Narm": 8458,
      "Pā": 8459,
      "Suras": 8460,
      "Siva": 8461,
      "Ura": 8462,
      "Vat": 8463,
      "Wors": 8464,
      "Wel": 8465,
      "Wounded": 8466,
      "bend": 8467,
      "binding": 8468,
      "dower": 8469,
      "fth": 8470,
      "jest": 8471,
      "kus": 8472,
      "kers": 8473,
      "lī": 8474,
      "ton": 8475,
      "tar": 8476,
      "zes": 8477,
      "ths": 8478,
      "infall": 8479,
      "rec": 8480,
      "attire": 8481,
      "encing": 8482,
      "arises": 8483,
      "withstood": 8484,
      "hir": 8485,
      "raka": 8486,
      "dealt": 8487,
      "deceased": 8488,
      "forget": 8489,
      "unas": 8490,
      "iden": 8491,
      "song": 8492,
      "conjun": 8493,
      "persever": 8494,
      "excre": 8495,
      "ruined": 8496,
      "goose": 8497,
      "individ": 8498,
      "plump": 8499,
      "thereto": 8500,
      "Rāmā": 8501,
      "givers": 8502,
      "igned": 8503,
      "council": 8504,
      "tracts": 8505,
      "captiv": 8506,
      "subsequ": 8507,
      "Does": 8508,
      "laze": 8509,
      "waits": 8510,
      "restless": 8511,
      "burnished": 8512,
      "Within": 8513,
      "settle": 8514,
      "rines": 8515,
      "pointing": 8516,
      "Pann": 8517,
      "puts": 8518,
      "Vishvedevas": 8519,
      "maintenance": 8520,
      "Save": 8521,
      "bravery": 8522,
      "conversing": 8523,
      "blessedness": 8524,
      "incidents": 8525,
      "crocod": 8526,
      "twain": 8527,
      "instance": 8528,
      "Adorned": 8529,
      "About": 8530,
      "hardly": 8531,
      "stringed": 8532,
      "equals": 8533,
      "applic": 8534,
      "libation": 8535,
      "wanted": 8536,
      "twelfth": 8537,
      "talked": 8538,
      "smite": 8539,
      "prepare": 8540,
      "situate": 8541,
      "trusted": 8542,
      "cherishes": 8543,
      "Kashis": 8544,
      "sticks": 8545,
      "contained": 8546,
      "worsted": 8547,
      "Paul": 8548,
      "bludgeon": 8549,
      "pervading": 8550,
      "shields": 8551,
      "Observing": 8552,
      "Akshauhinis": 8553,
      "Prativindhya": 8554,
      "obliged": 8555,
      "Marichi": 8556,
      "resorting": 8557,
      "Prince": 8558,
      "keeper": 8559,
      "profession": 8560,
      "proficient": 8561,
      "Considering": 8562,
      "Rishyashringa": 8563,
      "excellence": 8564,
      "Guhyakas": 8565,
      "hilyas": 8566,
      "Purochana": 8567,
      "Arundhati": 8568,
      "vicinity": 8569,
      "Saddhyas": 8570,
      "steeped": 8571,
      "Varanavata": 8572,
      "Chitrangada": 8573,
      "Hu": 8574,
      "Jalas": 8575,
      "Learning": 8576,
      "Nārā": 8577,
      "Qui": 8578,
      "Sm": 8579,
      "crested": 8580,
      "dou": 8581,
      "dying": 8582,
      "etern": 8583,
      "ji": 8584,
      "kuta": 8585,
      "ph": 8586,
      "pred": 8587,
      "āla": 8588,
      "reference": 8589,
      "atti": 8590,
      "isant": 8591,
      "edge": 8592,
      "ensive": 8593,
      "asks": 8594,
      "leaf": 8595,
      "stories": 8596,
      "defi": 8597,
      "vell": 8598,
      "forlorn": 8599,
      "adh": 8600,
      "unrivalled": 8601,
      "rode": 8602,
      "rock": 8603,
      "entrust": 8604,
      "term": 8605,
      "consumes": 8606,
      "worms": 8607,
      "aga": 8608,
      "endure": 8609,
      "owner": 8610,
      "ownself": 8611,
      "warm": 8612,
      "thereon": 8613,
      "carries": 8614,
      "distinguish": 8615,
      "umes": 8616,
      "iments": 8617,
      "colly": 8618,
      "cooks": 8619,
      "astes": 8620,
      "inevit": 8621,
      "Three": 8622,
      "partake": 8623,
      "paraly": 8624,
      "lights": 8625,
      "Began": 8626,
      "variety": 8627,
      "Vaid": 8628,
      "merci": 8629,
      "qualifications": 8630,
      "scrup": 8631,
      "skil": 8632,
      "minute": 8633,
      "surcharged": 8634,
      "ceiving": 8635,
      "strict": 8636,
      "olden": 8637,
      "casts": 8638,
      "blade": 8639,
      "speeched": 8640,
      "bade": 8641,
      "Prak": 8642,
      "injuries": 8643,
      "glances": 8644,
      "eastern": 8645,
      "dawn": 8646,
      "Yugas": 8647,
      "runs": 8648,
      "combination": 8649,
      "maids": 8650,
      "relative": 8651,
      "resolute": 8652,
      "explo": 8653,
      "Mandhatri": 8654,
      "behaves": 8655,
      "stalk": 8656,
      "Rich": 8657,
      "Kumbhakarma": 8658,
      "physicians": 8659,
      "obeyed": 8660,
      "twinkling": 8661,
      "beaten": 8662,
      "finger": 8663,
      "association": 8664,
      "rumble": 8665,
      "sixteenth": 8666,
      "widow": 8667,
      "Mlech": 8668,
      "Vaisravana": 8669,
      "Killing": 8670,
      "ghosts": 8671,
      "knees": 8672,
      "Ikshvaku": 8673,
      "ugly": 8674,
      "avirya": 8675,
      "nephew": 8676,
      "Dänavas": 8677,
      "celerity": 8678,
      "Jalasandha": 8679,
      "collyrium": 8680,
      "',": 8681,
      ",)": 8682,
      "Baka": 8683,
      "Ce": 8684,
      "Fu": 8685,
      "Ila": 8686,
      "Med": 8687,
      "Pray": 8688,
      "Ser": 8689,
      "Sap": 8690,
      "Snake": 8691,
      "Space": 8692,
      "Yatis": 8693,
      "ail": 8694,
      "cn": 8695,
      "laughter": 8696,
      "țis": 8697,
      "threat": 8698,
      "thwar": 8699,
      "inen": 8700,
      "representing": 8701,
      "isite": 8702,
      "enlight": 8703,
      "encircling": 8704,
      "orrow": 8705,
      "itary": 8706,
      "mely": 8707,
      "ablaze": 8708,
      "attitude": 8709,
      "miles": 8710,
      "naught": 8711,
      "pover": 8712,
      "selfcontrolled": 8713,
      "affright": 8714,
      "failing": 8715,
      "Pandya": 8716,
      "usts": 8717,
      "ject": 8718,
      "paralle": 8719,
      "excellently": 8720,
      "mistake": 8721,
      "childhood": 8722,
      "ficant": 8723,
      "jape": 8724,
      "certainty": 8725,
      "wrathfully": 8726,
      "Yojana": 8727,
      "Ashvinis": 8728,
      "receives": 8729,
      "ministering": 8730,
      "chap": 8731,
      "Janarddana": 8732,
      "Creatures": 8733,
      "corps": 8734,
      "Exer": 8735,
      "Brahmars": 8736,
      "mildness": 8737,
      "particularly": 8738,
      "censura": 8739,
      "Nivat": 8740,
      "Disregarding": 8741,
      "obstructing": 8742,
      "Mithilā": 8743,
      "whirl": 8744,
      "dares": 8745,
      "exterminated": 8746,
      "eminently": 8747,
      "revived": 8748,
      "solemn": 8749,
      "Rituparna": 8750,
      "plantain": 8751,
      "uprooting": 8752,
      "previously": 8753,
      "akarma": 8754,
      "significant": 8755,
      "initiation": 8756,
      "deviate": 8757,
      "Protected": 8758,
      "permitted": 8759,
      "Sakti": 8760,
      "decrease": 8761,
      "Elephants": 8762,
      "Sutasoma": 8763,
      "dirt": 8764,
      "Vidharbhas": 8765,
      "pyre": 8766,
      "Prithu": 8767,
      "celibacy": 8768,
      "Pampā": 8769,
      "romantic": 8770,
      "Uragas": 8771,
      "infallible": 8772,
      "Air": 8773,
      "Ado": 8774,
      "Bowing": 8775,
      "Did": 8776,
      "Ether": 8777,
      "Past": 8778,
      "Pash": 8779,
      "Pras": 8780,
      "Rep": 8781,
      "Slaying": 8782,
      "band": 8783,
      "bough": 8784,
      "bounding": 8785,
      "founded": 8786,
      "hs": 8787,
      "hours": 8788,
      "mate": 8789,
      "nga": 8790,
      "ron": 8791,
      "tastes": 8792,
      "ually": 8793,
      "yokes": 8794,
      "recovered": 8795,
      "rebirth": 8796,
      "atru": 8797,
      "enqui": 8798,
      "arins": 8799,
      "aled": 8800,
      "tore": 8801,
      "towing": 8802,
      "select": 8803,
      "itated": 8804,
      "begets": 8805,
      "stree": 8806,
      "hisha": 8807,
      "histor": 8808,
      "chance": 8809,
      "churning": 8810,
      "unless": 8811,
      "unborn": 8812,
      "unwilling": 8813,
      "across": 8814,
      "kingly": 8815,
      "mant": 8816,
      "confron": 8817,
      "frust": 8818,
      "akratu": 8819,
      "perishable": 8820,
      "quest": 8821,
      "doct": 8822,
      "goat": 8823,
      "goad": 8824,
      "desisted": 8825,
      "tuous": 8826,
      "hishana": 8827,
      "Pandus": 8828,
      "woke": 8829,
      "overwhel": 8830,
      "elevated": 8831,
      "ics": 8832,
      "Ascending": 8833,
      "Shorn": 8834,
      "Shree": 8835,
      "fried": 8836,
      "capacity": 8837,
      "threefold": 8838,
      "throughout": 8839,
      "stealing": 8840,
      "waisted": 8841,
      "cycles": 8842,
      "buck": 8843,
      "Ananta": 8844,
      "dwells": 8845,
      "dwellings": 8846,
      "oses": 8847,
      "choose": 8848,
      "Shaivya": 8849,
      "gateways": 8850,
      "dissol": 8851,
      "smiters": 8852,
      "perpetually": 8853,
      "smiled": 8854,
      "baffling": 8855,
      "abstains": 8856,
      "syll": 8857,
      "Räkşasa": 8858,
      "cognisant": 8859,
      "dreams": 8860,
      "neglecting": 8861,
      "Maharsis": 8862,
      "Valhika": 8863,
      "Malaya": 8864,
      "supplied": 8865,
      "dispute": 8866,
      "Yavak": 8867,
      "kettle": 8868,
      "dishonest": 8869,
      "radiance": 8870,
      "exclam": 8871,
      "Stricken": 8872,
      "Vrishad": 8873,
      "lonely": 8874,
      "Nikumbha": 8875,
      "Apsarās": 8876,
      "locusts": 8877,
      "embryo": 8878,
      "foresight": 8879,
      "streets": 8880,
      ":-\"": 8881,
      "Bandi": 8882,
      "Future": 8883,
      "Gadhi": 8884,
      "Ram": 8885,
      "Vena": 8886,
      "bread": 8887,
      "dwar": 8888,
      "dings": 8889,
      "iles": 8890,
      "mned": 8891,
      "nay": 8892,
      "uct": 8893,
      "āsa": 8894,
      "āyu": 8895,
      "ņi": 8896,
      "şana": 8897,
      "asser": 8898,
      "leopar": 8899,
      "raft": 8900,
      "rags": 8901,
      "raiment": 8902,
      "tiles": 8903,
      "hooks": 8904,
      "deformed": 8905,
      "uniting": 8906,
      "ultim": 8907,
      "manas": 8908,
      "myra": 8909,
      "working": 8910,
      "motive": 8911,
      "ishes": 8912,
      "tearing": 8913,
      "indas": 8914,
      "blamed": 8915,
      "desp": 8916,
      "impet": 8917,
      "coll": 8918,
      "cook": 8919,
      "bold": 8920,
      "Bhargava": 8921,
      "tage": 8922,
      "futile": 8923,
      "excelled": 8924,
      "grieves": 8925,
      "Dhund": 8926,
      "sheer": 8927,
      "sheet": 8928,
      "meditating": 8929,
      "Vira": 8930,
      "steel": 8931,
      "reluct": 8932,
      "ighty": 8933,
      "conduce": 8934,
      "religions": 8935,
      "vilest": 8936,
      "itudes": 8937,
      "cowards": 8938,
      "rooted": 8939,
      "favours": 8940,
      "Anger": 8941,
      "ministered": 8942,
      "Abst": 8943,
      "meanwhile": 8944,
      "Vibhishana": 8945,
      "mastery": 8946,
      "matori": 8947,
      "springing": 8948,
      "generation": 8949,
      "liberate": 8950,
      "Kuvera": 8951,
      "supports": 8952,
      "counsellor": 8953,
      "robber": 8954,
      "continuously": 8955,
      "equipt": 8956,
      "smaller": 8957,
      "busy": 8958,
      "indulged": 8959,
      "faculties": 8960,
      "fero": 8961,
      "flowering": 8962,
      "panak": 8963,
      "crematori": 8964,
      "base": 8965,
      "primeval": 8966,
      "deterioration": 8967,
      "multiply": 8968,
      "Malavas": 8969,
      "rending": 8970,
      "Jaț": 8971,
      "subjugating": 8972,
      "expectation": 8973,
      "oblig": 8974,
      "Arriving": 8975,
      "advised": 8976,
      "progenit": 8977,
      "message": 8978,
      "eulogised": 8979,
      "officiate": 8980,
      "drowned": 8981,
      "opponents": 8982,
      "management": 8983,
      "challenging": 8984,
      "Namuchi": 8985,
      "cannibal": 8986,
      "benevolence": 8987,
      "forbearance": 8988,
      "bamboo": 8989,
      "resources": 8990,
      "censured": 8991,
      "censurable": 8992,
      "impetus": 8993,
      "Gay": 8994,
      "Hundred": 8995,
      "Kavi": 8996,
      "Nā": 8997,
      "Pal": 8998,
      "Slay": 8999,
      "Til": 9000,
      "Taraka": 9001,
      "aerial": 9002,
      "ek": 9003,
      "ech": 9004,
      "hatt": 9005,
      "ili": 9006,
      "piti": 9007,
      "senti": 9008,
      "tach": 9009,
      "vest": 9010,
      "isans": 9011,
      "enab": 9012,
      "envir": 9013,
      "oring": 9014,
      "owl": 9015,
      "sten": 9016,
      "strange": 9017,
      "ghas": 9018,
      "churn": 9019,
      "shasana": 9020,
      "uneven": 9021,
      "rolled": 9022,
      "oted": 9023,
      "ulas": 9024,
      "amas": 9025,
      "appr": 9026,
      "peror": 9027,
      "perverse": 9028,
      "existed": 9029,
      "whither": 9030,
      "warded": 9031,
      "ounced": 9032,
      "carless": 9033,
      "aried": 9034,
      "imm": 9035,
      "impur": 9036,
      "viras": 9037,
      "sinner": 9038,
      "presided": 9039,
      "ashtri": 9040,
      "gazed": 9041,
      "descent": 9042,
      "archers": 9043,
      "archery": 9044,
      "Vajape": 9045,
      "wisher": 9046,
      "mini": 9047,
      "erious": 9048,
      "store": 9049,
      "sorrowfully": 9050,
      "Alayudha": 9051,
      "Prabhas": 9052,
      "Raj": 9053,
      "horri": 9054,
      "injures": 9055,
      "arrive": 9056,
      "gling": 9057,
      "Bhall": 9058,
      "instrumental": 9059,
      "freeing": 9060,
      "freely": 9061,
      "Aband": 9062,
      "laments": 9063,
      "combined": 9064,
      "subduing": 9065,
      "khandi": 9066,
      "Rävaņa": 9067,
      "seize": 9068,
      "Shami": 9069,
      "imag": 9070,
      "image": 9071,
      "outside": 9072,
      "foolishness": 9073,
      "marching": 9074,
      "oblation": 9075,
      "North": 9076,
      "Looking": 9077,
      "Saud": 9078,
      "lineage": 9079,
      "neckl": 9080,
      "sym": 9081,
      "Stand": 9082,
      "Kiratas": 9083,
      "breathed": 9084,
      "leaped": 9085,
      "conveyed": 9086,
      "secretly": 9087,
      "ravished": 9088,
      "perfumed": 9089,
      "undaunted": 9090,
      "Brihadbala": 9091,
      "hitting": 9092,
      "pervaded": 9093,
      "transcends": 9094,
      "luminaries": 9095,
      "expected": 9096,
      "Kekaya": 9097,
      "tumult": 9098,
      "feeble": 9099,
      "Svayamvara": 9100,
      "neighb": 9101,
      "Kosalas": 9102,
      "Sitā": 9103,
      "alighted": 9104,
      "receptacle": 9105,
      "gathering": 9106,
      "Daśaratha": 9107,
      "Pratard": 9108,
      "Following": 9109,
      "Universe": 9110,
      "Worked": 9111,
      "events": 9112,
      "envoys": 9113,
      "repulsed": 9114,
      "Puspaka": 9115,
      "vigil": 9116,
      "magnificent": 9117,
      "Naimisha": 9118,
      "blankets": 9119,
      "Moreover": 9120,
      "identical": 9121,
      "Pannagas": 9122,
      "inevitable": 9123,
      "Celesti": 9124,
      "Abstention": 9125,
      "!”": 9126,
      "Ga": 9127,
      "Nī": 9128,
      "Power": 9129,
      "Setting": 9130,
      "Tama": 9131,
      "blies": 9132,
      "cated": 9133,
      "chose": 9134,
      "eks": 9135,
      "gance": 9136,
      "kș": 9137,
      "lst": 9138,
      "muttering": 9139,
      "ocks": 9140,
      "pse": 9141,
      "rates": 9142,
      "tent": 9143,
      "vala": 9144,
      "thrice": 9145,
      "inent": 9146,
      "inactive": 9147,
      "rebu": 9148,
      "encou": 9149,
      "argum": 9150,
      "heaving": 9151,
      "racked": 9152,
      "yous": 9153,
      "stature": 9154,
      "tidings": 9155,
      "iry": 9156,
      "forgot": 9157,
      "uncertain": 9158,
      "unmoved": 9159,
      "uncles": 9160,
      "wearied": 9161,
      "filaments": 9162,
      "feared": 9163,
      "amour": 9164,
      "aksa": 9165,
      "abstra": 9166,
      "agent": 9167,
      "harata": 9168,
      "poreal": 9169,
      "plates": 9170,
      "ifest": 9171,
      "lore": 9172,
      "arika": 9173,
      "slap": 9174,
      "igisha": 9175,
      "holders": 9176,
      "flows": 9177,
      "offend": 9178,
      "serves": 9179,
      "travel": 9180,
      "joyous": 9181,
      "Suk": 9182,
      "Kart": 9183,
      "lifeless": 9184,
      "primal": 9185,
      "joys": 9186,
      "chargers": 9187,
      "Make": 9188,
      "childish": 9189,
      "honors": 9190,
      "marvell": 9191,
      "jaws": 9192,
      "bestowing": 9193,
      "speaker": 9194,
      "cases": 9195,
      "conquest": 9196,
      "Draupada": 9197,
      "crowd": 9198,
      "glance": 9199,
      "Anga": 9200,
      "doubtful": 9201,
      "Vyu": 9202,
      "desert": 9203,
      "affectionately": 9204,
      "generations": 9205,
      "luster": 9206,
      "lustrous": 9207,
      "Methinks": 9208,
      "eighty": 9209,
      "assemblies": 9210,
      "treats": 9211,
      "distressful": 9212,
      "characterised": 9213,
      "penetrate": 9214,
      "yielding": 9215,
      "coveted": 9216,
      "falsely": 9217,
      "Vishvavasu": 9218,
      "benefiting": 9219,
      "courageous": 9220,
      "generalissimo": 9221,
      "preserved": 9222,
      "safely": 9223,
      "especial": 9224,
      "fluid": 9225,
      "gambl": 9226,
      "subsist": 9227,
      "contract": 9228,
      "spectacle": 9229,
      "Videhas": 9230,
      "quarrels": 9231,
      "autumn": 9232,
      "express": 9233,
      "transcend": 9234,
      "Jaigisha": 9235,
      "initiated": 9236,
      "scimitar": 9237,
      "meteor": 9238,
      "leathern": 9239,
      "uterine": 9240,
      "efficacy": 9241,
      "dissension": 9242,
      "Ritvijas": 9243,
      "absorbed": 9244,
      "fickle": 9245,
      "Mahabharata": 9246,
      "introduced": 9247,
      "Witnessing": 9248,
      "Assailed": 9249,
      "Yajnaseni": 9250,
      "Prabhasa": 9251,
      "marvellous": 9252,
      "Jaigishavya": 9253,
      "Gada": 9254,
      "Hot": 9255,
      "Horses": 9256,
      "Khatt": 9257,
      "Owing": 9258,
      "Rise": 9259,
      "Trip": 9260,
      "Ul": 9261,
      "awoke": 9262,
[...]
