{
  "version": "1.0",
  "truncation": null,
  "padding": null,
  "added_tokens": [],
  "normalizer": null,
  "pre_tokenizer": {
    "type": "Whitespace"
  },
  "post_processor": null,
  "decoder": null,
  "model": {
    "type": "BPE",
    "dropout": null,
    "unk_token": null,
    "continuing_subword_prefix": null,
    "end_of_word_suffix": null,
    "fuse_unk": false,
    "vocab": {
      "!": 0,
      "\"": 1,
      "#": 2,
      "'": 3,
      "(": 4,
      ")": 5,
      "*": 6,
      ",": 7,
      "-": 8,
      ".": 9,
      "/": 10,
      "1": 11,
      "4": 12,
      "7": 13,
      "9": 14,
      ":": 15,
      ";": 16,
      "?": 17,
      "@": 18,
      "H": 19,
      "M": 20,
      "Q": 21,
      "[": 22,
      "\\": 23,
      "]": 24,
      "_": 25,
      "`": 26,
      "a": 27,
      "c": 28,
      "f": 29,
      "h": 30,
      "i": 31,
      "j": 32,
      "l": 33,
      "p": 34,
      "s": 35,
      "u": 36,
      "y": 37,
      "{": 38,
      "¥": 39,
      "«": 40,
      "ā": 41,
      "ँ": 42,
      "ं": 43,
      "ः": 44,
      "अ": 45,
      "आ": 46,
      "इ": 47,
      "ई": 48,
      "उ": 49,
      "ऊ": 50,
      "ऋ": 51,
      "ऎ": 52,
      "ए": 53,
      "ऐ": 54,
      "ऑ": 55,
      "ओ": 56,
      "औ": 57,
      "क": 58,
      "ख": 59,
      "ग": 60,
      "घ": 61,
      "ङ": 62,
      "च": 63,
      "छ": 64,
      "ज": 65,
      "झ": 66,
      "ञ": 67,
      "ट": 68,
      "ठ": 69,
      "ड": 70,
      "ढ": 71,
      "ण": 72,
      "त": 73,
      "थ": 74,
      "द": 75,
      "ध": 76,
      "न": 77,
      "प": 78,
      "फ": 79,
      "ब": 80,
      "भ": 81,
      "म": 82,
      "य": 83,
      "र": 84,
      "ऱ": 85,
      "ल": 86,
      "ळ": 87,
      "व": 88,
      "श": 89,
      "ष": 90,
      "स": 91,
      "ह": 92,
      "़": 93,
      "ऽ": 94,
      "ा": 95,
      "ि": 96,
      "ी": 97,
      "ु": 98,
      "ू": 99,
      "ृ": 100,
      "ॄ": 101,
      "ॅ": 102,
      "ॆ": 103,
      "े": 104,
      "ै": 105,
      "ॉ": 106,
      "ॊ": 107,
      "ो": 108,
      "ौ": 109,
      "्": 110,
      "ॐ": 111,
      "॑": 112,
      "॒": 113,
      "क़": 114,
      "ज़": 115,
      "ड़": 116,
      "ॠ": 117,
      "।": 118,
      "॥": 119,
      "०": 120,
      "१": 121,
      "२": 122,
      "३": 123,
      "४": 124,
      "५": 125,
      "६": 126,
      "७": 127,
      "८": 128,
      "९": 129,
      "–": 130,
      "—": 131,
      "‘": 132,
      "”": 133,
      "•": 134,
      "→": 135,
      "्य": 136,
      "्र": 137,
      "्त": 138,
      "र्": 139,
      "ान": 140,
      "्व": 141,
      "ित": 142,
      "म्": 143,
      "प्र": 144,
      "रा": 145,
      "त्": 146,
      "वि": 147,
      "मा": 148,
      "वा": 149,
      "स्त": 150,
      "ष्": 151,
      "न्": 152,
      "ां": 153,
      "्च": 154,
      "क्": 155,
      "स्य": 156,
      "ते": 157,
      "ति": 158,
      "क्ष": 159,
      "द्": 160,
      "ना": 161,
      "श्च": 162,
      "मह": 163,
      "नि": 164,
      "त्र": 165,
      "पा": 166,
      "न्त": 167,
      "्या": 168,
      "स्": 169,
      "ान्": 170,
      "ता": 171,
      "या": 172,
      "पु": 173,
      "का": 174,
      "र्व": 175,
      "्वा": 176,
      "सं": 177,
      "था": 178,
      "सु": 179,
      "मु": 180,
      "मि": 181,
      "सा": 182,
      "मे": 183,
      "राज": 184,
      "ष्ट": 185,
      "दा": 186,
      "ृत": 187,
      "महा": 188,
      "ेन": 189,
      "द्र": 190,
      "भि": 191,
      "पर": 192,
      "यु": 193,
      "तु": 194,
      "दे": 195,
      "रु": 196,
      "द्ध": 197,
      "सर्व": 198,
      "क्त": 199,
      "श्र": 200,
      "तः": 201,
      "ोऽ": 202,
      "दु": 203,
      "कु": 204,
      "क्र": 205,
      "मन": 206,
      "त्य": 207,
      "भा": 208,
      "र्म": 209,
      "्छ": 210,
      "त्त": 211,
      "वे": 212,
      "यो": 213,
      "वी": 214,
      "ाः": 215,
      "र्य": 216,
      "ब्र": 217,
      "ैः": 218,
      "च्छ": 219,
      "पि": 220,
      "मान": 221,
      "स्व": 222,
      "दि": 223,
      "ैव": 224,
      "वाच": 225,
      "त्व": 226,
      "ज्": 227,
      "ेष": 228,
      "तो": 229,
      "र्त": 230,
      "ण्": 231,
      "भू": 232,
      "प्रा": 233,
      "हि": 234,
      "र्थ": 235,
      "ष्ठ": 236,
      "द्य": 237,
      "व्य": 238,
      "णा": 239,
      "सि": 240,
      "धि": 241,
      "ङ्": 242,
      "र्ष": 243,
      "लो": 244,
      "तं": 245,
      "ण्ड": 246,
      "यं": 247,
      "ज्ञ": 248,
      "रे": 249,
      "सह": 250,
      "नं": 251,
      "चा": 252,
      "रि": 253,
      "दृ": 254,
      "नः": 255,
      "वै": 256,
      "्रा": 257,
      "शा": 258,
      "सम": 259,
      "ानि": 260,
      "कृत": 261,
      "िता": 262,
      "रो": 263,
      "धा": 264,
      "रं": 265,
      "्यं": 266,
      "कृ": 267,
      "भी": 268,
      "्ये": 269,
      "स्थ": 270,
      "र्ण": 271,
      "द्व": 272,
      "ह्": 273,
      "श्व": 274,
      "जा": 275,
      "पुत्र": 276,
      "बल": 277,
      "देव": 278,
      "उवाच": 279,
      "णि": 280,
      "नु": 281,
      "कि": 282,
      "ने": 283,
      "भव": 284,
      "रथ": 285,
      "प्त": 286,
      "गा": 287,
      "ये": 288,
      "ान्त": 289,
      "धर्म": 290,
      "शु": 291,
      "त्वा": 292,
      "यः": 293,
      "ानां": 294,
      "भ्य": 295,
      "शि": 296,
      "रण": 297,
      "न्ति": 298,
      "यथा": 299,
      "हु": 300,
      "न्द्र": 301,
      "के": 302,
      "चि": 303,
      "बा": 304,
      "श्य": 305,
      "रः": 306,
      "पू": 307,
      "ितः": 308,
      "ग्": 309,
      "तां": 310,
      "हा": 311,
      "न्य": 312,
      "ला": 313,
      "ह्म": 314,
      "गु": 315,
      "सम्": 316,
      "प्रति": 317,
      "ष्य": 318,
      "तस्य": 319,
      "मो": 320,
      "ङ्ग": 321,
      "स्त्र": 322,
      "ती": 323,
      "वं": 324,
      "नी": 325,
      "समा": 326,
      "स्तु": 327,
      "पाण्ड": 328,
      "वृ": 329,
      "दं": 330,
      "मित": 331,
      "तथा": 332,
      "दी": 333,
      "शो": 334,
      "परि": 335,
      "से": 336,
      "र्ज": 337,
      "ाना": 338,
      "ग्र": 339,
      "ेषु": 340,
      "प्य": 341,
      "ुद्ध": 342,
      "हं": 343,
      "दृष्ट": 344,
      "णां": 345,
      "पृ": 346,
      "ल्": 347,
      "ैर्": 348,
      "भिः": 349,
      "म्य": 350,
      "री": 351,
      "मं": 352,
      "रत": 353,
      "रू": 354,
      "न्न": 355,
      "प्": 356,
      "लोक": 357,
      "ञ्च": 358,
      "स्या": 359,
      "व्या": 360,
      "लं": 361,
      "त्म": 362,
      "स्म": 363,
      "जय": 364,
      "वान्": 365,
      "श्रु": 366,
      "तत्र": 367,
      "भु": 368,
      "नम्": 369,
      "ष्ण": 370,
      "मः": 371,
      "सी": 372,
      "ेण": 373,
      "सू": 374,
      "न्ध": 375,
      "ततः": 376,
      "द्वि": 377,
      "नो": 378,
      "ब्रवी": 379,
      "न्द": 380,
      "वच": 381,
      "ह्य": 382,
      "ले": 383,
      "वृत": 384,
      "वर्त": 385,
      "ितं": 386,
      "ितम्": 387,
      "स्मि": 388,
      "र्वा": 389,
      "वः": 390,
      "शं": 391,
      "यत्": 392,
      "मम": 393,
      "ोध": 394,
      "तदा": 395,
      "णः": 396,
      "दर्": 397,
      "गृ": 398,
      "को": 399,
      "तप": 400,
      "लि": 401,
      "राजन्": 402,
      "श्चा": 403,
      "क्षि": 404,
      "ध्य": 405,
      "कर्म": 406,
      "ततो": 407,
      "मां": 408,
      "तत्": 409,
      "ष्म": 410,
      "पार्थ": 411,
      "र्ध": 412,
      "कथ": 413,
      "रुष": 414,
      "ज्ञा": 415,
      "तत": 416,
      "शर": 417,
      "युधि": 418,
      "चित": 419,
      "त्रि": 420,
      "च्च": 421,
      "ीव": 422,
      "दृष्ट्वा": 423,
      "किं": 424,
      "णं": 425,
      "स्ते": 426,
      "स्त्व": 427,
      "ानु": 428,
      "िताः": 429,
      "र्मा": 430,
      "ताः": 431,
      "र्ग": 432,
      "स्मा": 433,
      "हृ": 434,
      "मृ": 435,
      "सर्वे": 436,
      "कं": 437,
      "दुः": 438,
      "रम्": 439,
      "राक्ष": 440,
      "त्वं": 441,
      "राजा": 442,
      "कर्ण": 443,
      "पित": 444,
      "नृ": 445,
      "र्द": 446,
      "मुक्त": 447,
      "चैव": 448,
      "सौ": 449,
      "मू": 450,
      "पति": 451,
      "न्ते": 452,
      "त्तम": 453,
      "एव": 454,
      "ब्रा": 455,
      "मास": 456,
      "षा": 457,
      "तव": 458,
      "मनु": 459,
      "शः": 460,
      "शी": 461,
      "ब्राह्म": 462,
      "गच्छ": 463,
      "भो": 464,
      "र्ह": 465,
      "षु": 466,
      "मुख": 467,
      "पुरुष": 468,
      "की": 469,
      "स्र": 470,
      "ष्ठि": 471,
      "स्तथा": 472,
      "्यामि": 473,
      "ब्रह्म": 474,
      "मया": 475,
      "रक्ष": 476,
      "दर्श": 477,
      "्यु": 478,
      "यि": 479,
      "कौ": 480,
      "पत": 481,
      "समु": 482,
      "चे": 483,
      "श्रे": 484,
      "यम्": 485,
      "युद्ध": 486,
      "पश्य": 487,
      "सेन": 488,
      "श्चैव": 489,
      "जन": 490,
      "युधिष्ठि": 491,
      "वान": 492,
      "सः": 493,
      "परा": 494,
      "र्या": 495,
      "युक्त": 496,
      "पे": 497,
      "यन्": 498,
      "भीम": 499,
      "बुद्ध": 500,
      "ित्य": 501,
      "क्ष्य": 502,
      "तेन": 503,
      "सत्य": 504,
      "सो": 505,
      "प्रि": 506,
      "ञ्": 507,
      "दान": 508,
      "शू": 509,
      "ज्य": 510,
      "यामास": 511,
      "णो": 512,
      "भारत": 513,
      "ब्रवीत्": 514,
      "भूत": 515,
      "ब्": 516,
      "वत्": 517,
      "बहु": 518,
      "वृत्त": 519,
      "विध": 520,
      "थि": 521,
      "वो": 522,
      "वाक": 523,
      "तम्": 524,
      "द्रो": 525,
      "तद्": 526,
      "दश": 527,
      "षि": 528,
      "विश": 529,
      "भ्रा": 530,
      "सृ": 531,
      "त्मा": 532,
      "ैश्च": 533,
      "स्ति": 534,
      "घो": 535,
      "त्मन": 536,
      "मन्त": 537,
      "ैर": 538,
      "व्र": 539,
      "रणे": 540,
      "त्रा": 541,
      "शम्": 542,
      "राः": 543,
      "जि": 544,
      "गो": 545,
      "सुख": 546,
      "।।": 547,
      "पुन": 548,
      "राष्ट": 549,
      "राम": 550,
      "प्राप्त": 551,
      "रूप": 552,
      "सर्वा": 553,
      "भग": 554,
      "ितो": 555,
      "ध्व": 556,
      "ही": 557,
      "कुरु": 558,
      "ेन्द्र": 559,
      "सै": 560,
      "तथ": 561,
      "पञ्च": 562,
      "ान्य": 563,
      "दुःख": 564,
      "हे": 565,
      "स्था": 566,
      "पूर्व": 567,
      "दो": 568,
      "पाय": 569,
      "।॥": 570,
      "श्": 571,
      "धु": 572,
      "श्रेष्ठ": 573,
      "तान्": 574,
      "कः": 575,
      "ुं": 576,
      "मेव": 577,
      "कथं": 578,
      "काल": 579,
      "ग्रा": 580,
      "प्रत्य": 581,
      "पुनः": 582,
      "र्जु": 583,
      "स्ता": 584,
      "ञ्ज": 585,
      "म्ब": 586,
      "क्रुद्ध": 587,
      "भे": 588,
      "ष्यति": 589,
      "राष्ट्र": 590,
      "ानं": 591,
      "पुरा": 592,
      "भृ": 593,
      "मान्": 594,
      "यां": 595,
      "यते": 596,
      "राव": 597,
      "द्वा": 598,
      "हो": 599,
      "स्मिन्": 600,
      "शत": 601,
      "नर": 602,
      "नाम": 603,
      "सोऽ": 604,
      "वर्ष": 605,
      "कम्": 606,
      "र्थं": 607,
      "श्रुत्वा": 608,
      "पिता": 609,
      "नां": 610,
      "णी": 611,
      "वर": 612,
      "ष्टा": 613,
      "महाराज": 614,
      "त्मान": 615,
      "वन": 616,
      "जीव": 617,
      "लक्": 618,
      "ग्नि": 619,
      "वीर्य": 620,
      "ण्य": 621,
      "धी": 622,
      "नाः": 623,
      "र्षभ": 624,
      "त्त्व": 625,
      "पते": 626,
      "वेद": 627,
      "द्विज": 628,
      "ल्य": 629,
      "ित्वा": 630,
      "निह": 631,
      "चक्र": 632,
      "तौ": 633,
      "वित": 634,
      "षां": 635,
      "तेज": 636,
      "ोप": 637,
      "त्या": 638,
      "णे": 639,
      "कृत्वा": 640,
      "वीर": 641,
      "प्री": 642,
      "यदि": 643,
      "कृष्ण": 644,
      "वाः": 645,
      "पाप": 646,
      "एवं": 647,
      "शे": 648,
      "कर्त": 649,
      "स्तदा": 650,
      "लक्ष्म": 651,
      "शृ": 652,
      "काम": 653,
      "नम": 654,
      "धनु": 655,
      "विद": 656,
      "क्षु": 657,
      "भरत": 658,
      "बाहु": 659,
      "पात": 660,
      "घ्र": 661,
      "गन्ध": 662,
      "सहस्र": 663,
      "ताम्": 664,
      "मित्र": 665,
      "मिव": 666,
      "त्मनः": 667,
      "न्ती": 668,
      "महाबल": 669,
      "बुद्धि": 670,
      "णम्": 671,
      "तस्मा": 672,
      "मही": 673,
      "पी": 674,
      "ेव": 675,
      "हू": 676,
      "कार": 677,
      "च्य": 678,
      "पाण्डव": 679,
      "चर": 680,
      "धर्मा": 681,
      "विष": 682,
      "र्योध": 683,
      "भवे": 684,
      "शत्र": 685,
      "संश": 686,
      "ली": 687,
      "पर्व": 688,
      "द्यु": 689,
      "पायन": 690,
      "न्तं": 691,
      "यम": 692,
      "न्या": 693,
      "िते": 694,
      "अथ": 695,
      "दुर्योध": 696,
      "द्धि": 697,
      "दत्त": 698,
      "राघ": 699,
      "यज्ञ": 700,
      "रम": 701,
      "नृप": 702,
      "मन्य": 703,
      "इति": 704,
      "प्रे": 705,
      "चो": 706,
      "त्वया": 707,
      "धनं": 708,
      "ब्राह्मण": 709,
      "क्षे": 710,
      "परं": 711,
      "तिः": 712,
      "गुण": 713,
      "तिष्ठ": 714,
      "गि": 715,
      "विक्र": 716,
      "सदा": 717,
      "पृथि": 718,
      "तम": 719,
      "िति": 720,
      "धन": 721,
      "कार्य": 722,
      "ध्या": 723,
      "धिप": 724,
      "वैशम्": 725,
      "तद": 726,
      "सर्वं": 727,
      "वैशम्पायन": 728,
      "राज्": 729,
      "नाम्": 730,
      "विप्र": 731,
      "यत्र": 732,
      "राज्ञ": 733,
      "यस्य": 734,
      "भवि": 735,
      "ुः": 736,
      "युग": 737,
      "समरे": 738,
      "भीष्म": 739,
      "चिन्त": 740,
      "च्छा": 741,
      "युधिष्ठिर": 742,
      "व्यं": 743,
      "मृत": 744,
      "स्त्रि": 745,
      "ांश्च": 746,
      "इव": 747,
      "मन्त्र": 748,
      "ख्या": 749,
      "निर्": 750,
      "्राणि": 751,
      "यौ": 752,
      "निः": 753,
      "दम": 754,
      "वास": 755,
      "भ्र": 756,
      "कुल": 757,
      "चापि": 758,
      "धे": 759,
      "भीमसेन": 760,
      "पाल": 761,
      "रेण": 762,
      "तृ": 763,
      "यत": 764,
      "शक्त": 765,
      "क्षा": 766,
      "मत्": 767,
      "नै": 768,
      "लोके": 769,
      "वर्ण": 770,
      "विशा": 771,
      "भिर्": 772,
      "मी": 773,
      "चित्": 774,
      "नित": 775,
      "मिति": 776,
      "तेषां": 777,
      "ल्प": 778,
      "वन्": 779,
      "दुर्": 780,
      "दृश्य": 781,
      "वद": 782,
      "पार्थि": 783,
      "पुष्": 784,
      "चै": 785,
      "एवमुक्त": 786,
      "स्तत्र": 787,
      "जे": 788,
      "कृता": 789,
      "संजय": 790,
      "भ्यां": 791,
      "धृत": 792,
      "वस": 793,
      "ेषां": 794,
      "इत्य": 795,
      "ष्यामि": 796,
      "मर्ह": 797,
      "माः": 798,
      "बाण": 799,
      "पश": 800,
      "यन्त": 801,
      "सुर": 802,
      "जान": 803,
      "स्वि": 804,
      "तेऽ": 805,
      "गतः": 806,
      "धर्": 807,
      "महारथ": 808,
      "देवा": 809,
      "द्रोण": 810,
      "याः": 811,
      "त्वां": 812,
      "त्तमम्": 813,
      "प्रह": 814,
      "भाष": 815,
      "योग": 816,
      "पन्": 817,
      "लु": 818,
      "द्रा": 819,
      "घ्": 820,
      "नाग": 821,
      "येन": 822,
      "जः": 823,
      "नन्द": 824,
      "शक्र": 825,
      "काः": 826,
      "वेग": 827,
      "मिदं": 828,
      "श्चि": 829,
      "रौ": 830,
      "र्षि": 831,
      "णु": 832,
      "वाक्य": 833,
      "साद्य": 834,
      "नित्यं": 835,
      "कृतं": 836,
      "ततोऽ": 837,
      "धृ": 838,
      "दः": 839,
      "स्तस्य": 840,
      "सिं": 841,
      "सर": 842,
      "तोऽ": 843,
      "फल": 844,
      "मेण": 845,
      "भाग": 846,
      "पौ": 847,
      "बि": 848,
      "क्रोध": 849,
      "द्रौ": 850,
      "शक": 851,
      "वार": 852,
      "यश": 853,
      "पाद": 854,
      "क्तं": 855,
      "माना": 856,
      "श्चापि": 857,
      "दक्षि": 858,
      "यात्": 859,
      "घा": 860,
      "तन्": 861,
      "विधि": 862,
      "भाव": 863,
      "पृथिवी": 864,
      "मम्": 865,
      "िं": 866,
      "यथ": 867,
      "भौ": 868,
      "कौर": 869,
      "नरा": 870,
      "भवत्": 871,
      "निश्च": 872,
      "वेश": 873,
      "रथा": 874,
      "वृद्ध": 875,
      "तथैव": 876,
      "योऽ": 877,
      "बभू": 878,
      "नाद": 879,
      "वचनं": 880,
      "सां": 881,
      "शै": 882,
      "भीष्": 883,
      "क्त्वा": 884,
      "कीर्त": 885,
      "पन्न": 886,
      "यान": 887,
      "मुपा": 888,
      "पूज": 889,
      "शत्रु": 890,
      "चन": 891,
      "्रु": 892,
      "पुत्रा": 893,
      "जगा": 894,
      "तस्या": 895,
      "ब्ध": 896,
      "दू": 897,
      "र्जुन": 898,
      "क्षत्रि": 899,
      "ज्व": 900,
      "शास": 901,
      "धृतराष्ट्र": 902,
      "चतु": 903,
      "मपि": 904,
      "चित्र": 905,
      "युध": 906,
      "ताप": 907,
      "शब्": 908,
      "मुप": 909,
      "तस्मिन्": 910,
      "रत्": 911,
      "स्तव": 912,
      "यद्": 913,
      "ताव": 914,
      "केन": 915,
      "ुष": 916,
      "योध": 917,
      "अभि": 918,
      "गत": 919,
      "बु": 920,
      "वम्": 921,
      "सन्": 922,
      "ऽऽ": 923,
      "दिव्य": 924,
      "पितामह": 925,
      "प्रवि": 926,
      "परम": 927,
      "वचः": 928,
      "ङ्क": 929,
      "सहस": 930,
      "वर्ध": 931,
      "पद्य": 932,
      "वां": 933,
      "महात्म": 934,
      "नित्य": 935,
      "गुरु": 936,
      "हरि": 937,
      "प्रजा": 938,
      "शुभ": 939,
      "मौ": 940,
      "हित": 941,
      "राक्षस": 942,
      "नू": 943,
      "यदा": 944,
      "च्छे": 945,
      "सप्त": 946,
      "हृष्ट": 947,
      "दण्ड": 948,
      "पुर": 949,
      "शिख": 950,
      "यमा": 951,
      "शित": 952,
      "र्णा": 953,
      "भद्र": 954,
      "श्री": 955,
      "भवेत्": 956,
      "मभि": 957,
      "न्तो": 958,
      "मनो": 959,
      "काले": 960,
      "गण": 961,
      "गति": 962,
      "दाय": 963,
      "एष": 964,
      "हत": 965,
      "पुण्य": 966,
      "ष्टं": 967,
      "कै": 968,
      "कस्य": 969,
      "भूष": 970,
      "भरतर्षभ": 971,
      "यश्च": 972,
      "स्वर्ग": 973,
      "समन्त": 974,
      "दद": 975,
      "शान्त": 976,
      "महत्": 977,
      "नाना": 978,
      "मृग": 979,
      "स्तं": 980,
      "वसु": 981,
      "सिंह": 982,
      "बन्ध": 983,
      "बभूव": 984,
      "यान्": 985,
      "स्वा": 986,
      "रां": 987,
      "सैन्य": 988,
      "तू": 989,
      "पद": 990,
      "येत्": 991,
      "वाक्यं": 992,
      "शरैः": 993,
      "यित्वा": 994,
      "प्राप्य": 995,
      "िया": 996,
      "त्मानं": 997,
      "पतिः": 998,
      "करो": 999,
      "पाण्डु": 1000,
      "भर्त": 1001,
      "ङ्गा": 1002,
      "वाह": 1003,
      "ब्रु": 1004,
      "साद": 1005,
      "वने": 1006,
      "म्भ": 1007,
      "ोऽपि": 1008,
      "सूर्य": 1009,
      "पर्य": 1010,
      "पो": 1011,
      "तानि": 1012,
      "द्धा": 1013,
      "अन": 1014,
      "शरी": 1015,
      "दुरा": 1016,
      "स्ती": 1017,
      "व्याघ्र": 1018,
      "ब्रू": 1019,
      "प्रय": 1020,
      "न्तु": 1021,
      "क्ता": 1022,
      "दैव": 1023,
      "मध": 1024,
      "विना": 1025,
      "रिव": 1026,
      "जना": 1027,
      "स्त्वं": 1028,
      "नौ": 1029,
      "ित्": 1030,
      "जं": 1031,
      "समी": 1032,
      "भविष्यति": 1033,
      "काश": 1034,
      "बलं": 1035,
      "लक्ष": 1036,
      "षे": 1037,
      "न्यं": 1038,
      "गम्य": 1039,
      "विद्य": 1040,
      "मन्व": 1041,
      "वासु": 1042,
      "महात्मनः": 1043,
      "विज": 1044,
      "स्क": 1045,
      "संनि": 1046,
      "ममा": 1047,
      "पीड": 1048,
      "मानं": 1049,
      "तुं": 1050,
      "सूत": 1051,
      "च्यते": 1052,
      "हर": 1053,
      "लः": 1054,
      "षी": 1055,
      "मत्त": 1056,
      "ितु": 1057,
      "त्रं": 1058,
      "गृह्य": 1059,
      "विविध": 1060,
      "सुग्र": 1061,
      "मै": 1062,
      "ष्व": 1063,
      "ह्व": 1064,
      "प्रज": 1065,
      "पाः": 1066,
      "मधु": 1067,
      "रणं": 1068,
      "ग्रह": 1069,
      "यू": 1070,
      "मुनि": 1071,
      "ल्या": 1072,
      "तेषु": 1073,
      "केश": 1074,
      "रज": 1075,
      "दुर्योधन": 1076,
      "युगे": 1077,
      "तुः": 1078,
      "शृणु": 1079,
      "कू": 1080,
      "पाणि": 1081,
      "साग": 1082,
      "भर": 1083,
      "दीप्त": 1084,
      "मुत्": 1085,
      "मर्हसि": 1086,
      "वज": 1087,
      "रथि": 1088,
      "शोक": 1089,
      "तच्छ": 1090,
      "मति": 1091,
      "स्त्री": 1092,
      "ज्ञान": 1093,
      "प्राण": 1094,
      "कर्मणा": 1095,
      "राजेन्द्र": 1096,
      "वर्तते": 1097,
      "वध": 1098,
      "योः": 1099,
      "उप": 1100,
      "सत्तम": 1101,
      "मिवा": 1102,
      "नारा": 1103,
      "महाबाहु": 1104,
      "गता": 1105,
      "कुर्व": 1106,
      "सम्प्र": 1107,
      "जगाम": 1108,
      "खा": 1109,
      "र्प": 1110,
      "द्रु": 1111,
      "जग": 1112,
      "माण": 1113,
      "पृथ": 1114,
      "क्षी": 1115,
      "सर्वान्": 1116,
      "श्रू": 1117,
      "मव": 1118,
      "यद": 1119,
      "करि": 1120,
      "कर्मा": 1121,
      "क्व": 1122,
      "हृद": 1123,
      "र्था": 1124,
      "रस्य": 1125,
      "पराक्र": 1126,
      "जग्": 1127,
      "स्थितः": 1128,
      "शोभ": 1129,
      "महाबलः": 1130,
      "भृत": 1131,
      "कौन्ते": 1132,
      "लक्ष्मण": 1133,
      "लम्": 1134,
      "श्रो": 1135,
      "जात": 1136,
      "कृत्य": 1137,
      "पूर्वं": 1138,
      "दारु": 1139,
      "भूमि": 1140,
      "र्णं": 1141,
      "युद्धे": 1142,
      "यान्त": 1143,
      "मार्ग": 1144,
      "जी": 1145,
      "द्भु": 1146,
      "पुत्रं": 1147,
      "भ्या": 1148,
      "पुत्रो": 1149,
      "न्यो": 1150,
      "फलं": 1151,
      "धार": 1152,
      "रथं": 1153,
      "कुश": 1154,
      "संग्रा": 1155,
      "बृ": 1156,
      "प्रभु": 1157,
      "कृत्": 1158,
      "गत्वा": 1159,
      "ेष्व": 1160,
      "सत्त्व": 1161,
      "स्त्य": 1162,
      "लव": 1163,
      "पद्": 1164,
      "ष्या": 1165,
      "निष्": 1166,
      "पाव": 1167,
      "क्रो": 1168,
      "नग": 1169,
      "बला": 1170,
      "चेत": 1171,
      "तत्त्व": 1172,
      "राणां": 1173,
      "तात": 1174,
      "ष्टि": 1175,
      "विव": 1176,
      "तर": 1177,
      "अनु": 1178,
      "शस्त्र": 1179,
      "भ्यो": 1180,
      "र्थे": 1181,
      "मोह": 1182,
      "कल्प": 1183,
      "विदु": 1184,
      "नीम्": 1185,
      "महाबा": 1186,
      "हम्": 1187,
      "गज": 1188,
      "नात्": 1189,
      "िताम्": 1190,
      "पत्": 1191,
      "न्तः": 1192,
      "निव": 1193,
      "चन्द्र": 1194,
      "दै": 1195,
      "ोत्": 1196,
      "वायु": 1197,
      "देश": 1198,
      "व्याध": 1199,
      "धार्त": 1200,
      "ज्वल": 1201,
      "ाल": 1202,
      "उत्": 1203,
      "प्रिय": 1204,
      "प्रत्यु": 1205,
      "वासुदेव": 1206,
      "तमा": 1207,
      "दिव": 1208,
      "गान्": 1209,
      "ेत": 1210,
      "पं": 1211,
      "भयं": 1212,
      "त्रे": 1213,
      "संशयः": 1214,
      "बृह": 1215,
      "साधु": 1216,
      "्यो": 1217,
      "विशेष": 1218,
      "द्युम्": 1219,
      "वक्त": 1220,
      "कपि": 1221,
      "लभ": 1222,
      "सर्वभूत": 1223,
      "मानुष": 1224,
      "विशाम्": 1225,
      "रान्": 1226,
      "महाबाहो": 1227,
      "ितौ": 1228,
      "ान्व": 1229,
      "विश्व": 1230,
      "पुरो": 1231,
      "ानी": 1232,
      "प्नु": 1233,
      "सृज": 1234,
      "श्वा": 1235,
      "ज्ञे": 1236,
      "सहसा": 1237,
      "क्षिप्र": 1238,
      "वज्र": 1239,
      "त्तमः": 1240,
      "वद्": 1241,
      "ोद": 1242,
      "क्षं": 1243,
      "विद्ध": 1244,
      "ेष्वा": 1245,
      "विशाम्पते": 1246,
      "ची": 1247,
      "महं": 1248,
      "राक्षसा": 1249,
      "प्रभा": 1250,
      "परम्": 1251,
      "धृष्ट": 1252,
      "विन": 1253,
      "मथ": 1254,
      "सेना": 1255,
      "मिच्छ": 1256,
      "प्स": 1257,
      "सात्य": 1258,
      "ट्": 1259,
      "ज्ज": 1260,
      "इत्यु": 1261,
      "ेति": 1262,
      "चार": 1263,
      "नार": 1264,
      "विनि": 1265,
      "संयुगे": 1266,
      "सहा": 1267,
      "वरा": 1268,
      "न्व": 1269,
      "परे": 1270,
      "देह": 1271,
      "मात": 1272,
      "क्ष्यामि": 1273,
      "महता": 1274,
      "हार": 1275,
      "ष्यन्ति": 1276,
      "गृह": 1277,
      "तस्मात्": 1278,
      "सहस्राणि": 1279,
      "दुष्": 1280,
      "पितृ": 1281,
      "स्पृ": 1282,
      "मन्ये": 1283,
      "भार": 1284,
      "वाद": 1285,
      "मृत्यु": 1286,
      "स्प": 1287,
      "ब्रह्": 1288,
      "च्छामि": 1289,
      "हत्वा": 1290,
      "भिर": 1291,
      "क्रुद्धो": 1292,
      "ष्ये": 1293,
      "भ्यः": 1294,
      "सत": 1295,
      "र्दू": 1296,
      "ततस्त": 1297,
      "साय": 1298,
      "भवति": 1299,
      "यन्ति": 1300,
      "सर्वशः": 1301,
      "प्रभ": 1302,
      "काञ्च": 1303,
      "राजान": 1304,
      "शीघ्र": 1305,
      "मध्ये": 1306,
      "ितान्": 1307,
      "विष्ण": 1308,
      "ददर्श": 1309,
      "संख": 1310,
      "गौ": 1311,
      "गृही": 1312,
      "कर": 1313,
      "निर": 1314,
      "्याः": 1315,
      "नेन": 1316,
      "भिश्च": 1317,
      "चोद": 1318,
      "ान्ये": 1319,
      "सीता": 1320,
      "भ्रातृ": 1321,
      "कृतम्": 1322,
      "गिरि": 1323,
      "नराधिप": 1324,
      "टि": 1325,
      "महे": 1326,
      "ैर्य": 1327,
      "न्त्य": 1328,
      "तत्रा": 1329,
      "वरः": 1330,
      "शेष": 1331,
      "कृप": 1332,
      "क्ष्ण": 1333,
      "रावण": 1334,
      "गन्धर्व": 1335,
      "साम्": 1336,
      "भगवान्": 1337,
      "शार्दू": 1338,
      "राघव": 1339,
      "जग्मु": 1340,
      "समे": 1341,
      "र्मु": 1342,
      "समुत्": 1343,
      "प्रो": 1344,
      "धर्मराज": 1345,
      "अव": 1346,
      "हवे": 1347,
      "गमि": 1348,
      "भवान्": 1349,
      "विश्वा": 1350,
      "ष्यसि": 1351,
      "राज्य": 1352,
      "परस्": 1353,
      "शंस": 1354,
      "हर्ष": 1355,
      "राज्यं": 1356,
      "अहं": 1357,
      "शङ्": 1358,
      "सना": 1359,
      "इन्द्र": 1360,
      "प्रीति": 1361,
      "स्वयं": 1362,
      "निय": 1363,
      "अभ्य": 1364,
      "जयः": 1365,
      "समन्ततः": 1366,
      "गदा": 1367,
      "सत्": 1368,
      "श्वरः": 1369,
      "रूपं": 1370,
      "शय": 1371,
      "गी": 1372,
      "सिद्ध": 1373,
      "युधिष्ठिरः": 1374,
      "बहू": 1375,
      "ुर्": 1376,
      "क्षो": 1377,
      "महेष्वा": 1378,
      "घ्न": 1379,
      "नास्ति": 1380,
      "ित्त": 1381,
      "विष्ट": 1382,
      "महर्ष": 1383,
      "पुरं": 1384,
      "त्वर": 1385,
      "वृष": 1386,
      "कृते": 1387,
      "र्क": 1388,
      "मुवाच": 1389,
      "ोऽयं": 1390,
      "रेव": 1391,
      "स्मै": 1392,
      "स्थाय": 1393,
      "पृच्छ": 1394,
      "पृष्ठ": 1395,
      "ञ्जलि": 1396,
      "दिष्ट": 1397,
      "शिर": 1398,
      "सीत्": 1399,
      "गम": 1400,
      "ष्णा": 1401,
      "महान्": 1402,
      "पूर्ण": 1403,
      "एत": 1404,
      "माम्": 1405,
      "स्त्रा": 1406,
      "विव्याध": 1407,
      "क्षत्र": 1408,
      "एक": 1409,
      "मद": 1410,
      "रामो": 1411,
      "मन्यु": 1412,
      "व्यव": 1413,
      "च्छि": 1414,
      "प्ता": 1415,
      "हिता": 1416,
      "प्रभो": 1417,
      "कान्": 1418,
      "धू": 1419,
      "स्ततः": 1420,
      "पाञ्च": 1421,
      "ग्राह": 1422,
      "गताः": 1423,
      "प्रव": 1424,
      "रुवाच": 1425,
      "मनसा": 1426,
      "दोष": 1427,
      "पुष्प": 1428,
      "गतं": 1429,
      "भया": 1430,
      "लेन": 1431,
      "ोऽथ": 1432,
      "ध्वज": 1433,
      "पदा": 1434,
      "हन्त": 1435,
      "मतः": 1436,
      "युध्य": 1437,
      "वानर": 1438,
      "श्म": 1439,
      "देवं": 1440,
      "रग": 1441,
      "र्च": 1442,
      "भूत्वा": 1443,
      "किंचि": 1444,
      "कर्ष": 1445,
      "कच्च": 1446,
      "सदृ": 1447,
      "भ्रात": 1448,
      "ब्रूहि": 1449,
      "जित": 1450,
      "वनं": 1451,
      "ित्र": 1452,
      "धृष्टद्युम्": 1453,
      "दुर्म": 1454,
      "प्राज्ञ": 1455,
      "धार्तराष्ट्र": 1456,
      "हृत": 1457,
      "कश्चि": 1458,
      "सभा": 1459,
      "ान्ध": 1460,
      "वीर्यवान्": 1461,
      "सहस्रशः": 1462,
      "स्ना": 1463,
      "धाव": 1464,
      "संख्ये": 1465,
      "परमं": 1466,
      "ैर्व": 1467,
      "र्श": 1468,
      "रेन्द्र": 1469,
      "महारथः": 1470,
      "र्घ": 1471,
      "स्तथ": 1472,
      "युद्धं": 1473,
      "कदा": 1474,
      "तेजसा": 1475,
      "विद्यते": 1476,
      "कैः": 1477,
      "नैव": 1478,
      "मवा": 1479,
      "भक्त": 1480,
      "नदी": 1481,
      "मब्रवीत्": 1482,
      "ान्या": 1483,
      "विधा": 1484,
      "तेजा": 1485,
      "धर्मात्मा": 1486,
      "ध्रु": 1487,
      "क्रि": 1488,
      "पश्यामि": 1489,
      "ह्र": 1490,
      "रथे": 1491,
      "सोम": 1492,
      "प्रभुः": 1493,
      "दम्": 1494,
      "पुण": 1495,
      "सत्यं": 1496,
      "प्रेक्ष्य": 1497,
      "बोध": 1498,
      "मारु": 1499,
      "रामं": 1500,
      "परी": 1501,
      "कश्च": 1502,
      "णाम्": 1503,
      "हूर्त": 1504,
      "सततं": 1505,
      "फा": 1506,
      "महद्": 1507,
      "नव": 1508,
      "ाव": 1509,
      "ताम": 1510,
      "प्नो": 1511,
      "कृतः": 1512,
      "नानि": 1513,
      "दृढ": 1514,
      "मुहूर्त": 1515,
      "माश्र": 1516,
      "च्छ्र": 1517,
      "च्छेद": 1518,
      "कन्या": 1519,
      "जाना": 1520,
      "हता": 1521,
      "भुवि": 1522,
      "कुरू": 1523,
      "रोच": 1524,
      "युक्तं": 1525,
      "इदं": 1526,
      "पः": 1527,
      "पपात": 1528,
      "दार": 1529,
      "ग्ध": 1530,
      "घोष": 1531,
      "भक्ष": 1532,
      "श्वर": 1533,
      "रथाः": 1534,
      "शल्य": 1535,
      "प्रण": 1536,
      "नाभि": 1537,
      "धर्मे": 1538,
      "जघ": 1539,
      "समन्व": 1540,
      "कुमा": 1541,
      "मानो": 1542,
      "इवा": 1543,
      "वयं": 1544,
      "राजानं": 1545,
      "रिं": 1546,
      "स्थान": 1547,
      "घोरं": 1548,
      "संग्रामे": 1549,
      "ेषा": 1550,
      "सम्य": 1551,
      "स्मृत": 1552,
      "पत्य": 1553,
      "मेन": 1554,
      "शास्त्र": 1555,
      "रामस्य": 1556,
      "मध्य": 1557,
      "हितं": 1558,
      "नैः": 1559,
      "रामः": 1560,
      "प्रती": 1561,
      "शकु": 1562,
      "निशा": 1563,
      "यच्च": 1564,
      "मनः": 1565,
      "भार्या": 1566,
      "ंश": 1567,
      "ञ्छ": 1568,
      "चाप्य": 1569,
      "न्ये": 1570,
      "विरा": 1571,
      "क्षमा": 1572,
      "सृज्य": 1573,
      "जो": 1574,
      "यति": 1575,
      "विपु": 1576,
      "धर्मं": 1577,
      "नाराय": 1578,
      "याति": 1579,
      "मुत्तमम्": 1580,
      "एते": 1581,
      "मना": 1582,
      "परमा": 1583,
      "युः": 1584,
      "ज्ञाय": 1585,
      "सुरा": 1586,
      "दाः": 1587,
      "यी": 1588,
      "ितुं": 1589,
      "निर्ज": 1590,
      "पुङ्ग": 1591,
      "त्यु": 1592,
      "ैवा": 1593,
      "महात्मना": 1594,
      "गतम्": 1595,
      "मनी": 1596,
      "धनंजय": 1597,
      "विन्द": 1598,
      "निशित": 1599,
      "प्स्य": 1600,
      "बह": 1601,
      "र्मि": 1602,
      "शौ": 1603,
      "मानि": 1604,
      "स्यामि": 1605,
      "स्त्वया": 1606,
      "धर्मेण": 1607,
      "मन्": 1608,
      "मेघ": 1609,
      "पार्थिव": 1610,
      "महातेजा": 1611,
      "सनात": 1612,
      "वध्य": 1613,
      "भीष": 1614,
      "सूद": 1615,
      "तैः": 1616,
      "प्रेष": 1617,
      "बाल": 1618,
      "त्मना": 1619,
      "धर्मो": 1620,
      "प्लु": 1621,
      "शब्द": 1622,
      "भय": 1623,
      "राक्षसे": 1624,
      "गच्छति": 1625,
      "ानाम": 1626,
      "चक्षु": 1627,
      "स्तेन": 1628,
      "ष्ठा": 1629,
      "वसि": 1630,
      "न्ना": 1631,
      "स्थितम्": 1632,
      "वार्य": 1633,
      "रण्य": 1634,
      "द्रौणि": 1635,
      "तिक्र": 1636,
      "टा": 1637,
      "पाण्डवा": 1638,
      "धन्व": 1639,
      "सात्यकि": 1640,
      "तान": 1641,
      "द्रव": 1642,
      "भवद्": 1643,
      "तपसा": 1644,
      "घोर": 1645,
      "हुः": 1646,
      "ख्य": 1647,
      "विद्या": 1648,
      "ददृ": 1649,
      "नय": 1650,
      "निवर्त": 1651,
      "मेवा": 1652,
      "सुग्रीव": 1653,
      "उत्त": 1654,
      "कां": 1655,
      "निष": 1656,
      "देवी": 1657,
      "लब्ध": 1658,
      "समुद्र": 1659,
      "घु": 1660,
      "लोका": 1661,
      "कुण्ड": 1662,
      "दीर्घ": 1663,
      "प्रियं": 1664,
      "परंतप": 1665,
      "दृश्यते": 1666,
      "चु": 1667,
      "पुत्रः": 1668,
      "शुचि": 1669,
      "मप": 1670,
      "कुले": 1671,
      "गर्": 1672,
      "तै": 1673,
      "प्रसा": 1674,
      "भगव": 1675,
      "जानी": 1676,
      "माद": 1677,
      "बलि": 1678,
      "अथा": 1679,
      "पुत्रस्य": 1680,
      "वत्स": 1681,
      "अश्व": 1682,
      "यतां": 1683,
      "भृशं": 1684,
      "मूर्ध": 1685,
      "द्रौप": 1686,
      "ज्ये": 1687,
      "रुधि": 1688,
      "कार्यं": 1689,
      "त्स": 1690,
      "भाषत": 1691,
      "ददौ": 1692,
      "कुम्भ": 1693,
      "यिष्यामि": 1694,
      "माय": 1695,
      "चक्ष": 1696,
      "णाः": 1697,
      "धान": 1698,
      "बद्ध": 1699,
      "कुन्ती": 1700,
      "त्मज": 1701,
      "द्रष्ट": 1702,
      "मासाद्य": 1703,
      "सार्ध": 1704,
      "भाः": 1705,
      "ब्रवीद्": 1706,
      "सुखं": 1707,
      "्रुत्वा": 1708,
      "कल्": 1709,
      "कार्या": 1710,
      "स्मान्": 1711,
      "वासि": 1712,
      "महाभाग": 1713,
      "ग्न": 1714,
      "प्नोति": 1715,
      "ेय": 1716,
      "भूमौ": 1717,
      "जन्": 1718,
      "ययौ": 1719,
      "वाजि": 1720,
      "साह": 1721,
      "नरः": 1722,
      "रैः": 1723,
      "वश": 1724,
      "वृतः": 1725,
      "सर्वेषां": 1726,
      "कृति": 1727,
      "शोण": 1728,
      "वर्षा": 1729,
      "नद": 1730,
      "स्ततो": 1731,
      "शार्दूल": 1732,
      "गद": 1733,
      "बी": 1734,
      "सुहृ": 1735,
      "ब्राह्मणा": 1736,
      "भोज": 1737,
      "शङ्ख": 1738,
      "अद्य": 1739,
      "गते": 1740,
      "हनू": 1741,
      "प्रताप": 1742,
      "जु": 1743,
      "मेध": 1744,
      "गाण्ड": 1745,
      "क्रुद्धः": 1746,
      "ब्रह्मा": 1747,
      "पथ": 1748,
      "वरं": 1749,
      "स्ये": 1750,
      "मानः": 1751,
      "ितां": 1752,
      "राजं": 1753,
      "धर्मज्ञ": 1754,
      "पूजय": 1755,
      "ान्ता": 1756,
      "मोक्ष": 1757,
      "च्यु": 1758,
      "शतं": 1759,
      "स्थि": 1760,
      "ान्तं": 1761,
      "ल्गु": 1762,
      "एवमुक्त्वा": 1763,
      "हय": 1764,
      "दिश": 1765,
      "पाण्डवः": 1766,
      "वचनम": 1767,
      "तश्च": 1768,
      "वादि": 1769,
      "कामं": 1770,
      "मुख्य": 1771,
      "वित्": 1772,
      "पुरी": 1773,
      "भर्ता": 1774,
      "मण्ड": 1775,
      "प्रस": 1776,
      "त्सु": 1777,
      "महात्मान": 1778,
      "शक्ति": 1779,
      "माध": 1780,
      "ष्टो": 1781,
      "शाश्व": 1782,
      "बली": 1783,
      "शिखण्ड": 1784,
      "मिच्छामि": 1785,
      "लोच": 1786,
      "वृत्ति": 1787,
      "बान्ध": 1788,
      "वह": 1789,
      "हिं": 1790,
      "पाण्डवाः": 1791,
      "भुज": 1792,
      "तपो": 1793,
      "महारथाः": 1794,
      "कोद": 1795,
      "सन": 1796,
      "त्थ": 1797,
      "मूढ": 1798,
      "समासाद्य": 1799,
      "गृह्": 1800,
      "प्रत्युवाच": 1801,
      "स्तू": 1802,
      "चार्य": 1803,
      "रोह": 1804,
      "ान्ते": 1805,
      "समाह": 1806,
      "जल": 1807,
      "वापि": 1808,
      "पाण्डवानां": 1809,
      "तुर्": 1810,
      "स्थं": 1811,
      "तीर्थ": 1812,
      "शोच": 1813,
      "लङ्": 1814,
      "चक्रे": 1815,
      "रक्त": 1816,
      "ाद": 1817,
      "स्तान्": 1818,
      "प्तं": 1819,
      "स्यात्": 1820,
      "श्छ": 1821,
      "व्यथ": 1822,
      "कृष्णा": 1823,
      "महेन्द्र": 1824,
      "धर्मः": 1825,
      "यशस्वि": 1826,
      "जनार्द": 1827,
      "उपा": 1828,
      "ीं": 1829,
      "वाहि": 1830,
      "मणि": 1831,
      "शरा": 1832,
      "किम": 1833,
      "ैरपि": 1834,
      "जग्राह": 1835,
      "मयि": 1836,
      "हते": 1837,
      "स्यति": 1838,
      "महात्मा": 1839,
      "म्बु": 1840,
      "गन्धर्वा": 1841,
      "वसिष्ठ": 1842,
      "मुद": 1843,
      "तस्माद्": 1844,
      "मता": 1845,
      "यत्त": 1846,
      "स्ने": 1847,
      "च्चा": 1848,
      "प्रिया": 1849,
      "वित्र": 1850,
      "कर्ता": 1851,
      "तच्छ्रुत्वा": 1852,
      "ितैः": 1853,
      "माने": 1854,
      "तया": 1855,
      "केचि": 1856,
      "लोकेषु": 1857,
      "भूतानि": 1858,
      "शृङ्ग": 1859,
      "नन्दन": 1860,
      "निश": 1861,
      "कामा": 1862,
      "संत": 1863,
      "कोप": 1864,
      "नारद": 1865,
      "तयो": 1866,
      "वरु": 1867,
      "विम": 1868,
      "माम": 1869,
      "भूता": 1870,
      "क्षिप्रं": 1871,
      "यानि": 1872,
      "विद्व": 1873,
      "नाव": 1874,
      "त्वयि": 1875,
      "भूतं": 1876,
      "धाय": 1877,
      "्येव": 1878,
      "रथो": 1879,
      "सेव": 1880,
      "पुरुषर्षभ": 1881,
      "वेगेन": 1882,
      "कौन्तेय": 1883,
      "स्त्राणि": 1884,
      "वृकोद": 1885,
      "स्तो": 1886,
      "शैल": 1887,
      "स्वी": 1888,
      "रूपा": 1889,
      "युक्ता": 1890,
      "राज्ञा": 1891,
      "तस्मि": 1892,
      "षो": 1893,
      "शुभे": 1894,
      "पुरुषव्याघ्र": 1895,
      "ितुम्": 1896,
      "राणि": 1897,
      "काशं": 1898,
      "थाः": 1899,
      "पञ्चाल": 1900,
      "कथंचन": 1901,
      "प्रतापवान्": 1902,
      "गङ्गा": 1903,
      "सुतः": 1904,
      "मेऽ": 1905,
      "भं": 1906,
      "वर्ज": 1907,
      "कुत्": 1908,
      "वृत्तं": 1909,
      "भद्रं": 1910,
      "विराट": 1911,
      "मुच्यते": 1912,
      "व्यो": 1913,
      "सीद": 1914,
      "षं": 1915,
      "कालं": 1916,
      "स्वयम्": 1917,
      "चारि": 1918,
      "वर्तत": 1919,
      "रन्": 1920,
      "स्त्रं": 1921,
      "पाण्डवान्": 1922,
      "दुःशास": 1923,
      "सर्वाणि": 1924,
      "सुग्री": 1925,
      "मास्थाय": 1926,
      "निर्म": 1927,
      "देवे": 1928,
      "रिष": 1929,
      "नान्य": 1930,
      "वती": 1931,
      "नाथ": 1932,
      "मत्स्य": 1933,
      "ब्रुवन्": 1934,
      "तवा": 1935,
      "मतिः": 1936,
      "व्यू": 1937,
      "बलम्": 1938,
      "लोकं": 1939,
      "सैन्यं": 1940,
      "ड्": 1941,
      "षः": 1942,
      "श्वे": 1943,
      "स्तात": 1944,
      "पुरस्": 1945,
      "मन्द": 1946,
      "नाश": 1947,
      "र्ता": 1948,
      "जायते": 1949,
      "म्यहं": 1950,
      "ध्वं": 1951,
      "धौ": 1952,
      "यता": 1953,
      "ह्या": 1954,
      "विद्धि": 1955,
      "कर्तु": 1956,
      "फाल्गु": 1957,
      "वचनमब्रवीत्": 1958,
      "छि": 1959,
      "स्तप": 1960,
      "ृत्य": 1961,
      "द्वै": 1962,
      "वृक्ष": 1963,
      "पुरुषो": 1964,
      "पराय": 1965,
      "शुभा": 1966,
      "सौमित्र": 1967,
      "सृष्ट": 1968,
      "अपि": 1969,
      "कुञ्ज": 1970,
      "राघवः": 1971,
      "ददा": 1972,
      "मिह": 1973,
      "तीव": 1974,
      "पुनर्": 1975,
      "यशाः": 1976,
      "ऋषि": 1977,
      "कल": 1978,
      "विध्य": 1979,
      "सुवर्ण": 1980,
      "ज्ञात्वा": 1981,
      "पक्षि": 1982,
      "ीड": 1983,
      "रात्र": 1984,
      "क्तः": 1985,
      "वैदे": 1986,
      "कम्प": 1987,
      "तेषा": 1988,
      "पूज्य": 1989,
      "प्यु": 1990,
      "कीर्ति": 1991,
      "प्रमा": 1992,
      "मात्य": 1993,
      "त्रै": 1994,
      "कल्या": 1995,
      "रणा": 1996,
      "प्रथ": 1997,
      "यूथ": 1998,
      "कण्": 1999,
      "दित्य": 2000,
      "मथा": 2001,
      "ात्": 2002,
      "प्रया": 2003,
      "र्वे": 2004,
      "शिष्य": 2005,
      "त्मजः": 2006,
      "हेम": 2007,
      "कच्चि": 2008,
      "सान्त": 2009,
      "निरा": 2010,
      "काकुत्": 2011,
      "चास्य": 2012,
      "प्लव": 2013,
      "मूर्": 2014,
      "विश्रु": 2015,
      "माता": 2016,
      "सुसं": 2017,
      "साध": 2018,
      "दानं": 2019,
      "सव्य": 2020,
      "ौज": 2021,
      "महायशाः": 2022,
      "चाप": 2023,
      "स्थिताः": 2024,
      "प्रजाः": 2025,
      "महान": 2026,
      "मर्ष": 2027,
      "यै": 2028,
      "त्था": 2029,
      "याश्च": 2030,
      "प्रतिष्ठ": 2031,
      "लिङ्ग": 2032,
      "पितरं": 2033,
      "दर्शनम्": 2034,
      "दुःखं": 2035,
      "विश्वामित्र": 2036,
      "जघान": 2037,
      "णेन": 2038,
      "कार्मु": 2039,
      "सुता": 2040,
      "त्ति": 2041,
      "देवो": 2042,
      "ान्ति": 2043,
      "प्राप्तं": 2044,
      "श्रेष्ठं": 2045,
      "कृत्स्": 2046,
      "लानि": 2047,
      "वर्मा": 2048,
      "रुद्र": 2049,
      "कम": 2050,
      "कवच": 2051,
      "ुभौ": 2052,
      "संध": 2053,
      "दत्त्वा": 2054,
      "विभीष": 2055,
      "न्दु": 2056,
      "रुद": 2057,
      "पुत्रेण": 2058,
      "पापं": 2059,
      "पद्यते": 2060,
      "ऋष": 2061,
      "कुर्या": 2062,
      "मद्र": 2063,
      "सलि": 2064,
      "विल": 2065,
      "दिशः": 2066,
      "कर्णो": 2067,
      "पितु": 2068,
      "यन्ते": 2069,
      "प्रसाद": 2070,
      "स्फ": 2071,
      "ल्ल": 2072,
      "ल्व": 2073,
      "किरी": 2074,
      "धनंजयः": 2075,
      "दमब्रवीत्": 2076,
      "ह्ये": 2077,
      "वाद्य": 2078,
      "र्ध्व": 2079,
      "तस्मै": 2080,
      "मद्य": 2081,
      "मारिष": 2082,
      "भः": 2083,
      "सद": 2084,
      "तुल्य": 2085,
      "यद्य": 2086,
      "सत्त": 2087,
      "विभो": 2088,
      "न्ता": 2089,
      "याव": 2090,
      "क्तो": 2091,
      "र्ति": 2092,
      "णौ": 2093,
      "नरेन्द्र": 2094,
      "लां": 2095,
      "ेऽ": 2096,
      "देवाः": 2097,
      "मानस्य": 2098,
      "भवन्": 2099,
      "लोकस्य": 2100,
      "राक्षसेन्द्र": 2101,
      "विस्म": 2102,
      "कुर": 2103,
      "ेन्द्रि": 2104,
      "विष्णु": 2105,
      "मिन्द्र": 2106,
      "भिन्न": 2107,
      "ोऽस्मि": 2108,
      "दुर्ध": 2109,
      "गमन": 2110,
      "णाम": 2111,
      "सिद्धि": 2112,
      "अप": 2113,
      "हस्त": 2114,
      "सुत": 2115,
      "नूनं": 2116,
      "धर्ष": 2117,
      "सत्तमः": 2118,
      "नाहं": 2119,
      "संज्ञ": 2120,
      "क्रिया": 2121,
      "कर्णं": 2122,
      "मर्हति": 2123,
      "तन्मे": 2124,
      "खि": 2125,
      "विषा": 2126,
      "वाय": 2127,
      "कारण": 2128,
      "चिच्छेद": 2129,
      "लोक्य": 2130,
      "ेयं": 2131,
      "मुनिः": 2132,
      "सर्वतः": 2133,
      "क्रू": 2134,
      "शक्य": 2135,
      "रत्न": 2136,
      "स्तथैव": 2137,
      "कोऽ": 2138,
      "गतो": 2139,
      "क्लि": 2140,
      "निबोध": 2141,
      "भीमं": 2142,
      "अग्नि": 2143,
      "अर्जुन": 2144,
      "ैनं": 2145,
      "द्वी": 2146,
      "ान्न": 2147,
      "राजस्य": 2148,
      "सीद्": 2149,
      "अन्य": 2150,
      "भृतां": 2151,
      "ित्त्वा": 2152,
      "सान्त्व": 2153,
      "अयं": 2154,
      "चरे": 2155,
      "मते": 2156,
      "यक्ष": 2157,
      "हतः": 2158,
      "ाय": 2159,
      "मुञ्च": 2160,
      "सार": 2161,
      "कुलं": 2162,
      "भगवन्": 2163,
      "पर्या": 2164,
      "वाचा": 2165,
      "जनमे": 2166,
      "जगत्": 2167,
      "प्रश": 2168,
      "लोकान्": 2169,
      "सुखम्": 2170,
      "भृशम्": 2171,
      "वित्त": 2172,
      "बृहस्": 2173,
      "हः": 2174,
      "रात्": 2175,
      "भिरा": 2176,
      "ज्यो": 2177,
      "गान्धा": 2178,
      "दिष्ट्या": 2179,
      "लाः": 2180,
      "हनि": 2181,
      "हतो": 2182,
      "र्वि": 2183,
      "नाति": 2184,
      "भूय": 2185,
      "भृश": 2186,
      "गाः": 2187,
      "तपाः": 2188,
      "पराज": 2189,
      "मिथ": 2190,
      "मैथि": 2191,
      "मभ्य": 2192,
      "हतं": 2193,
      "निवेश": 2194,
      "साः": 2195,
      "साध्व": 2196,
      "ोऽसि": 2197,
      "प्राह": 2198,
      "व्रत": 2199,
      "ज्येष्ठ": 2200,
      "करं": 2201,
      "मरु": 2202,
      "र्न": 2203,
      "रामेण": 2204,
      "द्विजा": 2205,
      "बुद्ध्या": 2206,
      "ेत्": 2207,
      "िती": 2208,
      "प्रहृष्ट": 2209,
      "राधे": 2210,
      "माया": 2211,
      "न्यां": 2212,
      "स्तां": 2213,
      "ङ्गि": 2214,
      "धनुः": 2215,
      "विक्रमः": 2216,
      "भीष्मं": 2217,
      "मर": 2218,
      "श्या": 2219,
      "र्यं": 2220,
      "ततस्ते": 2221,
      "एतत्": 2222,
      "तद्व": 2223,
      "यज": 2224,
      "वीरः": 2225,
      "समं": 2226,
      "मित्त": 2227,
      "ब्रह्मन्": 2228,
      "परस्परम्": 2229,
      "पै": 2230,
      "णात्": 2231,
      "प्रयच्छ": 2232,
      "सार्धं": 2233,
      "धरा": 2234,
      "न्नं": 2235,
      "महर्षि": 2236,
      "किल": 2237,
      "कैके": 2238,
      "काकुत्स्थ": 2239,
      "महाना": 2240,
      "वीरा": 2241,
      "विशार": 2242,
      "पृथिवीं": 2243,
      "ंश्च": 2244,
      "कान": 2245,
      "जनाः": 2246,
      "पाण्डवे": 2247,
      "द्रोणं": 2248,
      "सहस्रा": 2249,
      "यान्ति": 2250,
      "तले": 2251,
      "ेदं": 2252,
      "मृषि": 2253,
      "अन्त": 2254,
      "नस्य": 2255,
      "नान्": 2256,
      "पार्": 2257,
      "ानिव": 2258,
      "याद्": 2259,
      "परित्य": 2260,
      "क्य": 2261,
      "गमत्": 2262,
      "ष्टः": 2263,
      "शुश्रू": 2264,
      "व्रज": 2265,
      "बुध": 2266,
      "घां": 2267,
      "विह": 2268,
      "निन्द": 2269,
      "मेष": 2270,
      "स्थिता": 2271,
      "समुपा": 2272,
      "पश्या": 2273,
      "दुर्धर्ष": 2274,
      "अह": 2275,
      "नरो": 2276,
      "पान": 2277,
      "पश्चा": 2278,
      "मस्य": 2279,
      "भीमो": 2280,
      "भवन्ति": 2281,
      "सर्प": 2282,
      "ैरु": 2283,
      "परो": 2284,
      "दिव्यं": 2285,
      "बलव": 2286,
      "कीर्ण": 2287,
      "नरव्याघ्र": 2288,
      "ौक": 2289,
      "मादाय": 2290,
      "स्थित": 2291,
      "भूतानां": 2292,
      "क्षत्रिया": 2293,
      "गः": 2294,
      "व्यक्त": 2295,
      "केशव": 2296,
      "पता": 2297,
      "ेवं": 2298,
      "श्रि": 2299,
      "शील": 2300,
      "कीर्ष": 2301,
      "पन्ना": 2302,
      "कौरव्य": 2303,
      "अन्यो": 2304,
      "णैः": 2305,
      "भ्राता": 2306,
      "सैन्ध": 2307,
      "श्रीमान्": 2308,
      "रिंदम": 2309,
      "कानि": 2310,
      "विशु": 2311,
      "ृतं": 2312,
      "सम्प्राप्त": 2313,
      "तपस्वि": 2314,
      "क्ल": 2315,
      "वेदा": 2316,
      "भोग": 2317,
      "यिष्यति": 2318,
      "युक्तो": 2319,
      "पक्ष": 2320,
      "कारि": 2321,
      "दानव": 2322,
      "दत्तं": 2323,
      "मानु": 2324,
      "स्वं": 2325,
      "द्यो": 2326,
      "समृ": 2327,
      "शीघ्रं": 2328,
      "ददृशु": 2329,
      "घट": 2330,
      "ण्व": 2331,
      "नान": 2332,
      "वक्ष्यामि": 2333,
      "प्रकाश": 2334,
      "भार्ग": 2335,
      "योज": 2336,
      "द्वे": 2337,
      "मनुष्य": 2338,
      "पश्यति": 2339,
      "धीमतः": 2340,
      "राज्ञः": 2341,
      "क्रोश": 2342,
      "करा": 2343,
      "गणा": 2344,
      "दौ": 2345,
      "देशे": 2346,
      "बलेन": 2347,
      "तच्च": 2348,
      "र्हि": 2349,
      "मात्मनः": 2350,
      "मेतत्": 2351,
      "देवि": 2352,
      "शिरो": 2353,
      "चतुर्": 2354,
      "तस्थ": 2355,
      "ोवाच": 2356,
      "संह": 2357,
      "तुमु": 2358,
      "श्रव": 2359,
      "क्षेप": 2360,
      "नन्दनः": 2361,
      "रौद्र": 2362,
      "दैत्य": 2363,
      "लभते": 2364,
      "चकार": 2365,
      "यितुं": 2366,
      "ाम": 2367,
      "विभूष": 2368,
      "मेवं": 2369,
      "त्यक्त्वा": 2370,
      "रणी": 2371,
      "गुणा": 2372,
      "शोका": 2373,
      "सरस्व": 2374,
      "बहून्": 2375,
      "घ्रा": 2376,
      "बभौ": 2377,
      "निमित्त": 2378,
      "न्तौ": 2379,
      "भूयः": 2380,
      "वंश": 2381,
      "शरै": 2382,
      "पाञ्चा": 2383,
      "वर्षाणि": 2384,
      "इह": 2385,
      "तरं": 2386,
      "ेह": 2387,
      "मात्र": 2388,
      "नागा": 2389,
      "यामा": 2390,
      "सारथि": 2391,
      "सहदेव": 2392,
      "हाय": 2393,
      "घात": 2394,
      "द्भुत": 2395,
      "ोऽभवत्": 2396,
      "दिव्या": 2397,
      "त्वम": 2398,
      "सम्भ्र": 2399,
      "म्यहम्": 2400,
      "चित्त": 2401,
      "स्मात्": 2402,
      "मूल": 2403,
      "द्विजो": 2404,
      "र्यां": 2405,
      "भविता": 2406,
      "हृष्टा": 2407,
      "कालेन": 2408,
      "चिन्त्य": 2409,
      "बुध्य": 2410,
      "सर्ज": 2411,
      "तार": 2412,
      "महाप्राज्ञ": 2413,
      "महातपाः": 2414,
      "युयु": 2415,
      "क्रीड": 2416,
      "त्वि": 2417,
      "समाग": 2418,
      "सूक्": 2419,
      "सौम्य": 2420,
      "युक्तः": 2421,
      "शूरा": 2422,
      "नृपः": 2423,
      "क्वचित्": 2424,
      "अत्र": 2425,
      "चः": 2426,
      "चमू": 2427,
      "भरण": 2428,
      "मुत्त": 2429,
      "भूत्": 2430,
      "स्माकं": 2431,
      "मुक्ता": 2432,
      "स्पर्श": 2433,
      "पार्ष": 2434,
      "महात्मानं": 2435,
      "पतेः": 2436,
      "राज्ञो": 2437,
      "द्राव": 2438,
      "वाक्यमब्रवीत्": 2439,
      "चुः": 2440,
      "द्या": 2441,
      "क्ष्या": 2442,
      "मुने": 2443,
      "द्रथ": 2444,
      "रुक्": 2445,
      "वीरो": 2446,
      "लाघ": 2447,
      "ैर्वि": 2448,
      "किंचित्": 2449,
      "मन्त्रि": 2450,
      "महात्मनाम्": 2451,
      "वैदेही": 2452,
      "दशा": 2453,
      "तेना": 2454,
      "निवृत्त": 2455,
      "दुर्ग": 2456,
      "र्यु": 2457,
      "भूरि": 2458,
      "मन्यसे": 2459,
      "ौघ": 2460,
      "निपात": 2461,
      "सुतो": 2462,
      "ान्तो": 2463,
      "केव": 2464,
      "मुखा": 2465,
      "क्रोधा": 2466,
      "दपि": 2467,
      "पर्ण": 2468,
      "यस्तु": 2469,
      "ेना": 2470,
      "नात्र": 2471,
      "कर्णस्य": 2472,
      "नन्": 2473,
      "ान्तः": 2474,
      "कुरुते": 2475,
      "पितामहः": 2476,
      "सर्": 2477,
      "महि": 2478,
      "सर्वतो": 2479,
      "क्रम्य": 2480,
      "नेव": 2481,
      "रक्षो": 2482,
      "षिणः": 2483,
      "पुनर": 2484,
      "पुनरा": 2485,
      "पत्नी": 2486,
      "लङ्का": 2487,
      "नश्च": 2488,
      "रब्ध": 2489,
      "वाप्य": 2490,
      "तपोध": 2491,
      "कर्णः": 2492,
      "विशेषतः": 2493,
      "सख": 2494,
      "मातु": 2495,
      "श्वरम्": 2496,
      "नोप": 2497,
      "जज्ञे": 2498,
      "लम्ब": 2499,
      "दिशो": 2500,
      "र्षे": 2501,
      "पार्थो": 2502,
      "धर्मार्थ": 2503,
      "शत्रू": 2504,
      "गाण्डीव": 2505,
      "चरा": 2506,
      "विद्यु": 2507,
      "त्री": 2508,
      "भिर्व": 2509,
      "श्रा": 2510,
      "र्यथा": 2511,
      "स्तीक्ष्ण": 2512,
      "दस्य": 2513,
      "सङ्ग": 2514,
      "प्रवृत्त": 2515,
      "ांसि": 2516,
      "सारथ": 2517,
      "मेतद्": 2518,
      "योगा": 2519,
      "भ्यु": 2520,
      "श्रेय": 2521,
      "द्वार": 2522,
      "शक्यं": 2523,
      "ज्या": 2524,
      "रश्": 2525,
      "समान": 2526,
      "विस्त": 2527,
      "सर्वान": 2528,
      "ोऽहं": 2529,
      "भास्क": 2530,
      "शिला": 2531,
      "प्ल": 2532,
      "ततस्तु": 2533,
      "रूपेण": 2534,
      "पद्यत": 2535,
      "जनमेजय": 2536,
      "ताश": 2537,
      "सर्वमा": 2538,
      "चिकीर्ष": 2539,
      "दुःखा": 2540,
      "दित": 2541,
      "न्धि": 2542,
      "दिवं": 2543,
      "दर्शि": 2544,
      "पौरुष": 2545,
      "राक्षसाः": 2546,
      "ध्र": 2547,
      "प्रच्छ": 2548,
      "स्तत": 2549,
      "मिहा": 2550,
      "ष्ट्र": 2551,
      "त्वत्": 2552,
      "भूतेषु": 2553,
      "दृश": 2554,
      "शिष्ट": 2555,
      "शूर": 2556,
      "द्वादश": 2557,
      "कर्माणि": 2558,
      "भारद्वा": 2559,
      "रस": 2560,
      "ुर": 2561,
      "क्षः": 2562,
      "महाद्यु": 2563,
      "दृशं": 2564,
      "कृतो": 2565,
      "कृताः": 2566,
      "मोच": 2567,
      "गृहे": 2568,
      "तपर्व": 2569,
      "नराः": 2570,
      "ऽपि": 2571,
      "निवा": 2572,
      "मिमं": 2573,
      "श्राव": 2574,
      "चक्ष्व": 2575,
      "विंश": 2576,
      "संस": 2577,
      "स्थानं": 2578,
      "तीक्ष्ण": 2579,
      "तिष्ठति": 2580,
      "धिपः": 2581,
      "तानां": 2582,
      "पां": 2583,
      "द्विती": 2584,
      "तीं": 2585,
      "दुर्योधनो": 2586,
      "क्षत्रिय": 2587,
      "पृथक्": 2588,
      "इत्युक्त्वा": 2589,
      "जन्म": 2590,
      "ोर": 2591,
      "स्यन्ति": 2592,
      "राजपुत्र": 2593,
      "परः": 2594,
      "प्राप्नु": 2595,
      "मांस": 2596,
      "कानां": 2597,
      "भ्ये": 2598,
      "क्ले": 2599,
      "स्यते": 2600,
      "महावीर्य": 2601,
      "भाति": 2602,
      "दिवि": 2603,
      "चिरं": 2604,
      "पतिम्": 2605,
      "भेद": 2606,
      "रावणः": 2607,
      "भरतश्रेष्ठ": 2608,
      "समीक्ष्य": 2609,
      "काञ्चन": 2610,
      "कट": 2611,
      "यस्व": 2612,
      "वरम्": 2613,
      "हम": 2614,
      "नाय": 2615,
      "ताश्च": 2616,
      "प्रविश्य": 2617,
      "सव्यसा": 2618,
      "जम्": 2619,
      "सानु": 2620,
      "कृत्त": 2621,
      "स्याद्": 2622,
      "सीतां": 2623,
      "पुरुषा": 2624,
      "कौस": 2625,
      "कर्तुं": 2626,
      "शरीर": 2627,
      "पराक्रमः": 2628,
      "गं": 2629,
      "दिति": 2630,
      "यदु": 2631,
      "वैः": 2632,
      "महोद": 2633,
      "द्धं": 2634,
      "स्वस्ति": 2635,
      "तूर्णं": 2636,
      "गर्ह": 2637,
      "दन्त": 2638,
      "मैः": 2639,
      "माह": 2640,
      "सिद्धा": 2641,
      "ज्ञानं": 2642,
      "जिघां": 2643,
      "भै": 2644,
      "वनम्": 2645,
      "शङ्क": 2646,
      "मानां": 2647,
      "चेष्ट": 2648,
      "हेतु": 2649,
      "ब्रुव": 2650,
      "बीभ": 2651,
      "पण्ड": 2652,
      "र्यो": 2653,
      "र्जुनं": 2654,
      "पुरस्कृत्य": 2655,
      "विचित्र": 2656,
      "साम": 2657,
      "मेदि": 2658,
      "युज्य": 2659,
      "योनि": 2660,
      "मित्रा": 2661,
      "व्यास": 2662,
      "द्विष": 2663,
      "पतिं": 2664,
      "प्रविवेश": 2665,
      "मधुसूद": 2666,
      "शिखण्डि": 2667,
      "अना": 2668,
      "पम्": 2669,
      "यन्ती": 2670,
      "रतः": 2671,
      "प्रत्या": 2672,
      "वीरं": 2673,
      "ग्रं": 2674,
      "वचो": 2675,
      "स्त्रियः": 2676,
      "पुत्राणां": 2677,
      "वारण": 2678,
      "संन": 2679,
      "संश्र": 2680,
      "देशं": 2681,
      "क्रतु": 2682,
      "नेक": 2683,
      "न्द्रि": 2684,
      "दृश्यन्ते": 2685,
      "क्रु": 2686,
      "नुज्ञा": 2687,
      "त्मजा": 2688,
      "विधी": 2689,
      "महाबलम्": 2690,
      "श्रोतु": 2691,
      "निशितैः": 2692,
      "माधव": 2693,
      "ज्योति": 2694,
      "चान्ये": 2695,
      "तदु": 2696,
      "माल्य": 2697,
      "वालि": 2698,
      "पुं": 2699,
      "र्वी": 2700,
      "मुद्य": 2701,
      "राजर्षि": 2702,
      "नुते": 2703,
      "स्मृ": 2704,
      "मुखे": 2705,
      "महाबाहुः": 2706,
      "शिरसा": 2707,
      "टी": 2708,
      "णस्य": 2709,
      "पला": 2710,
      "बलो": 2711,
      "वार्": 2712,
      "योत्": 2713,
      "प्राञ्जलि": 2714,
      "व्यां": 2715,
      "बहुधा": 2716,
      "श्रेष्ठो": 2717,
      "र्जुनः": 2718,
      "महाबलाः": 2719,
      "बन्धु": 2720,
      "अति": 2721,
      "गे": 2722,
      "रघु": 2723,
      "प्रवे": 2724,
      "ताड": 2725,
      "सुतं": 2726,
      "रोष": 2727,
      "बाध": 2728,
      "श्चाप्य": 2729,
      "मनुष्या": 2730,
      "सेनां": 2731,
      "सर्वाः": 2732,
      "यथो": 2733,
      "वसुधा": 2734,
      "हनु": 2735,
      "क्ष्वा": 2736,
      "पार्था": 2737,
      "याच": 2738,
      "र्षभाः": 2739,
      "मोद": 2740,
      "क्षिप्य": 2741,
      "शरवर्ष": 2742,
      "मुखः": 2743,
      "लक्ष्मणः": 2744,
      "सर्वभूतानां": 2745,
      "मिच्छसि": 2746,
      "कथा": 2747,
      "गतिः": 2748,
      "नकुल": 2749,
      "वपु": 2750,
      "सते": 2751,
      "मार्क": 2752,
      "सात्व": 2753,
      "लोभ": 2754,
      "वृत्र": 2755,
      "प्सर": 2756,
      "तपः": 2757,
      "शूल": 2758,
      "शूद्र": 2759,
      "पञ्चा": 2760,
      "कश्चित्": 2761,
      "बहवो": 2762,
      "प्रसादा": 2763,
      "मैथिली": 2764,
      "ल्यं": 2765,
      "वयम्": 2766,
      "है": 2767,
      "ाने": 2768,
      "माग": 2769,
      "माद्र": 2770,
      "क्षत": 2771,
      "देवानां": 2772,
      "तत्रैव": 2773,
      "समुप": 2774,
      "निहतं": 2775,
      "मन्यते": 2776,
      "गतिम्": 2777,
      "गृहीत्वा": 2778,
      "भ्रातृभिः": 2779,
      "यामि": 2780,
      "मेक": 2781,
      "वैर": 2782,
      "गामि": 2783,
      "रूपि": 2784,
      "युधिष्ठिरम्": 2785,
      "तेजाः": 2786,
      "यान्तं": 2787,
      "द्रौपदी": 2788,
      "माणा": 2789,
      "मुदा": 2790,
      "पार्थं": 2791,
      "मुखं": 2792,
      "समन्वितः": 2793,
      "समाहितः": 2794,
      "जरा": 2795,
      "डि": 2796,
      "तनम्": 2797,
      "यच्छ": 2798,
      "क्षये": 2799,
      "कालो": 2800,
      "ेनं": 2801,
      "सहिता": 2802,
      "धार्मि": 2803,
      "हुर्": 2804,
      "येषां": 2805,
      "स्यं": 2806,
      "सर्वेषु": 2807,
      "क्ते": 2808,
      "मानाः": 2809,
      "जातु": 2810,
      "ग्ने": 2811,
      "र्दश": 2812,
      "दशग्र": 2813,
      "भीष्मः": 2814,
      "मय": 2815,
      "समनु": 2816,
      "प्रवर्त": 2817,
      "ष्टौ": 2818,
      "भिषे": 2819,
      "वृत्य": 2820,
      "क्यं": 2821,
      "गवां": 2822,
      "पत्र": 2823,
      "यतो": 2824,
      "लभे": 2825,
      "विनी": 2826,
      "ष्प": 2827,
      "निरु": 2828,
      "देवः": 2829,
      "त्राणि": 2830,
      "प्राप्तो": 2831,
      "तेजो": 2832,
      "वक्तु": 2833,
      "वर्णा": 2834,
      "हन्या": 2835,
      "नारी": 2836,
      "सर्वलोक": 2837,
      "समो": 2838,
      "हात्": 2839,
      "श्रुतम्": 2840,
      "गच्छन्ति": 2841,
      "श्नुते": 2842,
      "गमिष्यामि": 2843,
      "पुण्यं": 2844,
      "मार्कण्ड": 2845,
      "गमाः": 2846,
      "याद": 2847,
      "याय": 2848,
      "दिवाक": 2849,
      "भूयो": 2850,
      "कृतवर्मा": 2851,
      "्येत": 2852,
      "जाम्ब": 2853,
      "भवता": 2854,
      "गात्र": 2855,
      "चित्रा": 2856,
      "पुरुषः": 2857,
      "ध्याय": 2858,
      "दद्या": 2859,
      "समेत्य": 2860,
      "निशम्य": 2861,
      "दय": 2862,
      "मयो": 2863,
      "सनं": 2864,
      "हिते": 2865,
      "प्रस्थ": 2866,
      "स्तत्": 2867,
      "स्तेषां": 2868,
      "न्त्र": 2869,
      "कुरुष": 2870,
      "र्थि": 2871,
      "पूर्वा": 2872,
      "स्थाप": 2873,
      "निःश्व": 2874,
      "जानामि": 2875,
      "स्मृतः": 2876,
      "शकुनि": 2877,
      "खङ्ग": 2878,
      "वन्ति": 2879,
      "सन्ति": 2880,
      "सखा": 2881,
      "प्रदा": 2882,
      "केक": 2883,
      "परिष्व": 2884,
      "प्राप्ता": 2885,
      "महीं": 2886,
      "प्रेत्य": 2887,
      "शरणं": 2888,
      "हन्य": 2889,
      "प्रदक्षि": 2890,
      "प्रकृति": 2891,
      "नापि": 2892,
      "मिवो": 2893,
      "परवीर": 2894,
      "पौर": 2895,
      "करिष्यामि": 2896,
      "ोत्क": 2897,
      "गैः": 2898,
      "काशे": 2899,
      "सुः": 2900,
      "राजन्न": 2901,
      "जयद्रथ": 2902,
      "ब्रवीमि": 2903,
      "निहत्य": 2904,
      "प्या": 2905,
      "पदं": 2906,
      "भज": 2907,
      "वल्": 2908,
      "्यां": 2909,
      "विर": 2910,
      "स्मित": 2911,
      "द्यू": 2912,
      "दीन": 2913,
      "त्रिषु": 2914,
      "रावणं": 2915,
      "खलु": 2916,
      "नघ": 2917,
      "हन्": 2918,
      "्यते": 2919,
      "सुमह": 2920,
      "श्रिया": 2921,
      "र्ये": 2922,
      "पिब": 2923,
      "ह्नि": 2924,
      "जाल": 2925,
      "पूर": 2926,
      "चैवा": 2927,
      "महारथम्": 2928,
      "विनाश": 2929,
      "कूट": 2930,
      "पाञ्चाल": 2931,
      "धो": 2932,
      "नन्त": 2933,
      "वर्च": 2934,
      "विप्रा": 2935,
      "विदुः": 2936,
      "माहवे": 2937,
      "ष्णि": 2938,
      "क्षयं": 2939,
      "ृत्त": 2940,
      "द्रक्ष्य": 2941,
      "तुर": 2942,
      "वेण": 2943,
      "ज्ञः": 2944,
      "स्त्वां": 2945,
      "ब्राह्मणो": 2946,
      "लक्ष्मणं": 2947,
      "कुलम्": 2948,
      "सागर": 2949,
      "कर्श": 2950,
      "जौ": 2951,
      "पल": 2952,
      "यस्या": 2953,
      "प्रहा": 2954,
      "क्षौ": 2955,
      "ोऽभि": 2956,
      "बले": 2957,
      "कदाचन": 2958,
      "चान्य": 2959,
      "भयम्": 2960,
      "ीत": 2961,
      "प्रगृह्य": 2962,
      "ग्रतः": 2963,
      "राष्ट्रा": 2964,
      "विविधानि": 2965,
      "नाराच": 2966,
      "गर्भ": 2967,
      "पार्श्व": 2968,
      "घटोत्क": 2969,
      "तनु": 2970,
      "मयं": 2971,
      "ैरा": 2972,
      "द्रवत्": 2973,
      "ैवं": 2974,
      "प्राणि": 2975,
      "सहे": 2976,
      "रिवा": 2977,
      "पार्थः": 2978,
      "परां": 2979,
      "प्रियम्": 2980,
      "क्षेत्र": 2981,
      "करः": 2982,
      "ष्मा": 2983,
      "काशि": 2984,
      "ोऽब्रवीत्": 2985,
      "कुला": 2986,
      "ान्तर": 2987,
      "सम्पन्न": 2988,
      "दर्प": 2989,
      "विशत्": 2990,
      "सहस्रं": 2991,
      "पाण्डवैः": 2992,
      "जेत्": 2993,
      "ग्रहः": 2994,
      "वार्ष्ण": 2995,
      "कद": 2996,
      "्वि": 2997,
      "स्येव": 2998,
      "मुहु": 2999,
      "मेधा": 3000,
      "दीप्य": 3001,
      "भृगु": 3002,
      "पृथिव्यां": 3003,
      "स्कन्ध": 3004,
      "कण्ठ": 3005,
      "लक्ष्य": 3006,
      "सचि": 3007,
      "ऽस्मिन्": 3008,
      "रामे": 3009,
      "विख्या": 3010,
      "निरी": 3011,
      "यथाविधि": 3012,
      "मुक्त्वा": 3013,
      "व्रतः": 3014,
      "कृताञ्जलि": 3015,
      "चेतसः": 3016,
      "तल": 3017,
      "्यः": 3018,
      "ानपि": 3019,
      "काम्य": 3020,
      "दिश्य": 3021,
      "र्थो": 3022,
      "देवता": 3023,
      "नृशं": 3024,
      "द्रोणो": 3025,
      "त्मनो": 3026,
      "प्रेक्ष": 3027,
      "स्नात्वा": 3028,
      "गर्ज": 3029,
      "धेन": 3030,
      "नष्ट": 3031,
      "सुप्त": 3032,
      "महातेजाः": 3033,
      "व्यक्तं": 3034,
      "सहितो": 3035,
      "बलवान्": 3036,
      "वर्तन्त": 3037,
      "गच्छा": 3038,
      "गतिं": 3039,
      "सनातनः": 3040,
      "जने": 3041,
      "वर्म": 3042,
      "प्रज्ञा": 3043,
      "प्रमत्त": 3044,
      "विवेश": 3045,
      "क्षयम्": 3046,
      "परित": 3047,
      "धर्मस्य": 3048,
      "न्यः": 3049,
      "्युत": 3050,
      "नमस्": 3051,
      "एवमुक्तस्तु": 3052,
      "दक्षिणा": 3053,
      "श्वास": 3054,
      "एतद्": 3055,
      "गन्त": 3056,
      "पशु": 3057,
      "विमान": 3058,
      "द्भि": 3059,
      "संच": 3060,
      "सुदारु": 3061,
      "साक्षा": 3062,
      "ोऽभ्य": 3063,
      "त्ता": 3064,
      "ैर्बहु": 3065,
      "जीवितं": 3066,
      "चैनं": 3067,
      "रावणस्य": 3068,
      "गू": 3069,
      "यतः": 3070,
      "निर्द": 3071,
      "ष्टु": 3072,
      "भूते": 3073,
      "स्थो": 3074,
      "हुताश": 3075,
      "गुप्त": 3076,
      "पितॄ": 3077,
      "शतश": 3078,
      "यथान्या": 3079,
      "दग्ध": 3080,
      "मङ्ग": 3081,
      "विविधा": 3082,
      "संघ": 3083,
      "ृतः": 3084,
      "दुर्ज": 3085,
      "भवः": 3086,
      "केतु": 3087,
      "द्विजः": 3088,
      "वीरौ": 3089,
      "भीमसेनं": 3090,
      "शुभं": 3091,
      "प्रविश": 3092,
      "रात्रि": 3093,
      "विज्ञाय": 3094,
      "मात्": 3095,
      "राज्ये": 3096,
      "योजन": 3097,
      "प्रार्थ": 3098,
      "गाङ्ग": 3099,
      "ज्ञाति": 3100,
      "स्तेऽ": 3101,
      "मनुत्तमम्": 3102,
      "जीवित": 3103,
      "भवेद्": 3104,
      "फलम्": 3105,
      "हृदयं": 3106,
      "धन्वि": 3107,
      "करम्": 3108,
      "पप्रच्छ": 3109,
      "रति": 3110,
      "षेण": 3111,
      "विमुक्त": 3112,
      "महो": 3113,
      "त्यज": 3114,
      "रोप": 3115,
      "रथेन": 3116,
      "नील": 3117,
      "पतितं": 3118,
      "पश्यन्ति": 3119,
      "पार्थिवः": 3120,
      "ैर्यु": 3121,
      "सम्यक्": 3122,
      "शन": 3123,
      "ानृ": 3124,
      "देहि": 3125,
      "चारु": 3126,
      "्युवाच": 3127,
      "पुनरेव": 3128,
      "सैनि": 3129,
      "निधनं": 3130,
      "पुत्रान्": 3131,
      "हासं": 3132,
      "वृता": 3133,
      "श्रुतं": 3134,
      "ब्राह्मणे": 3135,
      "भृति": 3136,
      "कुरूणां": 3137,
      "द्रष्टु": 3138,
      "दध": 3139,
      "यैः": 3140,
      "वु": 3141,
      "वना": 3142,
      "सर्ग": 3143,
      "िरे": 3144,
      "क्षया": 3145,
      "मुद्": 3146,
      "येद्": 3147,
      "श्रुत": 3148,
      "पतन्तं": 3149,
      "पुरातनम्": 3150,
      "बुद्धिः": 3151,
      "प्रययौ": 3152,
      "उच्यते": 3153,
      "तैर्": 3154,
      "भग्": 3155,
      "मत": 3156,
      "ोत्त": 3157,
      "प्रभृति": 3158,
      "मासी": 3159,
      "कारणं": 3160,
      "तुमर्हसि": 3161,
      "सर्वत्र": 3162,
      "लोम": 3163,
      "शाप": 3164,
      "शाय": 3165,
      "प्रतिज्ञा": 3166,
      "सर्वां": 3167,
      "हेतो": 3168,
      "श्रेष्ठः": 3169,
      "पर्वत": 3170,
      "प्रहसन्": 3171,
      "भद्रे": 3172,
      "विद्ध्वा": 3173,
      "ज्वा": 3174,
      "ण्या": 3175,
      "क्षय": 3176,
      "न्त्या": 3177,
      "ोऽनु": 3178,
      "रथः": 3179,
      "ष्णी": 3180,
      "रावणो": 3181,
      "निःस्व": 3182,
      "शितैः": 3183,
      "शान्ति": 3184,
      "यशः": 3185,
      "सतां": 3186,
      "हस्ति": 3187,
      "सुहृद": 3188,
      "द्रवन्": 3189,
      "श्रम": 3190,
      "वेश्म": 3191,
      "त्वे": 3192,
      "केचित्": 3193,
      "त्मनि": 3194,
      "अहो": 3195,
      "ऊचुः": 3196,
      "पदे": 3197,
      "भयात्": 3198,
      "सङ्": 3199,
      "ैस्त": 3200,
      "पूर्णा": 3201,
      "राक्षसः": 3202,
      "पन्नं": 3203,
      "शुभम्": 3204,
      "समीप": 3205,
      "भ्रातरं": 3206,
      "शोणित": 3207,
      "जघ्": 3208,
      "तप्य": 3209,
      "वशे": 3210,
      "शनि": 3211,
      "स्तद्": 3212,
      "काङ्": 3213,
      "महाहवे": 3214,
      "वृतम्": 3215,
      "राक्षसी": 3216,
      "ञ्जय": 3217,
      "महीपतिः": 3218,
      "जितेन्द्रि": 3219,
      "कन": 3220,
      "फला": 3221,
      "मतो": 3222,
      "मनाः": 3223,
      "रम्य": 3224,
      "काला": 3225,
      "महाभा": 3226,
      "स्यापि": 3227,
      "पश्यन्": 3228,
      "लुब्ध": 3229,
      "यथे": 3230,
      "करोत्": 3231,
      "रथिनां": 3232,
      "सौमित्रि": 3233,
      "गजा": 3234,
      "नानु": 3235,
      "वधा": 3236,
      "विच": 3237,
      "श्चक्र": 3238,
      "कारं": 3239,
      "संग": 3240,
      "सुयोध": 3241,
      "श्रमं": 3242,
      "त्तु": 3243,
      "ष्ठं": 3244,
      "पुत्रौ": 3245,
      "देवताः": 3246,
      "गृहा": 3247,
      "भगवान": 3248,
      "दुर्लभ": 3249,
      "दिवौक": 3250,
      "प्नुयात्": 3251,
      "रुक्म": 3252,
      "ैर्म": 3253,
      "काश्च": 3254,
      "दिदं": 3255,
      "चिर": 3256,
      "तस्यां": 3257,
      "विदितं": 3258,
      "मन्त्र्य": 3259,
      "बलात्": 3260,
      "मर्द": 3261,
      "ैरिव": 3262,
      "कारा": 3263,
      "संवि": 3264,
      "सुरे": 3265,
      "ज्ञो": 3266,
      "स्थिते": 3267,
      "शुश्रु": 3268,
      "यन्निव": 3269,
      "वीर्यं": 3270,
      "पादौ": 3271,
      "निश्चयः": 3272,
      "विदुर": 3273,
      "लोचनः": 3274,
      "माद्री": 3275,
      "खे": 3276,
      "चं": 3277,
      "भग्न": 3278,
      "यताम्": 3279,
      "निर्व": 3280,
      "पाश": 3281,
      "संक्रुद्ध": 3282,
      "राजो": 3283,
      "र्थी": 3284,
      "कृत्या": 3285,
      "ान्तरे": 3286,
      "रक्षसां": 3287,
      "दानेन": 3288,
      "चरन्": 3289,
      "द्रष्टुं": 3290,
      "षट्": 3291,
      "द्भिः": 3292,
      "मुच्य": 3293,
      "स्वय": 3294,
      "र्तु": 3295,
      "प्राप": 3296,
      "ङ्गु": 3297,
      "स्थितो": 3298,
      "चिरा": 3299,
      "गुणं": 3300,
      "वृष्टि": 3301,
      "हंस": 3302,
      "राज्ञां": 3303,
      "धृति": 3304,
      "मुत्सृज्य": 3305,
      "आत्म": 3306,
      "एका": 3307,
      "नहि": 3308,
      "हित्वा": 3309,
      "ाश्च": 3310,
      "विजय": 3311,
      "मातृ": 3312,
      "वाग्": 3313,
      "महाका": 3314,
      "सर्वथा": 3315,
      "नीं": 3316,
      "इत्येव": 3317,
      "सदृशं": 3318,
      "जहि": 3319,
      "तमो": 3320,
      "भल्": 3321,
      "पापा": 3322,
      "कुतो": 3323,
      "श्वेत": 3324,
      "चिद्": 3325,
      "न्यवेद": 3326,
      "कर्मणः": 3327,
      "सौबल": 3328,
      "दर्शन": 3329,
      "दानी": 3330,
      "जीवति": 3331,
      "भविष्य": 3332,
      "वासव": 3333,
      "गणाः": 3334,
      "हन्ता": 3335,
      "लङ्क": 3336,
      "कुर्वा": 3337,
      "भीमः": 3338,
      "भ्यश्च": 3339,
      "दीप": 3340,
      "स्मिन्न": 3341,
      "वारयन्": 3342,
      "निशाच": 3343,
      "उद": 3344,
      "त्रयो": 3345,
      "पुण्ड": 3346,
      "संकाश": 3347,
      "युर्": 3348,
      "सिन्ध": 3349,
      "धारि": 3350,
      "गुणो": 3351,
      "शीविष": 3352,
      "र्जुनो": 3353,
      "श्रूयते": 3354,
      "पुण्या": 3355,
      "स्नेह": 3356,
      "रश्मि": 3357,
      "गस्त्य": 3358,
      "वय": 3359,
      "हन्ति": 3360,
      "ैक": 3361,
      "प्रशंस": 3362,
      "सादि": 3363,
      "परुष": 3364,
      "वेक्ष": 3365,
      "सहिताः": 3366,
      "कृच्छ्र": 3367,
      "शिबि": 3368,
      "समाश्र": 3369,
      "पुरुषं": 3370,
      "शूराः": 3371,
      "ब्राह्मणानां": 3372,
      "मृतं": 3373,
      "दृश्यत": 3374,
      "परस्पर": 3375,
      "सात्यकिः": 3376,
      "वृकोदरः": 3377,
      "मिथ्या": 3378,
      "ययाति": 3379,
      "लू": 3380,
      "वशं": 3381,
      "नाभ्य": 3382,
      "याम": 3383,
      "पर्यु": 3384,
      "गात्": 3385,
      "वृष्णि": 3386,
      "स्यास्य": 3387,
      "किंचन": 3388,
      "पितुः": 3389,
      "कर्तव्यं": 3390,
      "शक्तिं": 3391,
      "सैन्यानि": 3392,
      "कुशलं": 3393,
      "प्रेषयामास": 3394,
      "ित्व": 3395,
      "संस्": 3396,
      "प्राप्स्य": 3397,
      "र्थः": 3398,
      "नृपति": 3399,
      "बुद्धिं": 3400,
      "पश्ये": 3401,
      "शैने": 3402,
      "वाहनः": 3403,
      "पद्म": 3404,
      "स्पृश": 3405,
      "गमनं": 3406,
      "तन": 3407,
      "पत्त": 3408,
      "हताः": 3409,
      "रेणा": 3410,
      "शार": 3411,
      "जायत": 3412,
      "भवम्": 3413,
      "ग्रे": 3414,
      "स्माद्": 3415,
      "हृदि": 3416,
      "ब्राह्मणं": 3417,
      "गच्छे": 3418,
      "तथे": 3419,
      "नरर्षभ": 3420,
      "क्षुद्र": 3421,
      "प्राणान्": 3422,
      "कपिः": 3423,
      "परवीरहा": 3424,
      "गम्": 3425,
      "चल": 3426,
      "चन्द": 3427,
      "वारि": 3428,
      "श्चित्र": 3429,
      "संक्रुद्धो": 3430,
      "ष्ट्वा": 3431,
      "शेते": 3432,
      "वारयत्": 3433,
      "प्रोवाच": 3434,
      "धृष्टद्युम्न": 3435,
      "ध्रुवं": 3436,
      "ह्री": 3437,
      "कर्णा": 3438,
      "संरब्ध": 3439,
      "योधा": 3440,
      "वीराः": 3441,
      "हिरण्य": 3442,
      "शाम्य": 3443,
      "परिवार्य": 3444,
      "गृध्र": 3445,
      "शरान्": 3446,
      "ानुवाच": 3447,
      "विधं": 3448,
      "शृण्व": 3449,
      "जनाधिप": 3450,
      "वधं": 3451,
      "नगरं": 3452,
      "कश्चिद्": 3453,
      "कश्य": 3454,
      "भवा": 3455,
      "यत्रा": 3456,
      "र्चि": 3457,
      "संज": 3458,
      "संताप": 3459,
      "ोऽप्य": 3460,
      "स्वे": 3461,
      "र्षी": 3462,
      "रिपु": 3463,
      "स्थितं": 3464,
      "मोघ": 3465,
      "ैर्बाण": 3466,
      "भुञ्ज": 3467,
      "पित्रा": 3468,
      "चक्रमे": 3469,
      "दुर्योधनं": 3470,
      "ख्यातं": 3471,
      "संनिभ": 3472,
      "निषेव": 3473,
      "नहु": 3474,
      "मती": 3475,
      "परान्": 3476,
      "गृहं": 3477,
      "पार्थस्य": 3478,
      "मृदु": 3479,
      "पेतु": 3480,
      "ब्धा": 3481,
      "चक्षुषा": 3482,
      "जनः": 3483,
      "तयोः": 3484,
      "दह": 3485,
      "दमः": 3486,
      "भानु": 3487,
      "भक्ष्य": 3488,
      "ैस्तथा": 3489,
      "विवर्ध": 3490,
      "न्दा": 3491,
      "पाता": 3492,
      "न्तश्च": 3493,
      "दाशा": 3494,
      "परमां": 3495,
      "दुन्दु": 3496,
      "त्वमा": 3497,
      "प्सु": 3498,
      "पार्थेन": 3499,
      "क्ष्यति": 3500,
      "प्रीतो": 3501,
      "भीष्मो": 3502,
      "मूर्धनि": 3503,
      "चान": 3504,
      "तान्य": 3505,
      "हरी": 3506,
      "ोऽस्ति": 3507,
      "चिक्षेप": 3508,
      "वृते": 3509,
      "क्षिप्त": 3510,
      "एवमुक्तः": 3511,
      "सायकैः": 3512,
      "कच्चित्": 3513,
      "शिखण्डी": 3514,
      "किरीटि": 3515,
      "शुद्ध": 3516,
      "वृतो": 3517,
      "अथवा": 3518,
      "चिन्तयन्": 3519,
      "निर्घोष": 3520,
      "भृत्य": 3521,
      "जग्मुः": 3522,
      "रोचते": 3523,
      "वासिनः": 3524,
      "किमर्थं": 3525,
      "गरु": 3526,
      "घृ": 3527,
      "जित्वा": 3528,
      "रसा": 3529,
      "लभ्य": 3530,
      "ोः": 3531,
      "नाद्": 3532,
      "निवेद": 3533,
      "कात्": 3534,
      "सुराः": 3535,
      "वेन्द्र": 3536,
      "वीर्या": 3537,
      "ज्ञाना": 3538,
      "सम्प्रेक्ष्य": 3539,
      "लोकानां": 3540,
      "ब्रह्मच": 3541,
      "दर्शनं": 3542,
      "विधिवत्": 3543,
      "लङ्कां": 3544,
      "डा": 3545,
      "धं": 3546,
      "ृषि": 3547,
      "पुरे": 3548,
      "सर्वस्य": 3549,
      "यत्न": 3550,
      "मुखो": 3551,
      "प्रियः": 3552,
      "त्मने": 3553,
      "गोविन्द": 3554,
      "तेजस्वी": 3555,
      "भीमसेनो": 3556,
      "नैष": 3557,
      "दूष": 3558,
      "धूम": 3559,
      "गदया": 3560,
      "स्तूर्णं": 3561,
      "विद्वान्": 3562,
      "चरेत्": 3563,
      "अन्योन्य": 3564,
      ":॥": 3565,
      "चर्म": 3566,
      "वधे": 3567,
      "हव्य": 3568,
      "ैरि": 3569,
      "वाकि": 3570,
      "तिथ": 3571,
      "्याश्च": 3572,
      "काशा": 3573,
      "संवा": 3574,
      "ष्टिं": 3575,
      "समभि": 3576,
      "द्वन्": 3577,
      "द्रोणः": 3578,
      "घोरा": 3579,
      "मन्तं": 3580,
      "सुखा": 3581,
      "हीन": 3582,
      "कुरुनन्दन": 3583,
      "सोऽहं": 3584,
      "करोति": 3585,
      "श्छि": 3586,
      "वाहिनीम्": 3587,
      "यथान्यायं": 3588,
      "दह्य": 3589,
      "वरो": 3590,
      "ैषि": 3591,
      "विं": 3592,
      "मायु": 3593,
      "सावित्र": 3594,
      "कृष्य": 3595,
      "परिवार": 3596,
      "समुद्": 3597,
      "भ्रात्रा": 3598,
      "व्रता": 3599,
      "नरश्रेष्ठ": 3600,
      "भविष्यसि": 3601,
      "धृतराष्ट्रस्य": 3602,
      "द्रौपदे": 3603,
      "शुश्रूष": 3604,
      "सव्यसाचि": 3605,
      "एतच्छ्रुत्वा": 3606,
      "जटा": 3607,
      "णान्": 3608,
      "मल": 3609,
      "वर्ग": 3610,
      "वाक्": 3611,
      "काश्य": 3612,
      "मेरु": 3613,
      "दाता": 3614,
      "ेनैव": 3615,
      "परमो": 3616,
      "युयुध": 3617,
      "मानवाः": 3618,
      "प्राणा": 3619,
      "स्त्रेण": 3620,
      "स्त्वर": 3621,
      "मूलं": 3622,
      "वानराः": 3623,
      "तस्माद": 3624,
      "भरद्वा": 3625,
      "मुहुर्मु": 3626,
      "कला": 3627,
      "ननाद": 3628,
      "नृत्य": 3629,
      "स्यन्द": 3630,
      "मेकं": 3631,
      "सर्वेषा": 3632,
      "स्मी": 3633,
      "धीमता": 3634,
      "समन्तात्": 3635,
      "करिष्यति": 3636,
      "र्थाय": 3637,
      "मार्कण्डेय": 3638,
      "कुरुष्व": 3639,
      "अङ्ग": 3640,
      "जये": 3641,
      "जङ्ग": 3642,
      "नमः": 3643,
      "भविष": 3644,
      "माणो": 3645,
      "योप": 3646,
      "हिमव": 3647,
      "वैदेह": 3648,
      "शुक्र": 3649,
      "शुशुभे": 3650,
      "वर्ति": 3651,
      "पश्यतः": 3652,
      "विदां": 3653,
      "संशयं": 3654,
      "विशाला": 3655,
      "पन्नः": 3656,
      "लक्षणम्": 3657,
      "शब्देन": 3658,
      "जनार्दन": 3659,
      "बृहस्पति": 3660,
      "अत्रा": 3661,
      "केषु": 3662,
      "कन्यां": 3663,
      "यज्ञा": 3664,
      "लान्": 3665,
      "र्हा": 3666,
      "प्रदीप्त": 3667,
      "विचार": 3668,
      "रुप": 3669,
      "च्छति": 3670,
      "भूद्": 3671,
      "धारा": 3672,
      "नृपा": 3673,
      "मुखाः": 3674,
      "ैरभि": 3675,
      "निहतो": 3676,
      "शान्तन": 3677,
      "पुरोगमाः": 3678,
      "नराधिपः": 3679,
      "पश्याम": 3680,
      "परिष्वज्य": 3681,
      "गङ्ग": 3682,
      "जिता": 3683,
      "नभ": 3684,
      "पत्ति": 3685,
      "सग": 3686,
      "वासं": 3687,
      "निपत": 3688,
      "मुष्टि": 3689,
      "मुमोच": 3690,
      "व्यः": 3691,
      "धिष्ठ": 3692,
      "रेत्": 3693,
      "वृथा": 3694,
      "दृष्टा": 3695,
      "श्रुति": 3696,
      "सौति": 3697,
      "वीर्येण": 3698,
      "सहस्रेण": 3699,
      "यज्ञे": 3700,
      "भर्तृ": 3701,
      "पुङ्गवः": 3702,
      "त्रैलोक्य": 3703,
      "सरस्वती": 3704,
      "तमुवाच": 3705,
      "रन्ति": 3706,
      "शक्": 3707,
      "हया": 3708,
      "ऽहं": 3709,
      "विराज": 3710,
      "निष्ठ": 3711,
      "निघ्न": 3712,
      "कुलो": 3713,
      "च्छसि": 3714,
      "मान्य": 3715,
      "ज्ञाप": 3716,
      "शरैर्": 3717,
      "त्रिभिः": 3718,
      "सौभद्र": 3719,
      "स्रो": 3720,
      "भीष्मस्य": 3721,
      "मितिहासं": 3722,
      "दृश्यन्त": 3723,
      "यन्तो": 3724,
      "महारथान्": 3725,
      "सत्त्वं": 3726,
      "गौतम": 3727,
      "पुरंद": 3728,
      "किंचिद": 3729,
      "विपुलं": 3730,
      "वादिनः": 3731,
      "छिन्न": 3732,
      "परित्यज्य": 3733,
      "ँल्": 3734,
      "यस्मिन्": 3735,
      "षितः": 3736,
      "र्दि": 3737,
      "विदो": 3738,
      "स्त्वा": 3739,
      "कामो": 3740,
      "दाहर": 3741,
      "श्रमे": 3742,
      "ज्ञां": 3743,
      "द्वह": 3744,
      "देवस्य": 3745,
      "किञ्च": 3746,
      "म्बो": 3747,
      "योगेन": 3748,
      "स्पर्": 3749,
      "प्रसन्न": 3750,
      "अब्रवीत्": 3751,
      "पान्": 3752,
      "मव्य": 3753,
      "मतां": 3754,
      "मरिंदम": 3755,
      "यितु": 3756,
      "प्रश्": 3757,
      "मात्रा": 3758,
      "द्द": 3759,
      "श्चे": 3760,
      "काय": 3761,
      "मुह्य": 3762,
      "कुट": 3763,
      "त्वत्त": 3764,
      "चारी": 3765,
      "समः": 3766,
      "वच्च": 3767,
      "वृतं": 3768,
      "कर्मणि": 3769,
      "कीर्णं": 3770,
      "तथैवा": 3771,
      "जेतुं": 3772,
      "ध्रुवम्": 3773,
      "नारायण": 3774,
      "गान्धारी": 3775,
      "जिघांस": 3776,
      "भां": 3777,
      "ममे": 3778,
      "ानेन": 3779,
      "प्रणि": 3780,
      "विगत": 3781,
      "मालि": 3782,
      "स्तन": 3783,
      "मुन": 3784,
      "मनस्वि": 3785,
      "मानवः": 3786,
      "नेत्र": 3787,
      "ङ्गी": 3788,
      "दंष्ट्र": 3789,
      "ध्वजं": 3790,
      "स्ताव": 3791,
      "शतानि": 3792,
      "प्रहर्ष": 3793,
      "सिंहनाद": 3794,
      "तत्त्वतः": 3795,
      "सर्वभूतानि": 3796,
      "मनीषिणः": 3797,
      "सत्तमाः": 3798,
      "तपर्वभिः": 3799,
      "बीभत्सु": 3800,
      "छाद": 3801,
      "पथि": 3802,
      "लैः": 3803,
      "ष्यं": 3804,
      "सव": 3805,
      "ैष": 3806,
      "प्रमे": 3807,
      "राश्च": 3808,
      "तिथि": 3809,
      "निवे": 3810,
      "त्यक्त": 3811,
      "र्मम": 3812,
      "स्वेन": 3813,
      "श्वि": 3814,
      "रण्ये": 3815,
      "श्यति": 3816,
      "तीनां": 3817,
      "मित्येव": 3818,
      "दृष्ट्व": 3819,
      "तेजसः": 3820,
      "चरितं": 3821,
      "गुणान्": 3822,
      "विक्रम": 3823,
      "भीमसेनस्य": 3824,
      "भीमसेनेन": 3825,
      "कुर्वन्": 3826,
      "शुचिः": 3827,
      "अश्वत्था": 3828,
      "पुण्डरी": 3829,
      "अर्थ": 3830,
      "अब्रवी": 3831,
      "यसे": 3832,
      "वक्र": 3833,
      "स्ताः": 3834,
      "पारग": 3835,
      "मेत": 3836,
      "युधा": 3837,
      "रुद्ध": 3838,
      "धिः": 3839,
      "लोमहर्ष": 3840,
      "द्वेष": 3841,
      "देवराज": 3842,
      "शिरः": 3843,
      "ङ्गं": 3844,
      "जयत्": 3845,
      "नृपते": 3846,
      "प्रिये": 3847,
      "जिरे": 3848,
      "न्तीम": 3849,
      "वक्त्र": 3850,
      "राजानो": 3851,
      "सनातनम्": 3852,
      "सौतिरुवाच": 3853,
      "अस": 3854,
      "एवा": 3855,
      "गां": 3856,
      "मद्": 3857,
      "म्या": 3858,
      "हयान्": 3859,
      "प्रधान": 3860,
      "नादं": 3861,
      "वेक्ष्य": 3862,
      "मानी": 3863,
      "सम्म": 3864,
      "प्रतिगृह्य": 3865,
      "पाण्डवं": 3866,
      "परिघ": 3867,
      "कर्णेन": 3868,
      "मनुज": 3869,
      "ब्राह्मणः": 3870,
      "कौशि": 3871,
      "पेत": 3872,
      "स्तिष्ठ": 3873,
      "कालस्य": 3874,
      "निहता": 3875,
      "संशयम्": 3876,
      "भविष्यन्ति": 3877,
      "इत्येवं": 3878,
      "रांसि": 3879,
      "विवर्ज": 3880,
      "परंतपः": 3881,
      "तव्यं": 3882,
      "यन्न": 3883,
      "ानो": 3884,
      "संकल्प": 3885,
      "सहित": 3886,
      "जाता": 3887,
      "जामद": 3888,
      "स्याद": 3889,
      "भिर्बाण": 3890,
      "पूजितः": 3891,
      "रांश्च": 3892,
      "शरीरं": 3893,
      "दैवं": 3894,
      "एषा": 3895,
      "भित्त्वा": 3896,
      "िका": 3897,
      "प्रवर्तते": 3898,
      "विश्र": 3899,
      "वाम": 3900,
      "संयुक्त": 3901,
      "दुष्ट": 3902,
      "त्यर्थं": 3903,
      "भार्यां": 3904,
      "दिशम्": 3905,
      "बाहू": 3906,
      "ग्धा": 3907,
      "पतद्": 3908,
      "धीमान्": 3909,
      "पृथिव्या": 3910,
      "अन्व": 3911,
      "धर्मराजो": 3912,
      "त्युक्त्वा": 3913,
      "प्लुत्य": 3914,
      "हिंसा": 3915,
      "क्रूर": 3916,
      "षड": 3917,
      "ाद्": 3918,
      "विनिश्च": 3919,
      "विह्व": 3920,
      "निर्या": 3921,
      "भूयि": 3922,
      "णाय": 3923,
      "च्चैव": 3924,
      "निहते": 3925,
      "क्षुर": 3926,
      "पार्थिवाः": 3927,
      "कौरवा": 3928,
      "जीवि": 3929,
      "सृजत्": 3930,
      "धनंजयम्": 3931,
      "कौसल्या": 3932,
      "खड्": 3933,
      "तरु": 3934,
      "नोऽ": 3935,
      "भयो": 3936,
      "यमान": 3937,
      "शरं": 3938,
      "निर्य": 3939,
      "स्फा": 3940,
      "मिदमब्रवीत्": 3941,
      "दुपद": 3942,
      "दुद्राव": 3943,
      "तीव्र": 3944,
      "कर्मसु": 3945,
      "राक्षसं": 3946,
      "चेत्": 3947,
      "तेनैव": 3948,
      "ञ्जन": 3949,
      "प्राप्ते": 3950,
      "धनुर्": 3951,
      "भरतसत्तम": 3952,
      "वदन्ति": 3953,
      "शक्या": 3954,
      "शासनात्": 3955,
      "ब्रुवा": 3956,
      "पराक्रमम्": 3957,
      "इन्द्रिया": 3958,
      "तस्मिं": 3959,
      "आरु": 3960,
      "कलि": 3961,
      "जसा": 3962,
      "भ्यं": 3963,
      "मर्म": 3964,
      "ितानि": 3965,
      "मात्म": 3966,
      "वात्": 3967,
      "थाय": 3968,
      "मिष": 3969,
      "ोऽस्य": 3970,
      "चाल": 3971,
      "रोद": 3972,
      "स्थः": 3973,
      "दीक्ष": 3974,
      "स्मरन्": 3975,
      "वर्तन्ते": 3976,
      "कर्मभिः": 3977,
      "मूर्ति": 3978,
      "पुनरे": 3979,
      "ब्राह्मणस्य": 3980,
      "विधिना": 3981,
      "संनिधौ": 3982,
      "स्पृश्य": 3983,
      "प्रवक्ष्यामि": 3984,
      "सदृश": 3985,
      "द्विजोत्तम": 3986,
      "द्वन्द्व": 3987,
      "जामदग्": 3988,
      "खं": 3989,
      "धर": 3990,
      "मर्त": 3991,
      "मर्थ": 3992,
      "स्तद": 3993,
      "न्धा": 3994,
      "परैः": 3995,
      "प्राप्नोति": 3996,
      "लोकाः": 3997,
      "पुत्रे": 3998,
      "भवत्य": 3999,
      "तांश्च": 4000,
      "गुह": 4001,
      "नीति": 4002,
      "दृष्टं": 4003,
      "ज्ञात": 4004,
      "पितर": 4005,
      "युधिष्ठिरो": 4006,
      "विदित्वा": 4007,
      "मन्यो": 4008,
      "तूर्ण": 4009,
      "रजनी": 4010,
      "मातरं": 4011,
      "पदाति": 4012,
      "भर्तारं": 4013,
      "क्लिष्ट": 4014,
      "समृद्ध": 4015,
      "ूनां": 4016,
      "तिर्य": 4017,
      "पार": 4018,
      "महामनाः": 4019,
      "र्येण": 4020,
      "प्रादा": 4021,
      "ज्ञया": 4022,
      "वैश्य": 4023,
      "रथान्": 4024,
      "रण्यं": 4025,
      "गुह्य": 4026,
      "ङ्गो": 4027,
      "नीय": 4028,
      "दीर्य": 4029,
      "यत्नेन": 4030,
      "कथितं": 4031,
      "मृष": 4032,
      "भ्राज": 4033,
      "तूह": 4034,
      "पृथु": 4035,
      "प्रभम्": 4036,
      "हृतं": 4037,
      "सिन्धु": 4038,
      "इवो": 4039,
      "वसे": 4040,
      "क्षितौ": 4041,
      "दासी": 4042,
      "वीक्ष्य": 4043,
      "च्छया": 4044,
      "तोप": 4045,
      "देवान्": 4046,
      "देवर्षि": 4047,
      "भवनं": 4048,
      "न्यथा": 4049,
      "मृते": 4050,
      "गुणाः": 4051,
      "गुणैः": 4052,
      "सैन्यस्य": 4053,
      "ौजसः": 4054,
      "जले": 4055,
      "तत्त": 4056,
      "तस्मान्": 4057,
      "बे": 4058,
      "मत्वा": 4059,
      "वेन": 4060,
      "सद्": 4061,
      "सक्त": 4062,
      "विः": 4063,
      "पिशा": 4064,
      "स्वप्": 4065,
      "ह्ला": 4066,
      "भवं": 4067,
      "गुहा": 4068,
      "ग्रही": 4069,
      "एवमे": 4070,
      "व्रताः": 4071,
      "प्रीत्या": 4072,
      "प्रजानां": 4073,
      "महर्षयः": 4074,
      "कार्याणि": 4075,
      "पूजयन्": 4076,
      "कण्ट": 4077,
      "कृत्स्नं": 4078,
      "भारद्वाज": 4079,
      "महाभागा": 4080,
      "अस्य": 4081,
      "बहि": 4082,
      "माणं": 4083,
      "न्तरे": 4084,
      "मुच": 4085,
      "सर्वकाम": 4086,
      "धिकं": 4087,
      "श्वो": 4088,
      "नुः": 4089,
      "येऽ": 4090,
      "धर्मभृतां": 4091,
      "बाला": 4092,
      "सीतया": 4093,
      "वर्तमाने": 4094,
      "ध्यां": 4095,
      "रामलक्ष्मण": 4096,
      "धनुरा": 4097,
      "मित्रं": 4098,
      "च्छाद": 4099,
      "तावुभौ": 4100,
      "हन्तुं": 4101,
      "सुग्रीवं": 4102,
      "द्विजाति": 4103,
      "सारथिं": 4104,
      "दाहरन्तीम": 4105,
      "दाहरन्तीममितिहासं": 4106,
      "ऋषी": 4107,
      "दान्": 4108,
      "पठ": 4109,
      "यत्य": 4110,
      "लौ": 4111,
      "सने": 4112,
      "नाह": 4113,
      "तादृ": 4114,
      "संकाशं": 4115,
      "राजसू": 4116,
      "महावेग": 4117,
      "भिद्य": 4118,
      "भिवाद्य": 4119,
      "परेषां": 4120,
      "तुर्व": 4121,
      "तुष्ट": 4122,
      "भूति": 4123,
      "परिपाल": 4124,
      "श्रुता": 4125,
      "श्चास्य": 4126,
      "मृधे": 4127,
      "पतन्": 4128,
      "युद्धम": 4129,
      "तथो": 4130,
      "राघवं": 4131,
      "यज्ञं": 4132,
      "चिन्तयामास": 4133,
      "धर्मि": 4134,
      "वर्धते": 4135,
      "राक्षसान्": 4136,
      "माश्रित्य": 4137,
      "हिंस": 4138,
      "पाञ्चाल्य": 4139,
      "सारथिः": 4140,
      "विंशति": 4141,
      "मधुसूदन": 4142,
      "क्ष्वाकु": 4143,
      "सङ्घ": 4144,
      "मुहुर्मुहुः": 4145,
      "जहार": 4146,
      "धरणी": 4147,
      "येषु": 4148,
      "राम्": 4149,
      "पादा": 4150,
      "दाश": 4151,
      "तोष": 4152,
      "सहितः": 4153,
      "धाता": 4154,
      "भीमा": 4155,
      "श्वान्": 4156,
      "ानाम्": 4157,
      "सूतं": 4158,
      "लेभे": 4159,
      "त्रिदश": 4160,
      "मृगा": 4161,
      "रक्षिता": 4162,
      "श्रेयो": 4163,
      "सत्येन": 4164,
      "कृष्णं": 4165,
      "संशित": 4166,
      "शक्त्या": 4167,
      "कौरव": 4168,
      "पितामहम्": 4169,
      "वांश्च": 4170,
      "कस्यचित्": 4171,
      "स्कन्द": 4172,
      "मिच्छति": 4173,
      "जानीहि": 4174,
      "करे": 4175,
      "चू": 4176,
      "तमः": 4177,
      "पवित्र": 4178,
      "भैर": 4179,
      "रह": 4180,
      "रिति": 4181,
      "वैव": 4182,
      "हितम्": 4183,
      "विभु": 4184,
      "नामा": 4185,
      "संख्या": 4186,
      "स्वभाव": 4187,
      "शाल्व": 4188,
      "जातो": 4189,
      "शिष्टा": 4190,
      "बाणा": 4191,
      "पतित": 4192,
      "युद्धदुर्म": 4193,
      "पश्यत": 4194,
      "पन्थ": 4195,
      "पौत्र": 4196,
      "शब्दः": 4197,
      "कुर्वन्ति": 4198,
      "लक्ष्मणेन": 4199,
      "धर्मराजस्य": 4200,
      "त्मजम्": 4201,
      "संतप्त": 4202,
      "कर्तुमर्हसि": 4203,
      "दाशार्ह": 4204,
      "अत्राप्यु": 4205,
      "गन्धि": 4206,
      "धैर्य": 4207,
      "पश्चि": 4208,
      "शता": 4209,
      "ौष": 4210,
      "प्रत": 4211,
      "प्रसन्": 4212,
      "विशिख": 4213,
      "मास्थितः": 4214,
      "स्यो": 4215,
      "क्षणेन": 4216,
      "न्तम": 4217,
      "संध्या": 4218,
      "ृती": 4219,
      "द्रि": 4220,
      "दुप": 4221,
      "मनसः": 4222,
      "त्तमाः": 4223,
      "योधि": 4224,
      "रथी": 4225,
      "यथावत्": 4226,
      "बाष्प": 4227,
      "गच्छत्": 4228,
      "म्बर": 4229,
      "तिक्रम्य": 4230,
      "विधीयते": 4231,
      "शतशोऽथ": 4232,
      "आचार्य": 4233,
      "नल": 4234,
      "पश्च": 4235,
      "भल्ल": 4236,
      "सत्या": 4237,
      "कारो": 4238,
      "सुपर्ण": 4239,
      "देवै": 4240,
      "सर्वैः": 4241,
      "त्वद": 4242,
      "चाभि": 4243,
      "पाण्डवम्": 4244,
      "रत्नानि": 4245,
      "द्भुतम्": 4246,
      "विद्धो": 4247,
      "किंचिद्": 4248,
      "क्रियतां": 4249,
      "यशस्विनी": 4250,
      "वाहिनी": 4251,
      "कैकेयी": 4252,
      "करु": 4253,
      "खर": 4254,
      "धः": 4255,
      "धने": 4256,
      "लघु": 4257,
      "वरे": 4258,
      "मिमाम्": 4259,
      "योद्ध": 4260,
      "भीरु": 4261,
      "कर्णश्च": 4262,
      "रक्ष्य": 4263,
      "जनका": 4264,
      "वानरा": 4265,
      "कृष्णो": 4266,
      "महीतले": 4267,
      "विक्रमम्": 4268,
      "धन्वा": 4269,
      "पश्यं": 4270,
      "घाति": 4271,
      "समुत्थ": 4272,
      "भक्त्या": 4273,
      "कश्चन": 4274,
      "गृह्णी": 4275,
      "आदित्य": 4276,
      "इयं": 4277,
      "मदा": 4278,
      "सति": 4279,
      "पुङ्": 4280,
      "संक्रुद्धः": 4281,
      "देशा": 4282,
      "सर्वो": 4283,
      "स्वनः": 4284,
      "रिणः": 4285,
      "मोहा": 4286,
      "प्यते": 4287,
      "कौतूह": 4288,
      "शूरः": 4289,
      "जिह्म": 4290,
      "।।।।": 4291,
      "कालः": 4292,
      "प्रत्यभाषत": 4293,
      "गणान्": 4294,
      "तत्त्वं": 4295,
      "तरसा": 4296,
      "चोदितः": 4297,
      "प्रणम्य": 4298,
      "भल्लेन": 4299,
      "ृषिः": 4300,
      "धरः": 4301,
      "सान्": 4302,
      "राट्": 4303,
      "स्यसि": 4304,
      "कामः": 4305,
      "राज्या": 4306,
      "वैश्रव": 4307,
      "स्थे": 4308,
      "किल्": 4309,
      "गाढ": 4310,
      "धर्मवित्": 4311,
      "प्रतिजग्राह": 4312,
      "परिश्र": 4313,
      "चित्राणि": 4314,
      "कीर्णा": 4315,
      "द्विजसत्तम": 4316,
      "पातयत्": 4317,
      "महीपाल": 4318,
      "द्रोणस्य": 4319,
      "इत्युक्तः": 4320,
      "भ्रातरौ": 4321,
      "महात्मानो": 4322,
      "गृह्ण": 4323,
      "चत्वा": 4324,
      "चानु": 4325,
      "जयं": 4326,
      "यशो": 4327,
      "यमिति": 4328,
      "सती": 4329,
      "सज्ज": 4330,
      "ानर": 4331,
      "न्निव": 4332,
      "कुली": 4333,
      "भूतो": 4334,
      "द्यं": 4335,
      "लोप": 4336,
      "समपद्यत": 4337,
      "समागताः": 4338,
      "ग्रहा": 4339,
      "ग्रहे": 4340,
      "स्मर": 4341,
      "मृष्य": 4342,
      "पित्र": 4343,
      "मुक्तो": 4344,
      "युद्धाय": 4345,
      "क्रुद्धा": 4346,
      "वनानि": 4347,
      "कारणात्": 4348,
      "शब्दो": 4349,
      "सैन्यानां": 4350,
      "तत्त्वेन": 4351,
      "जग्मुर्": 4352,
      "गमिष्यति": 4353,
      "सुग्रीवो": 4354,
      "लब्ध्वा": 4355,
      "गदां": 4356,
      "किल्बि": 4357,
      "मतं": 4358,
      "यन": 4359,
      "वोऽ": 4360,
      "सत्तमम्": 4361,
      "िनी": 4362,
      "राग": 4363,
      "विहितं": 4364,
      "माव": 4365,
      "मार्": 4366,
      "काष्ठ": 4367,
      "सर्वभूतेषु": 4368,
      "दिह": 4369,
      "हिणी": 4370,
      "र्षयः": 4371,
      "कृष्ट": 4372,
      "दीना": 4373,
      "सीते": 4374,
      "नोत्": 4375,
      "कीच": 4376,
      "दर्शनः": 4377,
      "सुखी": 4378,
      "शत्या": 4379,
      "शतक्र": 4380,
      "धनुर्ध": 4381,
      "विदः": 4382,
      "दुर्गा": 4383,
      "एवमुक्ता": 4384,
      "गुरुः": 4385,
      "पुरस्ता": 4386,
      "भरतं": 4387,
      "पुङ्गव": 4388,
      "श्रियं": 4389,
      "काम्यया": 4390,
      "अत्राप्युदाहरन्तीममितिहासं": 4391,
      "ध्ये": 4392,
      "नर्द": 4393,
      "रपि": 4394,
      "ूं": 4395,
      "विहाय": 4396,
      "वाग": 4397,
      "ष्णां": 4398,
      "पाक": 4399,
      "न्तरं": 4400,
      "तावत्": 4401,
      "यात्रा": 4402,
      "संघा": 4403,
      "सुतम्": 4404,
      "ष्ट्या": 4405,
      "दाश्च": 4406,
      "दुर": 4407,
      "भावे": 4408,
      "ेष्य": 4409,
      "व्यप": 4410,
      "वैकर्त": 4411,
      "न्यस्य": 4412,
      "गुरो": 4413,
      "रूढ": 4414,
      "ततोऽहं": 4415,
      "तोऽस्मि": 4416,
      "प्रजापतिः": 4417,
      "पावकः": 4418,
      "ट्ट": 4419,
      "प्रभः": 4420,
      "बहवः": 4421,
      "इमे": 4422,
      "तर्प": 4423,
      "मरि": 4424,
      "सैः": 4425,
      "ससर्ज": 4426,
      "ैस्तु": 4427,
      "मागतः": 4428,
      "क्षर": 4429,
      "स्नु": 4430,
      "काक्ष": 4431,
      "मुस": 4432,
      "सर्वपाप": 4433,
      "दुद्रु": 4434,
      "मनसो": 4435,
      "पिण्ड": 4436,
      "दिशं": 4437,
      "भीमेन": 4438,
      "गच्छन्": 4439,
      "भीमस्य": 4440,
      "सृञ्जय": 4441,
      "जिष्ण": 4442,
      "द्विजाः": 4443,
      "तिष्ठत": 4444,
      "गिरे": 4445,
      "वदतां": 4446,
      "भीष्मेण": 4447,
      "पन्नो": 4448,
      "प्रजापति": 4449,
      "राक्षसानां": 4450,
      "पीड्य": 4451,
      "दीप्ता": 4452,
      "महाबाहुर्": 4453,
      "ानीकं": 4454,
      "गीष": 4455,
      "जानाति": 4456,
      "स्थाने": 4457,
      "गृह्णा": 4458,
      "सौमित्रे": 4459,
      "र्वेद": 4460,
      "चनं": 4461,
      "थो": 4462,
      "पती": 4463,
      "भवेद": 4464,
      "यश्चैव": 4465,
      "शर्व": 4466,
      "हन": 4467,
      "हस्ता": 4468,
      "ीवं": 4469,
      "राय": 4470,
      "माशु": 4471,
      "स्तम": 4472,
      "स्तौ": 4473,
      "वीं": 4474,
      "शाखा": 4475,
      "शिशु": 4476,
      "मित्य": 4477,
      "तथाऽऽ": 4478,
      "ैर्न": 4479,
      "रक्षसाम्": 4480,
      "युक्तेन": 4481,
      "यन्मां": 4482,
      "दानीं": 4483,
      "पुनश्च": 4484,
      "त्मानमा": 4485,
      "यथैव": 4486,
      "रथात्": 4487,
      "पूजां": 4488,
      "लक्षण": 4489,
      "शस्त्रभृतां": 4490,
      "जाम्बू": 4491,
      "मेधावी": 4492,
      "ख्यं": 4493,
      "पर्ज": 4494,
      "वन्तो": 4495,
      "शम": 4496,
      "ितश्च": 4497,
      "प्रवर": 4498,
      "माल": 4499,
      "मेति": 4500,
      "प्रादुरा": 4501,
      "रिक्ष": 4502,
      "शालि": 4503,
      "नेह": 4504,
      "चिरम्": 4505,
      "हृता": 4506,
      "पश्यसि": 4507,
      "बुद्धे": 4508,
      "पञ्चभिः": 4509,
      "नित्यशः": 4510,
      "स्वाध्याय": 4511,
      "सूक्ष्म": 4512,
      "भ्येत्य": 4513,
      "वैवस्व": 4514,
      "उद्य": 4515,
      "जया": 4516,
      "जयो": 4517,
      "तमं": 4518,
      "नक्षत्र": 4519,
      "प्ये": 4520,
      "वरि": 4521,
      "विवा": 4522,
      "विज्ञे": 4523,
      "वारु": 4524,
      "तारा": 4525,
      "काम्बो": 4526,
      "संधि": 4527,
      "संवत्स": 4528,
      "क्रा": 4529,
      "त्तमा": 4530,
      "र्यः": 4531,
      "स्वनम्": 4532,
      "प्राहि": 4533,
      "व्यु": 4534,
      "ङ्क्ते": 4535,
      "रेत": 4536,
      "चाब्रवीत्": 4537,
      "ङ्गद": 4538,
      "रम्या": 4539,
      "योगं": 4540,
      "चित्रसेन": 4541,
      "दिव्यानि": 4542,
      "अनेन": 4543,
      "सुग्रीवः": 4544,
      "कारणम्": 4545,
      "तस्थौ": 4546,
      "महाद्युतिः": 4547,
      "संसदि": 4548,
      "पञ्चाला": 4549,
      "कव": 4550,
      "कान्त": 4551,
      "कङ्क": 4552,
      "गग": 4553,
      "गर्त": 4554,
      "फु": 4555,
      "यदृ": 4556,
      "वुः": 4557,
      "प्रद": 4558,
      "स्तन्": 4559,
      "क्षत्रं": 4560,
      "यावत्": 4561,
      "कारु": 4562,
      "ृतम्": 4563,
      "परमे": 4564,
      "मानेषु": 4565,
      "सह्य": 4566,
      "दृशम्": 4567,
      "ान्तरा": 4568,
      "प्रतिमं": 4569,
      "तस्याः": 4570,
      "दृष्टि": 4571,
      "शूरो": 4572,
      "त्रास": 4573,
      "निहतः": 4574,
      "लक्ष्मी": 4575,
      "न्तीह": 4576,
      "महीपते": 4577,
      "नृपम्": 4578,
      "प्रविष्ट": 4579,
      "मिवाभवत्": 4580,
      "ेष्वपि": 4581,
      "धार्तराष्ट्रा": 4582,
      "राघवस्य": 4583,
      "महर्षे": 4584,
      "हनूमान्": 4585,
      "श्राद्ध": 4586,
      "शरवर्षेण": 4587,
      "कृताञ्जलिः": 4588,
      "जला": 4589,
      "नमा": 4590,
      "नरे": 4591,
      "यक्षा": 4592,
      "वत्य": 4593,
      "वुभौ": 4594,
      "ियमा": 4595,
      "प्रशान्त": 4596,
      "प्रमाण": 4597,
      "विरो": 4598,
      "पाला": 4599,
      "स्नि": 4600,
      "यातु": 4601,
      "मुपे": 4602,
      "महामुनिः": 4603,
      "रुद्रा": 4604,
      "भावं": 4605,
      "वेत": 4606,
      "समर्थ": 4607,
      "लाल": 4608,
      "समाः": 4609,
      "रूपाणि": 4610,
      "सूर्या": 4611,
      "सौम": 4612,
      "समुद्य": 4613,
      "चेदि": 4614,
      "जीवितम्": 4615,
      "हूय": 4616,
      "संशप्त": 4617,
      "रमणी": 4618,
      "एवमुक्तो": 4619,
      "द्रोणेन": 4620,
      "सूतपुत्र": 4621,
      "खाण्ड": 4622,
      "न्योन्यं": 4623,
      "कुमार": 4624,
      "रुधिरं": 4625,
      "विश्रुतः": 4626,
      "मद्रराज": 4627,
      "श्रोतुमिच्छामि": 4628,
      "दशग्रीव": 4629,
      "लोमश": 4630,
      "कनक": 4631,
      "पर्युपा": 4632,
      "स्मीति": 4633,
      "अपश्य": 4634,
      "गवा": 4635,
      "जाः": 4636,
      "जनं": 4637,
      "यया": 4638,
      "वत": 4639,
      "पुमान्": 4640,
      "परश्व": 4641,
      "युवा": 4642,
      "सर्वम": 4643,
      "व्यध": 4644,
      "लोभा": 4645,
      "स्थौ": 4646,
      "भवन्त": 4647,
      "भ्यनुज्ञा": 4648,
      "परिप्लु": 4649,
      "रूपे": 4650,
      "लोको": 4651,
      "श्रुत्य": 4652,
      "मुक्तं": 4653,
      "रक्षा": 4654,
      "रक्षसा": 4655,
      "युधिष्ठिरं": 4656,
      "भगदत्त": 4657,
      "हीना": 4658,
      "यांश्च": 4659,
      "पुष्पित": 4660,
      "देवासुर": 4661,
      "भाषितम्": 4662,
      "शक्रो": 4663,
      "शब्दं": 4664,
      "स्त्रीणां": 4665,
      "व्यूढ": 4666,
      "रात्रौ": 4667,
      "प्रमाणं": 4668,
      "र्ध्वं": 4669,
      "विशारदः": 4670,
      "यामासु": 4671,
      "विंशत्या": 4672,
      "अयो": 4673,
      "अस्मिन्": 4674,
      "मधि": 4675,
      "षम्": 4676,
      "स्रा": 4677,
      "प्रभाव": 4678,
      "विसृज": 4679,
      "क्षितः": 4680,
      "नाधि": 4681,
      "पाट": 4682,
      "यात्मा": 4683,
      "भिषि": 4684,
      "भावा": 4685,
      "श्वरथ": 4686,
      "रथोप": 4687,
      "पूजा": 4688,
      "वृद्धि": 4689,
      "दीर": 4690,
      "कोट": 4691,
      "बहुभिः": 4692,
      "प्राप्तः": 4693,
      "पर्यवारयन्": 4694,
      "भरतः": 4695,
      "पृष्ठतः": 4696,
      "निवेशनम्": 4697,
      "गामिनः": 4698,
      "धनम्": 4699,
      "रै": 4700,
      "वता": 4701,
      "षड्": 4702,
      "मह्यं": 4703,
      "संवर्त": 4704,
      "सुमहान्": 4705,
      "देहं": 4706,
      "सर्वदा": 4707,
      "दुष्टा": 4708,
      "मानानां": 4709,
      "द्यः": 4710,
      "चाहं": 4711,
      "रिक्षे": 4712,
      "धातु": 4713,
      "स्थू": 4714,
      "यथाऽऽ": 4715,
      "न्द्रा": 4716,
      "ग्ना": 4717,
      "ष्यते": 4718,
      "वृताः": 4719,
      "ल्का": 4720,
      "लोकान": 4721,
      "एवम": 4722,
      "शूरं": 4723,
      "गोप्ता": 4724,
      "श्लक्": 4725,
      "भेरी": 4726,
      "द्वारं": 4727,
      "चक्रिरे": 4728,
      "न्तीं": 4729,
      "बुद्धिर्": 4730,
      "विषये": 4731,
      "वसन्": 4732,
      "घ्नं": 4733,
      "द्रौपद": 4734,
      "मूर्ध्": 4735,
      "दुःशासन": 4736,
      "नन्दि": 4737,
      "लभेत्": 4738,
      "गरुड": 4739,
      "अनि": 4740,
      "कित": 4741,
      "गन्तु": 4742,
      "तदे": 4743,
      "भस्म": 4744,
      "सभां": 4745,
      "विन्ध": 4746,
      "विज्ञा": 4747,
      "माणः": 4748,
      "मात्मानं": 4749,
      "नायं": 4750,
      "निभ": 4751,
      "सुतान्": 4752,
      "सुमहत्": 4753,
      "ष्टुं": 4754,
      "युञ्ज": 4755,
      "युष्मा": 4756,
      "ोऽसौ": 4757,
      "ोऽग्नि": 4758,
      "दुश्च": 4759,
      "कुसु": 4760,
      "ज्ञं": 4761,
      "लाप": 4762,
      "दंश": 4763,
      "शोकं": 4764,
      "द्विधा": 4765,
      "ह्येष": 4766,
      "शीर्ष": 4767,
      "ब्रह्मणा": 4768,
      "दर्शना": 4769,
      "व्रतम्": 4770,
      "वर्षं": 4771,
      "यन्तः": 4772,
      "वेगं": 4773,
      "श्चिच्छेद": 4774,
      "चतुर्दश": 4775,
      "कैला": 4776,
      "केशवः": 4777,
      "शेषं": 4778,
      "ख्यान": 4779,
      "जनार्दनः": 4780,
      "च्चापि": 4781,
      "चारिणः": 4782,
      "प्रथमं": 4783,
      "विभीषणः": 4784,
      "अमर्ष": 4785,
      "कस्मा": 4786,
      "तन्न": 4787,
      "ययुः": 4788,
      "वश्च": 4789,
      "वस्त्र": 4790,
      "सिता": 4791,
      "ैते": 4792,
      "निषे": 4793,
      "तात्मा": 4794,
      "संज्ञा": 4795,
      "संयुक्तं": 4796,
      "मिश्र": 4797,
      "वेष": 4798,
      "वेदि": 4799,
      "योर्": 4800,
      "वीत": 4801,
      "व्ये": 4802,
      "कृच्छ": 4803,
      "देवाना": 4804,
      "देवदानव": 4805,
      "ध्यान": 4806,
      "शृङ्गा": 4807,
      "द्युति": 4808,
      "वर्धनः": 4809,
      "हरिः": 4810,
      "सादनम्": 4811,
      "कर्मणाम्": 4812,
      "क्षीण": 4813,
      "न्योन्य": 4814,
      "दिवसे": 4815,
      "प्सरो": 4816,
      "राजानः": 4817,
      "मुहूर्तं": 4818,
      "कल्म": 4819,
      "कैकेय": 4820,
      "दिवौकसः": 4821,
      "छा": 4822,
      "धान्य": 4823,
      "यानां": 4824,
      "रसि": 4825,
      "हन्तु": 4826,
      "ेणा": 4827,
      "विक": 4828,
      "विदा": 4829,
      "विविशु": 4830,
      "वाल": 4831,
      "वादी": 4832,
      "न्मत्त": 4833,
      "स्यु": 4834,
      "निपपात": 4835,
      "तासां": 4836,
      "सुमन्त्र": 4837,
      "दुहित": 4838,
      "भास्व": 4839,
      "पिपा": 4840,
      "वाचं": 4841,
      "हिम": 4842,
      "जातः": 4843,
      "रणम्": 4844,
      "द्विर": 4845,
      "युद्धा": 4846,
      "वानरः": 4847,
      "चिन्ता": 4848,
      "फलानि": 4849,
      "विनाशाय": 4850,
      "पाणिना": 4851,
      "चेतनः": 4852,
      "विशेषेण": 4853,
      "मथो": 4854,
      "धार्तराष्ट्रस्य": 4855,
      "भक्ति": 4856,
      "क्लेश": 4857,
      "संनतपर्वभिः": 4858,
      "प्रहसन्निव": 4859,
      "जितेन्द्रियः": 4860,
      "वैदेह्या": 4861,
      "जनकात्मजा": 4862,
      "प्राहिणो": 4863,
      "कस्या": 4864,
      "चरि": 4865,
      "मग्नि": 4866,
      "यदे": 4867,
      "श्ये": 4868,
      "हितः": 4869,
      "विक्ष": 4870,
      "विज्ञान": 4871,
      "न्दि": 4872,
      "न्तमिव": 4873,
      "तामा": 4874,
      "संचिन्त्य": 4875,
      "मेने": 4876,
      "रुरु": 4877,
      "योजय": 4878,
      "सहितं": 4879,
      "चात्र": 4880,
      "कृतां": 4881,
      "श्वराः": 4882,
      "शुश्राव": 4883,
      "समागम्य": 4884,
      "शंसे": 4885,
      "कोटि": 4886,
      "हृषी": 4887,
      "नृशंस": 4888,
      "ब्रह्मचारी": 4889,
      "दत्ता": 4890,
      "वृद्धं": 4891,
      "दुरास": 4892,
      "जग्म": 4893,
      "ट्टि": 4894,
      "मायया": 4895,
      "कुन्तीपुत्रो": 4896,
      "पुरीं": 4897,
      "महात्मानः": 4898,
      "देवेन्द्र": 4899,
      "दर्शिनः": 4900,
      "मूर्ध्नि": 4901,
      "अस्त्र": 4902,
      "वतां": 4903,
      "सदैव": 4904,
      "ैश्चैव": 4905,
      "प्रकीर्त": 4906,
      "प्रसीद": 4907,
      "त्र्य": 4908,
      "सुषेण": 4909,
      "महारणे": 4910,
      "व्यसन": 4911,
      "समर": 4912,
      "रोप्य": 4913,
      "शुष्": 4914,
      "शिरा": 4915,
      "हारा": 4916,
      "मोक्ष्य": 4917,
      "परिरक्ष": 4918,
      "यिष्ये": 4919,
      "चक्रं": 4920,
      "पर्वता": 4921,
      "यमौ": 4922,
      "निःस": 4923,
      "सात्यकिं": 4924,
      "कदाचि": 4925,
      "मारुता": 4926,
      "रिंदमः": 4927,
      "कवचं": 4928,
      "तुमुलं": 4929,
      "श्लक्ष्ण": 4930,
      "म्र": 4931,
      "यस्ते": 4932,
      "ितेन": 4933,
      "विद्": 4934,
      "वासो": 4935,
      "न्दं": 4936,
      "पात्य": 4937,
      "पाप्": 4938,
      "मुग्र": 4939,
      "श्रद्धा": 4940,
      "वेदे": 4941,
      "येत": 4942,
      "न्द्रिया": 4943,
      "सीन्": 4944,
      "कथम्": 4945,
      "मृद": 4946,
      "कर्णे": 4947,
      "मुखम्": 4948,
      "श्लि": 4949,
      "बुद्धिमान्": 4950,
      "ब्राह्मणाः": 4951,
      "गिरा": 4952,
      "यन्ता": 4953,
      "योगे": 4954,
      "बभूवा": 4955,
      "विविधान्": 4956,
      "द्भुतं": 4957,
      "प्रोक्तं": 4958,
      "विष्टो": 4959,
      "ददृशे": 4960,
      "प्रतिष्ठितम्": 4961,
      "क्षत्रियाणां": 4962,
      "भार्गव": 4963,
      "शत्रून्": 4964,
      "मनुष्याणां": 4965,
      "परुषं": 4966,
      "शारद्व": 4967,
      "आत्मानं": 4968,
      "एको": 4969,
      "एकै": 4970,
      "कांश्च": 4971,
      "ज्यं": 4972,
      "दन्ति": 4973,
      "मज्ज": 4974,
      "रक्ता": 4975,
      "लस्य": 4976,
      "वसू": 4977,
      "ृणु": 4978,
      "प्रल": 4979,
      "प्रसू": 4980,
      "प्रदान": 4981,
      "न्दे": 4982,
      "मनन्त": 4983,
      "त्तरम्": 4984,
      "वीक्ष": 4985,
      "त्वमेव": 4986,
      "धिपाः": 4987,
      "वैरं": 4988,
      "समये": 4989,
      "धर्मतः": 4990,
      "हारं": 4991,
      "वृणी": 4992,
      "गच्छेत्": 4993,
      "भोक्त": 4994,
      "पतिता": 4995,
      "वानराणां": 4996,
      "पेतुः": 4997,
      "विधान": 4998,
      "दशरथ": 4999,
      "दुःखितः": 5000,
      "शृणो": 5001,
      "यमसादनम्": 5002,
      "तृप्त": 5003,
      "वसति": 5004,
      "हृष्टाः": 5005,
      "पीडितः": 5006,
      "तमापतन्तं": 5007,
      "महेष्वासो": 5008,
      "पृच्छसि": 5009,
      "प्रसादं": 5010,
      "गन्धर्वाः": 5011,
      "मेदिनी": 5012,
      "गन्तुं": 5013,
      "कर्": 5014,
      "तमेव": 5015,
      "वन्त": 5016,
      "सरः": 5017,
      "ैषा": 5018,
      "ैतद्": 5019,
      "प्रमुख": 5020,
      "प्रददौ": 5021,
      "रामा": 5022,
      "सुदुष्": 5023,
      "मिद": 5024,
      "मिनी": 5025,
      "मानेन": 5026,
      "मानसः": 5027,
      "दिदृ": 5028,
      "द्यां": 5029,
      "नेमि": 5030,
      "तीर्थं": 5031,
      "वृष्ण": 5032,
      "दर्शने": 5033,
      "दर्शयन्": 5034,
      "दुःखेन": 5035,
      "कृष्णेन": 5036,
      "पर्वतः": 5037,
      "प्रेत": 5038,
      "तिष्ठन्ति": 5039,
      "नाम्ना": 5040,
      "तेऽपि": 5041,
      "प्रहरण": 5042,
      "वारयामास": 5043,
      "महात्मभिः": 5044,
      "मातङ्ग": 5045,
      "कश्चिद": 5046,
      "द्रवन्त": 5047,
      "दिशश्च": 5048,
      "केचिद्": 5049,
      "ददाति": 5050,
      "पताका": 5051,
      "सूक्ष्": 5052,
      "वार्ष्णेय": 5053,
      "सुहृदां": 5054,
      "पुङ्ख": 5055,
      "परश्वध": 5056,
      "मन्ति": 5057,
      "वौ": 5058,
      "शची": 5059,
      "ोष": 5060,
      "ितस्य": 5061,
      "प्रशा": 5062,
      "विष्टा": 5063,
      "विचेष्ट": 5064,
      "माली": 5065,
      "वात": 5066,
      "वाली": 5067,
      "नास्य": 5068,
      "निन": 5069,
      "त्रेण": 5070,
      "संवृतः": 5071,
      "सुकृतं": 5072,
      "मेवै": 5073,
      "वेप": 5074,
      "दिरे": 5075,
      "ज्जा": 5076,
      "तोय": 5077,
      "द्यौ": 5078,
      "शिवा": 5079,
      "हाहा": 5080,
      "हार्दि": 5081,
      "परिष्": 5082,
      "ग्री": 5083,
      "श्रुत्व": 5084,
      "कोश": 5085,
      "यिष्य": 5086,
      "णीम्": 5087,
      "इत्ये": 5088,
      "भाविता": 5089,
      "पन्नग": 5090,
      "दुरात्मनः": 5091,
      "दुराधर्ष": 5092,
      "सुरासुर": 5093,
      "कल्याणि": 5094,
      "रघुनन्दन": 5095,
      "नकुलः": 5096,
      "ज्वाल": 5097,
      "तदिदं": 5098,
      "मत्य": 5099,
      "वन्तं": 5100,
      "समि": 5101,
      "हरत्": 5102,
      "ितोऽ": 5103,
      "प्रणा": 5104,
      "प्रकृत": 5105,
      "प्रज्वल": 5106,
      "विचर": 5107,
      "्याथ": 5108,
      "याज्ञ": 5109,
      "काम्": 5110,
      "संद": 5111,
      "मिमां": 5112,
      "कुतः": 5113,
      "भूतः": 5114,
      "व्यतिक्र": 5115,
      "कृत्यं": 5116,
      "यिष्यन्ति": 5117,
      "सोऽपि": 5118,
      "वीरान्": 5119,
      "दुर्योधनः": 5120,
      "राघवम्": 5121,
      "दुर्बल": 5122,
      "बाणान्": 5123,
      "धृतराष्ट्रो": 5124,
      "वासुदेवस्य": 5125,
      "गीत": 5126,
      "सम्यग्": 5127,
      "साहस्र": 5128,
      "वित्तं": 5129,
      "पश्चात्": 5130,
      "गूढ": 5131,
      "धनुरादाय": 5132,
      "णानि": 5133,
      "तन्त्र": 5134,
      "पतत्": 5135,
      "श्यं": 5136,
      "ह्वा": 5137,
      "ाणां": 5138,
      "ैर्ज": 5139,
      "्वे": 5140,
      "विसर्ज": 5141,
      "स्तम्भ": 5142,
      "श्चन्द्र": 5143,
      "निकृत्त": 5144,
      "कामान्": 5145,
      "महार्ण": 5146,
      "रुह्य": 5147,
      "कुबे": 5148,
      "मानान्": 5149,
      "स्वर्ण": 5150,
      "रोहा": 5151,
      "श्वं": 5152,
      "श्वः": 5153,
      "भवतां": 5154,
      "गाश्च": 5155,
      "भुङ्क्ते": 5156,
      "ब्रवीन्": 5157,
      "ततश्च": 5158,
      "तवान": 5159,
      "चेदं": 5160,
      "सोऽयं": 5161,
      "चक्रु": 5162,
      "प्रीतः": 5163,
      "कर्तव्य": 5164,
      "ब्राह्मणान्": 5165,
      "लोकेऽस्मिन्": 5166,
      "महारथैः": 5167,
      "यूयं": 5168,
      "कुर्वीत": 5169,
      "गृहीत": 5170,
      "प्स्यसि": 5171,
      "पुरुषर्षभः": 5172,
      "सुयोधनः": 5173,
      "णम": 5174,
      "तप्त": 5175,
      "दया": 5176,
      "नैर्": 5177,
      "मर्या": 5178,
      "वधि": 5179,
      "वनो": 5180,
      "वधी": 5181,
      "ितव्यं": 5182,
      "नार्ह": 5183,
      "योक्त": 5184,
      "वैदू": 5185,
      "भीता": 5186,
      "देवयान": 5187,
      "धर्मश्च": 5188,
      "वृक्षा": 5189,
      "मांश्च": 5190,
      "मुक्तः": 5191,
      "दुःखिता": 5192,
      "स्थाप्य": 5193,
      "श्रेष्ठा": 5194,
      "वरान्": 5195,
      "वरवर्ण": 5196,
      "लक्ष्मणो": 5197,
      "यज्ञो": 5198,
      "ध्यात्म": 5199,
      "प्रहर": 5200,
      "शासनम्": 5201,
      "स्वर्गे": 5202,
      "तच्छु": 5203,
      "पृथग": 5204,
      "शोभितम्": 5205,
      "वासुदेवं": 5206,
      "वक्तुं": 5207,
      "महेष्वासः": 5208,
      "परायणम्": 5209,
      "गच्छामि": 5210,
      "यदृच्छया": 5211,
      "अत": 5212,
      "आस": 5213,
      "चोप": 5214,
      "टे": 5215,
      "ताना": 5216,
      "शल": 5217,
      "विचक्ष": 5218,
      "विरूपा": 5219,
      "स्तर": 5220,
      "स्तान": 5221,
      "स्यान्": 5222,
      "क्षणा": 5223,
      "नाद्य": 5224,
      "महतीं": 5225,
      "पापे": 5226,
      "तामिति": 5227,
      "संरम्": 5228,
      "संरक्त": 5229,
      "सुमहद्": 5230,
      "श्रद्द": 5231,
      "ोऽति": 5232,
      "कृतवान्": 5233,
      "नेत्रा": 5234,
      "भवान": 5235,
      "पृष्ट": 5236,
      "स्रव": 5237,
      "ब्रह्मर्षि": 5238,
      "दर्शनाः": 5239,
      "चेह": 5240,
      "ध्वजः": 5241,
      "श्लाघ": 5242,
      "बाहुभ्यां": 5243,
      "पातयामास": 5244,
      "गन्धमाद": 5245,
      "नृपो": 5246,
      "बिभेद": 5247,
      "हृष्टः": 5248,
      "विजयं": 5249,
      "भरतो": 5250,
      "हृत्य": 5251,
      "कदाचित्": 5252,
      "विन्दति": 5253,
      "कच्चिद्": 5254,
      "कुरवः": 5255,
      "भूरिश्र": 5256,
      "मेदिनीम्": 5257,
      "दुन्दुभि": 5258,
      "उभौ": 5259,
      "तृती": 5260,
      "बर्ह": 5261,
      "मप्य": 5262,
      "मरणं": 5263,
      "प्रह्ला": 5264,
      "विसृज्य": 5265,
      "विस्फा": 5266,
      "वाता": 5267,
      "क्ष्ये": 5268,
      "नाक": 5269,
      "निशि": 5270,
      "नियम": 5271,
      "ोऽस्तु": 5272,
      "वीराणां": 5273,
      "च्छु": 5274,
      "स्वकर्म": 5275,
      "दिवा": 5276,
      "दिग्ध": 5277,
      "व्यती": 5278,
      "चारण": 5279,
      "देवगन्धर्व": 5280,
      "शुक्ल": 5281,
      "यथाकामं": 5282,
      "न्येन": 5283,
      "वृणो": 5284,
      "परिकीर्त": 5285,
      "त्मभिः": 5286,
      "ह्यसि": 5287,
      "ध्यते": 5288,
      "त्तमैः": 5289,
      "मनुष्ये": 5290,
      "दर्शयामास": 5291,
      "सोद": 5292,
      "शूद्रा": 5293,
      "सृष्टा": 5294,
      "वासवः": 5295,
      "भाषसे": 5296,
      "कौन्तेयः": 5297,
      "नगरे": 5298,
      "गौर": 5299,
      "बहूनि": 5300,
      "कुर्यात्": 5301,
      "प्लवं": 5302,
      "न्यवेदयत्": 5303,
      "रामलक्ष्मणौ": 5304,
      "अष्टा": 5305,
      "चरण": 5306,
      "जित्": 5307,
      "तक्ष": 5308,
      "तलम्": 5309,
      "दान्त": 5310,
      "भित": 5311,
      "यस्मा": 5312,
      "लला": 5313,
      "शप्त": 5314,
      "विकृत": 5315,
      "माप": 5316,
      "माला": 5317,
      "स्यां": 5318,
      "क्षिति": 5319,
      "महती": 5320,
      "सुमहा": 5321,
      "मुनी": 5322,
      "भाण्ड": 5323,
      "भाष्य": 5324,
      "श्वर्य": 5325,
      "पुत्राः": 5326,
      "बालि": 5327,
      "ग्नौ": 5328,
      "गुल्": 5329,
      "पतिर्": 5330,
      "व्रतं": 5331,
      "जिज्ञा": 5332,
      "तथेति": 5333,
      "त्याः": 5334,
      "विषण्": 5335,
      "च्छाम्यहं": 5336,
      "भागं": 5337,
      "चित्रं": 5338,
      "राक्षसैः": 5339,
      "र्पयत्": 5340,
      "पावक": 5341,
      "रावणेन": 5342,
      "सभायां": 5343,
      "स्मृतम्": 5344,
      "कुण्डले": 5345,
      "त्रैलोक": 5346,
      "अन्योन्यं": 5347,
      "स्निग्ध": 5348,
      "इमं": 5349,
      "गतौ": 5350,
      "तस्तस्य": 5351,
      "दधि": 5352,
      "पशू": 5353,
      "यनं": 5354,
      "शर्मा": 5355,
      "िव": 5356,
      "१०": 5357,
      "र्चित": 5358,
      "विभाव": 5359,
      "मारी": 5360,
      "क्षणः": 5361,
      "पुल": 5362,
      "सुतां": 5363,
      "सुराणां": 5364,
      "दास": 5365,
      "श्रौ": 5366,
      "क्रम": 5367,
      "वेह": 5368,
      "मानद": 5369,
      "जाति": 5370,
      "यथातथ": 5371,
      "सम्ब": 5372,
      "पाण्डवै": 5373,
      "मितो": 5374,
      "परिच्छ": 5375,
      "तपसो": 5376,
      "एवमा": 5377,
      "वृत्तिं": 5378,
      "दोषा": 5379,
      "प्रत्यक्षं": 5380,
      "निहताः": 5381,
      "कृष्णः": 5382,
      "तमसा": 5383,
      "ख्यातो": 5384,
      "शक्यो": 5385,
      "विधिवद्": 5386,
      "तस्मिन्नेव": 5387,
      "गुरुं": 5388,
      "गणैः": 5389,
      "वसुं": 5390,
      "शरीरे": 5391,
      "प्सितम्": 5392,
      "इत्युक्त": 5393,
      "पत्यं": 5394,
      "निवर्ति": 5395,
      "कार्मुक": 5396,
      "क्रुशु": 5397,
      "मुद्यम्य": 5398,
      "डिम्ब": 5399,
      "देन": 5400,
      "धां": 5401,
      "शशा": 5402,
      "सन्त": 5403,
      "ूद": 5404,
      "ैषिणः": 5405,
      "विस्मित": 5406,
      "महत्या": 5407,
      "ताभ्यां": 5408,
      "दुर्व": 5409,
      "दिष्टं": 5410,
      "णामपि": 5411,
      "शाख": 5412,
      "कृन्त": 5413,
      "कृष्णां": 5414,
      "देवतानां": 5415,
      "श्येन": 5416,
      "न्यस्त": 5417,
      "तपस्त": 5418,
      "मांसं": 5419,
      "पतिष्ठ": 5420,
      "दर्शनात्": 5421,
      "पश्यत्": 5422,
      "विधू": 5423,
      "जीविते": 5424,
      "न्याय": 5425,
      "पृथिवीपते": 5426,
      "नित्यदा": 5427,
      "सैन्येन": 5428,
      "श्रूयतां": 5429,
      "कौन्तेयो": 5430,
      "कुशल": 5431,
      "ान्वितः": 5432,
      "चोदिताः": 5433,
      "कृपः": 5434,
      "मवाप्नोति": 5435,
      "मन्दा": 5436,
      "विलप": 5437,
      "सत्त्वा": 5438,
      "गङ्गां": 5439,
      "अलं": 5440,
      "आत्मा": 5441,
      "उक्त": 5442,
      "एताव": 5443,
      "गन्ता": 5444,
      "तदेव": 5445,
      "दाना": 5446,
      "ददर्": 5447,
      "नक्ष": 5448,
      "पट्टि": 5449,
      "भद्रा": 5450,
      "ववर्ष": 5451,
      "सरि": 5452,
      "सकृत्": 5453,
      "्यस्य": 5454,
      "प्रध": 5455,
      "त्स्व": 5456,
      "वाणि": 5457,
      "ांशु": 5458,
      "पाद्य": 5459,
      "संका": 5460,
      "संधाय": 5461,
      "मुमु": 5462,
      "द्रव्य": 5463,
      "द्रष्टा": 5464,
      "श्रमप": 5465,
      "क्रौ": 5466,
      "वेत्": 5467,
      "स्वधर्म": 5468,
      "त्वमपि": 5469,
      "समयं": 5470,
      "स्थितौ": 5471,
      "द्वौ": 5472,
      "पुत्रस्ते": 5473,
      "श्रुतिः": 5474,
      "भुक्त": 5475,
      "भुजं": 5476,
      "जननी": 5477,
      "वानरेन्द्र": 5478,
      "वनौक": 5479,
      "प्रीत": 5480,
      "महाबलौ": 5481,
      "पीत्वा": 5482,
      "मन्यन्ते": 5483,
      "योगी": 5484,
      "भागी": 5485,
      "सप्तभिः": 5486,
      "पर्यपृच्छ": 5487,
      "विजयाय": 5488,
      "महाबाहुं": 5489,
      "मानुषं": 5490,
      "षोड": 5491,
      "पञ्चालानां": 5492,
      "द्भुतमिवाभवत्": 5493,
      "ोरसि": 5494,
      "भ्येति": 5495,
      "संवादं": 5496,
      "अष्ट": 5497,
      "एनं": 5498,
      "गह": 5499,
      "जर": 5500,
      "जन्त": 5501,
      "यस्त्व": 5502,
      "शयान": 5503,
      "शनैः": 5504,
      "ष्वा": 5505,
      "सत्व": 5506,
      "रामाय": 5507,
      "मेघा": 5508,
      "ष्ट्रा": 5509,
      "त्ते": 5510,
      "वाचः": 5511,
      "प्रादुर्": 5512,
      "लोहिता": 5513,
      "ण्डि": 5514,
      "स्थां": 5515,
      "शिष्या": 5516,
      "हारो": 5517,
      "लात्": 5518,
      "व्याघ्रा": 5519,
      "शरैर": 5520,
      "त्तमान्": 5521,
      "पतन्ति": 5522,
      "पराङ्": 5523,
      "सत्ये": 5524,
      "सत्यसंध": 5525,
      "भ्रातर": 5526,
      "व्रजेत्": 5527,
      "स्थावर": 5528,
      "यज्ञः": 5529,
      "नैवा": 5530,
      "शक्रस्य": 5531,
      "क्रोधं": 5532,
      "वृद्धा": 5533,
      "अन्ये": 5534,
      "मतिं": 5535,
      "श्रोतुं": 5536,
      "जातयः": 5537,
      "भूमिं": 5538,
      "विश्वे": 5539,
      "च्छिन्न": 5540,
      "नारायणा": 5541,
      "च्युत": 5542,
      "शिष्यते": 5543,
      "प्सरसां": 5544,
      "जरासंध": 5545,
      "घटोत्कच": 5546,
      "मुद्ग": 5547,
      "श्चक्रे": 5548,
      "वैदूर्य": 5549,
      "थे": 5550,
      "दां": 5551,
      "धना": 5552,
      "भयोः": 5553,
      "मघ": 5554,
      "मश्नुते": 5555,
      "यसा": 5556,
      "शस्त्राणि": 5557,
      "प्रदी": 5558,
      "विमुञ्च": 5559,
      "स्तस्या": 5560,
      "श्चै": 5561,
      "निषा": 5562,
      "सुते": 5563,
      "मेतद": 5564,
      "राजर्षे": 5565,
      "भिरु": 5566,
      "सर्वैर्": 5567,
      "दुहिता": 5568,
      "स्वलं": 5569,
      "चापं": 5570,
      "कृथाः": 5571,
      "स्थितान्": 5572,
      "जातं": 5573,
      "देव्या": 5574,
      "केण": 5575,
      "लोकः": 5576,
      "त्मवान्": 5577,
      "भुजा": 5578,
      "स्त्विति": 5579,
      "पेतुर्": 5580,
      "बहुविध": 5581,
      "क्रुद्धं": 5582,
      "र्षभः": 5583,
      "कृष्णस्य": 5584,
      "कामरूपि": 5585,
      "रम्यं": 5586,
      "तिष्ठन्": 5587,
      "क्रोधमूर्": 5588,
      "पूजयामास": 5589,
      "शत्रुघ्न": 5590,
      "र्जुनौ": 5591,
      "अभिवाद्य": 5592,
      "हृष्टो": 5593,
      "वसुन्ध": 5594,
      "समीपे": 5595,
      "ममाचक्ष्व": 5596,
      "सागरे": 5597,
      "पावकम्": 5598,
      "व्यवस्थितः": 5599,
      "विपुल": 5600,
      "मेवाभि": 5601,
      "व्यूह": 5602,
      "परिवारितः": 5603,
      "अत्य": 5604,
      "इमां": 5605,
      "चरः": 5606,
      "भये": 5607,
      "मद्रा": 5608,
      "यानं": 5609,
      "रते": 5610,
      "लता": 5611,
      "वदे": 5612,
      "सश्च": 5613,
      "ऽथ": 5614,
      "नासि": 5615,
      "पाण": 5616,
      "संयु": 5617,
      "साधू": 5618,
      "देवैर": 5619,
      "मनसि": 5620,
      "वेगा": 5621,
      "दिभिः": 5622,
      "तोम": 5623,
      "व्यसनं": 5624,
      "धिग": 5625,
      "रिपू": 5626,
      "भवतु": 5627,
      "गुरू": 5628,
      "सम्बन्ध": 5629,
      "शोकेन": 5630,
      "श्रुतः": 5631,
      "तवत्": 5632,
      "गच्छेत": 5633,
      "मुख्या": 5634,
      "ब्रह्मणः": 5635,
      "चक्रा": 5636,
      "मन्यत": 5637,
      "पन्नाः": 5638,
      "दक्षिण": 5639,
      "योधाः": 5640,
      "पदम्": 5641,
      "पीडिताः": 5642,
      "मधुर": 5643,
      "दीप्तं": 5644,
      "वधो": 5645,
      "सहामात्य": 5646,
      "नियता": 5647,
      "एतस्मिन्न": 5648,
      "घोषेण": 5649,
      "शौच": 5650,
      "कल्याण": 5651,
      "मूर्धा": 5652,
      "कार्मुकम्": 5653,
      "ैरुप": 5654,
      "स्मृताः": 5655,
      "जघ्नु": 5656,
      "प्रशंसन्ति": 5657,
      "संनिभम्": 5658,
      "पाकशास": 5659,
      "अगस्त्य": 5660,
      "उलू": 5661,
      "ऋत्वि": 5662,
      "चरम्": 5663,
      "चर्या": 5664,
      "चचार": 5665,
      "जै": 5666,
      "पत्रा": 5667,
      "फलो": 5668,
      "वर्": 5669,
      "षष्ठ": 5670,
      "विमृ": 5671,
      "विनिर्": 5672,
      "पुरः": 5673,
      "सुश्रो": 5674,
      "साहं": 5675,
      "महामतिः": 5676,
      "द्रवद्": 5677,
      "भिन्ना": 5678,
      "परया": 5679,
      "देयं": 5680,
      "ह्न": 5681,
      "श्वशु": 5682,
      "स्तुमु": 5683,
      "व्याधि": 5684,
      "त्मनाम्": 5685,
      "ममर्ष": 5686,
      "कीर्य": 5687,
      "रक्षांसि": 5688,
      "्युप": 5689,
      "यिनः": 5690,
      "वृत्ता": 5691,
      "जिह्वा": 5692,
      "सैन्ये": 5693,
      "वनन्द": 5694,
      "बुद्धिर": 5695,
      "मृत्यो": 5696,
      "शक्तो": 5697,
      "कृतास्त्र": 5698,
      "यन्त्य": 5699,
      "दक्षिणं": 5700,
      "क्षत्रियो": 5701,
      "ज्वरः": 5702,
      "चतुर": 5703,
      "शयानं": 5704,
      "विष्टः": 5705,
      "वशमा": 5706,
      "तस्मिन्न": 5707,
      "द्वैपाय": 5708,
      "परायणः": 5709,
      "मथाब्रवीत्": 5710,
      "विस्मयं": 5711,
      "नेकशः": 5712,
      "यथातथम्": 5713,
      "क्रौञ्च": 5714,
      "आश्र": 5715,
      "आजगाम": 5716,
      "करण": 5717,
      "कर्हि": 5718,
      "दक्ष": 5719,
      "वञ्च": 5720,
      "वक्ष्य": 5721,
      "शरो": 5722,
      "िष्ठ": 5723,
      "ीनां": 5724,
      "विगर्ह": 5725,
      "वाञ्छ": 5726,
      "निल": 5727,
      "मेषु": 5728,
      "महादेव": 5729,
      "परेण": 5730,
      "सर्वलोकस्य": 5731,
      "कुन्ति": 5732,
      "भार्य": 5733,
      "वेत्ति": 5734,
      "प्राज्ञा": 5735,
      "रोषा": 5736,
      "ान्तकः": 5737,
      "यथासुखम्": 5738,
      "प्रतिभाति": 5739,
      "ग्रहं": 5740,
      "क्षिणः": 5741,
      "शरजा": 5742,
      "पश्यतां": 5743,
      "वृत्ते": 5744,
      "विध्व": 5745,
      "पुनरु": 5746,
      "ान्यपि": 5747,
      "प्रत्यविध्य": 5748,
      "रावणि": 5749,
      "विदिता": 5750,
      "विप्रो": 5751,
      "ख्यात": 5752,
      "भीमसेनः": 5753,
      "देवाश्च": 5754,
      "बिभ्र": 5755,
      "शत्रुघ्": 5756,
      "वर्धनम्": 5757,
      "सूर्यो": 5758,
      "स्तीर्ण": 5759,
      "द्रुपद": 5760,
      "कृत्स्ना": 5761,
      "मातलि": 5762,
      "पूर्णे": 5763,
      "एतदि": 5764,
      "धृष्टद्युम्नं": 5765,
      "दुर्मतिः": 5766,
      "शाश्वती": 5767,
      "सेवितम्": 5768,
      "धौम्य": 5769,
      "परायणाः": 5770,
      "सलिल": 5771,
      "सहस्राणां": 5772,
      "मानुषा": 5773,
      "दध्": 5774,
      "पुनरेवा": 5775,
      "एतस्मिन्नन्तरे": 5776,
      "कर्हिचित्": 5777,
      ":।": 5778,
      "लयम्": 5779,
      "सित": 5780,
      "विने": 5781,
      "वाप्त": 5782,
      "दातु": 5783,
      "देवेश": 5784,
      "श्रद्ध": 5785,
      "ोऽन": 5786,
      "कुपित": 5787,
      "दिदम्": 5788,
      "त्वय": 5789,
      "शुक": 5790,
      "चिन्व": 5791,
      "दृष्टो": 5792,
      "तव्र": 5793,
      "वानसि": 5794,
      "द्रोणा": 5795,
      "जिह्व": 5796,
      "पुराण": 5797,
      "कृष्णे": 5798,
      "महीयते": 5799,
      "विक्रान्त": 5800,
      "जानन्ति": 5801,
      "महारथौ": 5802,
      "भावेन": 5803,
      "र्जुनस्य": 5804,
      "करोद्": 5805,
      "रजसा": 5806,
      "मुत्सहे": 5807,
      "र्थाः": 5808,
      "नगरी": 5809,
      "साम्प्र": 5810,
      "भयाद्": 5811,
      "यच्चा": 5812,
      "च्युतः": 5813,
      "बान्धवाः": 5814,
      "द्वैपायन": 5815,
      "त्थाय": 5816,
      "विभीषण": 5817,
      "ङ्गिर": 5818,
      "प्रयच्छति": 5819,
      "युयुत्स": 5820,
      "गाण्डीवधन्व": 5821,
      "कदनं": 5822,
      "अश्वत्थामा": 5823,
      "फुल्ल": 5824,
      "वसुंधरा": 5825,
      "कर्द": 5826,
      "जप": 5827,
      "टं": 5828,
      "यमो": 5829,
      "रित": 5830,
      "रेषु": 5831,
      "शशि": 5832,
      "सन्न": 5833,
      "प्रवृद्ध": 5834,
      "विपरी": 5835,
      "विबुध": 5836,
      "मायां": 5837,
      "स्तृ": 5838,
      "स्तै": 5839,
      "स्त्या": 5840,
      "स्तपो": 5841,
      "श्चर्य": 5842,
      "पाति": 5843,
      "याज": 5844,
      "यात": 5845,
      "मेयात्मा": 5846,
      "महात्मने": 5847,
      "युत": 5848,
      "ोऽद्य": 5849,
      "क्रान्त": 5850,
      "मानौ": 5851,
      "स्वां": 5852,
      "रोग": 5853,
      "धार्य": 5854,
      "्येवं": 5855,
      "रथमास्थाय": 5856,
      "गात्राणि": 5857,
      "केत": 5858,
      "सम्पन्ना": 5859,
      "प्रतिपद्यते": 5860,
      "समाप्त": 5861,
      "पृष": 5862,
      "दुःसह": 5863,
      "मुखी": 5864,
      "युद्धेन": 5865,
      "ान्यो": 5866,
      "ग्निना": 5867,
      "द्विजान्": 5868,
      "राघवो": 5869,
      "दमयन्ती": 5870,
      "पार्थिवा": 5871,
      "शक्रेण": 5872,
      "क्रोधो": 5873,
      "मुपागमत्": 5874,
      "अभिमन्यु": 5875,
      "मध्यं": 5876,
      "स्पर्ध": 5877,
      "महेष्वासं": 5878,
      "कुरून्": 5879,
      "वरुण": 5880,
      "पञ्चालान्": 5881,
      "निवेशने": 5882,
      "ददृशुः": 5883,
      "निमित्तं": 5884,
      "नन्तरम्": 5885,
      "पितॄन्": 5886,
      "विभुः": 5887,
      "ूंषि": 5888,
      "आच": 5889,
      "इष्ट": 5890,
      "खण्ड": 5891,
      "चिता": 5892,
      "जितं": 5893,
      "धरो": 5894,
      "पण": 5895,
      "पवन": 5896,
      "ेयो": 5897,
      "स्तत्रा": 5898,
      "स्तस्मिन्": 5899,
      "ांश्चैव": 5900,
      "निस्त्रि": 5901,
      "निद्रा": 5902,
      "कामेन": 5903,
      "सायं": 5904,
      "राजशार्दूल": 5905,
      "महामते": 5906,
      "महामुने": 5907,
      "भिर्म": 5908,
      "परपुरं": 5909,
      "ोऽत्र": 5910,
      "कुम्": 5911,
      "त्ये": 5912,
      "वीरेण": 5913,
      "र्थम": 5914,
      "यथाशक्ति": 5915,
      "ङ्गः": 5916,
      "ानामा": 5917,
      "मृष्ट": 5918,
      "कर्णि": 5919,
      "चेद": 5920,
      "चेद्": 5921,
      "पेतं": 5922,
      "सत्यविक्रमः": 5923,
      "दशभिः": 5924,
      "घोरे": 5925,
      "रूपो": 5926,
      "कुरुश्रेष्ठ": 5927,
      "होत्र": 5928,
      "जीवन्ति": 5929,
      "धीयत": 5930,
      "चक्रुः": 5931,
      "पर्वणि": 5932,
      "पर्वतम्": 5933,
      "द्युतिः": 5934,
      "स्त्रियो": 5935,
      "दक्षिणां": 5936,
      "सांख्य": 5937,
      "ऽऽत्मानं": 5938,
      "करिष्यसि": 5939,
      "ान्येव": 5940,
      "समन्वितम्": 5941,
      "सिद्धिं": 5942,
      "साध्विति": 5943,
      "युयुत्सु": 5944,
      "युज्यते": 5945,
      "शुश्रुम": 5946,
      "निशाचरः": 5947,
      "तथेत्युक्त्वा": 5948,
      "कौरवाणां": 5949,
      "इद": 5950,
      "ऋतु": 5951,
      "कपो": 5952,
      "घण्": 5953,
      "तद्वि": 5954,
      "थं": 5955,
      "धम": 5956,
      "धाः": 5957,
      "नृत": 5958,
      "पानी": 5959,
      "बह्व": 5960,
      "मनिन्द": 5961,
      "शिता": 5962,
      "शस्त्रा": 5963,
      "शल्यं": 5964,
      "ून्": 5965,
      "प्रधर्ष": 5966,
      "प्रयोज": 5967,
      "राध": 5968,
      "विशिष्ट": 5969,
      "निरे": 5970,
      "यास्यामि": 5971,
      "राजसत्तम": 5972,
      "त्येव": 5973,
      "भावो": 5974,
      "त्वदी": 5975,
      "प्रास": 5976,
      "प्रासाद": 5977,
      "पुत्रश्च": 5978,
      "देवैः": 5979,
      "त्वात्": 5980,
      "ग्नी": 5981,
      "स्मिं": 5982,
      "पार्थान्": 5983,
      "त्रिभि": 5984,
      "पितुर्": 5985,
      "शीर्य": 5986,
      "गच्छत": 5987,
      "भोज्य": 5988,
      "जिगीष": 5989,
      "कुरुक्षे": 5990,
      "वर्षसहस्राणि": 5991,
      "यदिदं": 5992,
      "यज्ञस्य": 5993,
      "यौवन": 5994,
      "यन्त्र": 5995,
      "सिंहा": 5996,
      "योऽसौ": 5997,
      "मनोर": 5998,
      "पदानु": 5999,
      "जातरूप": 6000,
      "संग्राम": 6001,
      "चीर": 6002,
      "शयने": 6003,
      "पृष्ठे": 6004,
      "गमन्": 6005,
      "दुर्मते": 6006,
      "शास्त्रं": 6007,
      "चाप्यु": 6008,
      "उत्तिष्ठ": 6009,
      "अश्वमेध": 6010,
      "विश्रुतम्": 6011,
      "क्लिश्य": 6012,
      "पार्षतः": 6013,
      "स्ततस्ततः": 6014,
      "महाद्युते": 6015,
      "सव्यसाची": 6016,
      "निरीक्ष": 6017,
      "गम्भी": 6018,
      "वाकिरत्": 6019,
      "अधि": 6020,
      "आसी": 6021,
      "उद्": 6022,
      "ऋते": 6023,
      "कस्मात्": 6024,
      "गरी": 6025,
      "चौ": 6026,
      "जलं": 6027,
      "पृत": 6028,
      "भज्य": 6029,
      "वधाय": 6030,
      "हयो": 6031,
      "त्कट": 6032,
      "पात्": 6033,
      "पारं": 6034,
      "सुयो": 6035,
      "परमया": 6036,
      "देहा": 6037,
      "त्यां": 6038,
      "स्वर्": 6039,
      "शात": 6040,
      "समभवद्": 6041,
      "यथार्ह": 6042,
      "तस्यैव": 6043,
      "तीति": 6044,
      "दीनां": 6045,
      "ैर्वा": 6046,
      "क्षिप": 6047,
      "श्रेयः": 6048,
      "मेवानु": 6049,
      "भाषे": 6050,
      "शैला": 6051,
      "पुत्राश्च": 6052,
      "दूर": 6053,
      "वधू": 6054,
      "पृथग्": 6055,
      "करिष्ये": 6056,
      "कर्माणं": 6057,
      "सहाय": 6058,
      "विष्णो": 6059,
      "कुम्भकर्ण": 6060,
      "वाजिनः": 6061,
      "महात्मानौ": 6062,
      "स्तपसा": 6063,
      "तेषाम": 6064,
      "विश्वामित्रो": 6065,
      "विस्तरेण": 6066,
      "बीभत्": 6067,
      "द्विषतां": 6068,
      "विधीयताम्": 6069,
      "द्रक्ष्यसि": 6070,
      "काङ्क्ष": 6071,
      "माद्रीपुत्रौ": 6072,
      "किरीटिना": 6073,
      "भरद्वाज": 6074,
      "दृष्ट्वैव": 6075,
      "आरुरोह": 6076,
      "मारुतात्मजः": 6077,
      "अर्ध": 6078,
      "कन्द": 6079,
      "छित्त्वा": 6080,
      "दितः": 6081,
      "नकुलं": 6082,
      "पङ्क": 6083,
      "मरी": 6084,
      "यिता": 6085,
      "यश्चा": 6086,
      "वसा": 6087,
      "वयो": 6088,
      "शर्म": 6089,
      "सस्य": 6090,
      "सपत्": 6091,
      "ैकेन": 6092,
      "प्रभव": 6093,
      "प्रपद्य": 6094,
      "विश्य": 6095,
      "विचे": 6096,
      "मार्ज": 6097,
      "वाङ्": 6098,
      "मुद्ध": 6099,
      "दारा": 6100,
      "दाया": 6101,
      "दास्यामि": 6102,
      "युश्च": 6103,
      "च्छन्": 6104,
      "स्वर": 6105,
      "प्रासा": 6106,
      "प्राविश": 6107,
      "सहानु": 6108,
      "वैरा": 6109,
      "ह्ने": 6110,
      "नुप": 6111,
      "किर": 6112,
      "धर्मचारि": 6113,
      "सम्प्राप्य": 6114,
      "दृष्टः": 6115,
      "लेप": 6116,
      "स्तेज": 6117,
      "स्त्वम": 6118,
      "यिष्या": 6119,
      "सोप": 6120,
      "स्थाणु": 6121,
      "म्बरे": 6122,
      "द्वाभ्यां": 6123,
      "नरकं": 6124,
      "पुष्क": 6125,
      "सुरान्": 6126,
      "तेऽनघ": 6127,
      "वाक्यम": 6128,
      "भीष्मे": 6129,
      "जगामा": 6130,
      "चतुः": 6131,
      "युधः": 6132,
      "योधानां": 6133,
      "मनोज": 6134,
      "तरस्वि": 6135,
      "सायक": 6136,
      "वृषसेन": 6137,
      "हृतम्": 6138,
      "सम्यग": 6139,
      "निशाचर": 6140,
      "रणाजिरे": 6141,
      "रुदती": 6142,
      "किरीटी": 6143,
      "बुध्यते": 6144,
      "भिषेच": 6145,
      "सुदारुणम्": 6146,
      "श्रौषं": 6147,
      "अपा": 6148,
      "एता": 6149,
      "कक्ष": 6150,
      "गतान्": 6151,
      "घू": 6152,
      "तमहं": 6153,
      "धरं": 6154,
      "भक्ता": 6155,
      "रभ": 6156,
      "ैतत्": 6157,
      "११": 6158,
      "्यर्थं": 6159,
      "म्ले": 6160,
      "प्रवेश": 6161,
      "प्रवृत्ति": 6162,
      "विशि": 6163,
      "स्तानि": 6164,
      "त्रु": 6165,
      "पाश्र": 6166,
      "न्तां": 6167,
      "याम्": 6168,
      "महावने": 6169,
      "भिर्य": 6170,
      "च्छो": 6171,
      "प्राहु": 6172,
      "चाह": 6173,
      "वैन": 6174,
      "शास्त्रा": 6175,
      "समिति": 6176,
      "येण": 6177,
      "हारि": 6178,
      "लाम्": 6179,
      "मनुजा": 6180,
      "समुद्ध": 6181,
      "सत्यमेतद्": 6182,
      "सुखदुःख": 6183,
      "पाण्डवस्य": 6184,
      "भ्रष्ट": 6185,
      "बाणैः": 6186,
      "मुनिम्": 6187,
      "दारुणम्": 6188,
      "प्रभुम्": 6189,
      "दुष्करं": 6190,
      "चोदयत्": 6191,
      "मण्डल": 6192,
      "विद्वां": 6193,
      "समागमे": 6194,
      "निपातितः": 6195,
      "शत्रूणां": 6196,
      "सैनिकाः": 6197,
      "युयुधान": 6198,
      "प्रसन्ना": 6199,
      "दुष्टात्मा": 6200,
      "दुरासदम्": 6201,
      "अक्ष": 6202,
      "गमः": 6203,
      "पच": 6204,
      "पन": 6205,
      "शान": 6206,
      "शराः": 6207,
      "षष्टि": 6208,
      "र्भूत्वा": 6209,
      "प्रमथ": 6210,
      "प्रमुच्यते": 6211,
      "तिल": 6212,
      "महोत्": 6213,
      "निर्ग": 6214,
      "पुरु": 6215,
      "कारेण": 6216,
      "मने": 6217,
      "समव": 6218,
      "किणी": 6219,
      "गाम": 6220,
      "ान्तक": 6221,
      "गुर": 6222,
      "समास्थाय": 6223,
      "लोकां": 6224,
      "भुजः": 6225,
      "ब्रवीदिदम्": 6226,
      "वचन": 6227,
      "स्मासु": 6228,
      "राक्षसो": 6229,
      "सौवर्ण": 6230,
      "मूला": 6231,
      "चेति": 6232,
      "द्रोणे": 6233,
      "मन्तो": 6234,
      "स्थातुं": 6235,
      "स्तार": 6236,
      "द्वाक्यं": 6237,
      "सोऽति": 6238,
      "वर्षे": 6239,
      "त्याग": 6240,
      "संशयो": 6241,
      "पर्वतं": 6242,
      "यमस्य": 6243,
      "दत्ते": 6244,
      "नन्दनम्": 6245,
      "ततोऽस्य": 6246,
      "मुपाद्रवत्": 6247,
      "नित्यम": 6248,
      "नानाविध": 6249,
      "बभूवुः": 6250,
      "मधुरं": 6251,
      "सागरं": 6252,
      "लक्ष्मणस्य": 6253,
      "अनुज्ञा": 6254,
      "मिच्छता": 6255,
      "अवश्यं": 6256,
      "क्षत्रधर्म": 6257,
      "प्रतीक्ष": 6258,
      "देवीं": 6259,
      "राधेय": 6260,
      "पैता": 6261,
      "विशारदाः": 6262,
      "प्रसादात्": 6263,
      "वक्तुमर्हसि": 6264,
      "कश्यप": 6265,
      "भविष्यामि": 6266,
      "लोमहर्षणम्": 6267,
      "अतीव": 6268,
      "आत्मन": 6269,
      "कश्म": 6270,
      "नर्त": 6271,
      "मध्या": 6272,
      "यन्तं": 6273,
      "वस्तु": 6274,
      "वह्नि": 6275,
      "शरेण": 6276,
      "षण्": 6277,
      "ेयः": 6278,
      "मार्त": 6279,
      "मासीत्": 6280,
      "क्षण": 6281,
      "स्मान": 6282,
      "यास्यति": 6283,
      "संवी": 6284,
      "मुः": 6285,
      "साध्या": 6286,
      "मेतन्": 6287,
      "महार्ह": 6288,
      "युतं": 6289,
      "भागि": 6290,
      "वेष्ट": 6291,
      "योरिव": 6292,
      "योषितः": 6293,
      "वैश": 6294,
      "समभ्य": 6295,
      "समलं": 6296,
      "श्वस्य": 6297,
      "किमन्य": 6298,
      "येना": 6299,
      "येयं": 6300,
      "ान्तरं": 6301,
      "चिद": 6302,
      "न्यत्": 6303,
      "न्यान्": 6304,
      "मोक्षा": 6305,
      "पाण्डवो": 6306,
      "सेवित": 6307,
      "पृथा": 6308,
      "ह्यस्य": 6309,
      "कथां": 6310,
      "ततस्तस्य": 6311,
      "शरणा": 6312,
      "पेता": 6313,
      "भूतले": 6314,
      "बहुशो": 6315,
      "सृष्टं": 6316,
      "भगवां": 6317,
      "वनवा": 6318,
      "जीवन्": 6319,
      "प्रीता": 6320,
      "महीम्": 6321,
      "प्रहस्य": 6322,
      "बभूवु": 6323,
      "स्वागतं": 6324,
      "ितुमर्हसि": 6325,
      "ग्रहम्": 6326,
      "रजो": 6327,
      "तच्छृणु": 6328,
      "वराह": 6329,
      "क्रियाः": 6330,
      "नारायणं": 6331,
      "वध्यमाना": 6332,
      "पूजयित्वा": 6333,
      "शाश्वतम्": 6334,
      "कमल": 6335,
      "स्फुर": 6336,
      "द्वीप": 6337,
      "प्रकाशते": 6338,
      "मात्रेण": 6339,
      "सहदेवश्च": 6340,
      "तपोधनाः": 6341,
      "पांसु": 6342,
      "न्द्रिय": 6343,
      "पौरजान": 6344,
      "त्रयोदश": 6345,
      "वरिष्ठ": 6346,
      "ददर्शा": 6347,
      "श्रमपदं": 6348,
      "ढुं": 6349,
      "तित": 6350,
      "दैः": 6351,
      "ध्": 6352,
      "नमो": 6353,
      "मत्र": 6354,
      "मश्व": 6355,
      "यमु": 6356,
      "वनि": 6357,
      "सज्": 6358,
      "ीय": 6359,
      "ैश्चापि": 6360,
      "विचित्राणि": 6361,
      "श्चो": 6362,
      "मेनं": 6363,
      "महासु": 6364,
      "वेला": 6365,
      "वेश्": 6366,
      "दिक्षु": 6367,
      "ेष्यामि": 6368,
      "श्वरं": 6369,
      "किन्न": 6370,
      "किमिदं": 6371,
      "बाह्व": 6372,
      "प्रतिष्ठा": 6373,
      "वृषा": 6374,
      "मित्या": 6375,
      "व्याख्या": 6376,
      "शरवर्षाणि": 6377,
      "त्तमौ": 6378,
      "शीर्ण": 6379,
      "रक्षः": 6380,
      "दर्शनी": 6381,
      "यिष्यसि": 6382,
      "युद्ध्य": 6383,
      "शूराणां": 6384,
      "भ्रातु": 6385,
      "धीः": 6386,
      "तेजः": 6387,
      "पापस्य": 6388,
      "विदू": 6389,
      "विषयं": 6390,
      "यमक्षयम्": 6391,
      "रमते": 6392,
      "विक्रमाः": 6393,
      "स्त्रिभिः": 6394,
      "पालयन्": 6395,
      "रेणु": 6396,
      "जानकी": 6397,
      "भाग्य": 6398,
      "पुत्राय": 6399,
      "मनोह": 6400,
      "ब्रुवं": 6401,
      "स्तीति": 6402,
      "वायुः": 6403,
      "नारदः": 6404,
      "पूर्णचन्द्र": 6405,
      "धावत": 6406,
      "सोमदत्त": 6407,
      "समुद्रस्य": 6408,
      "स्येह": 6409,
      "सलिलं": 6410,
      "तपोधन": 6411,
      "कौसल्य": 6412,
      "प्रदक्षिणम्": 6413,
      "महोरग": 6414,
      "जाम्बूनद": 6415,
      "तच्छुत्वा": 6416,
      "आयु": 6417,
      "कन्य": 6418,
      "नख": 6419,
      "नत्": 6420,
      "ननु": 6421,
      "याना": 6422,
      "शां": 6423,
      "ेद्": 6424,
      "ाननः": 6425,
      "प्रसह्य": 6426,
      "प्रस्रव": 6427,
      "माहा": 6428,
      "माणां": 6429,
      "मात्रं": 6430,
      "मागतम्": 6431,
      "तेष्व": 6432,
      "श्चान्ये": 6433,
      "महतो": 6434,
      "निवार": 6435,
      "निखि": 6436,
      "याभि": 6437,
      "कार्त": 6438,
      "संय": 6439,
      "संत्य": 6440,
      "सुमध्य": 6441,
      "मेनिरे": 6442,
      "श्रान्त": 6443,
      "ोऽन्व": 6444,
      "भावः": 6445,
      "योगि": 6446,
      "किष्": 6447,
      "भवतो": 6448,
      "शिक्ष": 6449,
      "यथावृत्तं": 6450,
      "तांस्तु": 6451,
      "गुणः": 6452,
      "प्रतिम": 6453,
      "ङ्गानि": 6454,
      "पाण्डवान": 6455,
      "शोको": 6456,
      "भुक्त्वा": 6457,
      "दर्भ": 6458,
      "कोस": 6459,
      "कथयामास": 6460,
      "ततस्तं": 6461,
      "मन्तः": 6462,
      "प्रत्यक्ष": 6463,
      "वीरस्य": 6464,
      "धनुष्म": 6465,
      "क्षुत्": 6466,
      "पाण्डवौ": 6467,
      "तावकानां": 6468,
      "भूषितम्": 6469,
      "भर्तुः": 6470,
      "वज्रा": 6471,
      "प्रोक्त": 6472,
      "पृष्ठतोऽ": 6473,
      "धावन्त": 6474,
      "ध्रुव": 6475,
      "शल्यो": 6476,
      "निर्जित्य": 6477,
      "पुङ्गवाः": 6478,
      "बीज": 6479,
      "कुर्याद्": 6480,
      "विभूषितम्": 6481,
      "वैदेहीं": 6482,
      "महिषी": 6483,
      "निःश्वस्य": 6484,
      "स्वयमेव": 6485,
      "श्छिन्न": 6486,
      "भूयिष्ठ": 6487,
      "स्नुषा": 6488,
      "श्रद्दधान": 6489,
      "अन्न": 6490,
      "अपरे": 6491,
      "कान्ता": 6492,
      "जान्": 6493,
      "जन्तु": 6494,
      "दरि": 6495,
      "बभ्र": 6496,
      "यस्मात्": 6497,
      "शरण": 6498,
      "ेद": 6499,
      "प्रसाद्य": 6500,
      "मासं": 6501,
      "स्ततोऽ": 6502,
      "ांस्तथा": 6503,
      "क्ष्णा": 6504,
      "स्यसे": 6505,
      "नाशंसे": 6506,
      "स्म्य": 6507,
      "सुशर्मा": 6508,
      "महाकपिः": 6509,
      "द्रवि": 6510,
      "तुल": 6511,
      "द्धो": 6512,
      "सर्वमिदं": 6513,
      "दुर्वा": 6514,
      "क्रव्या": 6515,
      "भीक्ष्ण": 6516,
      "स्थाना": 6517,
      "शिनि": 6518,
      "दृष्टेन": 6519,
      "त्रिंश": 6520,
      "ानुपा": 6521,
      "नृपाः": 6522,
      "पततां": 6523,
      "चेन्": 6524,
      "पेक्ष": 6525,
      "बुद्ध्य": 6526,
      "दानवाः": 6527,
      "वत्सर": 6528,
      "पुनर्व": 6529,
      "ध्वजा": 6530,
      "रावणा": 6531,
      "सोऽभि": 6532,
      "शक्तः": 6533,
      "बाणेन": 6534,
      "दक्षिणैः": 6535,
      "पृथिवीपतिः": 6536,
      "तावद्": 6537,
      "केनचित्": 6538,
      "दिव्यम": 6539,
      "दुर्योधनस्य": 6540,
      "भ्याम": 6541,
      "श्वास्य": 6542,
      "वादित्र": 6543,
      "युध्यस्व": 6544,
      "मवाप्नुयात्": 6545,
      "निर्जिता": 6546,
      "निशितैर्बाण": 6547,
      "बलिनां": 6548,
      "बद्ध्वा": 6549,
      "शरास": 6550,
      "स्वयम्भु": 6551,
      "यथोक्तं": 6552,
      "हनुमान्": 6553,
      "पार्थाः": 6554,
      "मोदते": 6555,
      "धार्मिकः": 6556,
      "परित्रा": 6557,
      "ब्राह्मणेभ्यो": 6558,
      "समाश्रित्य": 6559,
      "शक्नु": 6560,
      "शक्नो": 6561,
      "अवि": 6562,
      "एतस्मिन्नेव": 6563,
      "खल्व": 6564,
      "चराः": 6565,
      "तव्य": 6566,
      "तरो": 6567,
      "दन्": 6568,
      "नेषु": 6569,
      "वस्त्रा": 6570,
      "शश्व": 6571,
      "षष्ट्या": 6572,
      "सन्तः": 6573,
      "ानन्द": 6574,
      "ितेन्द्रि": 6575,
      "प्रवा": 6576,
      "प्रद्युम्": 6577,
      "प्रहृष्टा": 6578,
      "विप्रे": 6579,
      "विष्टं": 6580,
      "वार्षि": 6581,
      "स्तवा": 6582,
      "निधि": 6583,
      "तादृशं": 6584,
      "सुरो": 6585,
      "सुतीक्ष्ण": 6586,
      "मेषा": 6587,
      "राजोवाच": 6588,
      "ष्टे": 6589,
      "परत्र": 6590,
      "कुत": 6591,
      "कुन्त": 6592,
      "ङ्के": 6593,
      "चापरे": 6594,
      "दृशी": 6595,
      "शात्": 6596,
      "कृताम्": 6597,
      "भवतः": 6598,
      "गावो": 6599,
      "रणमूर्धनि": 6600,
      "परिगृह्य": 6601,
      "जयतां": 6602,
      "शीला": 6603,
      "मुखान्": 6604,
      "वानरान्": 6605,
      "पेदे": 6606,
      "पितामहा": 6607,
      "अथैनं": 6608,
      "विक्रमेण": 6609,
      "विप्रर्षे": 6610,
      "भीष्मद्रोण": 6611,
      "च्छाद्य": 6612,
      "जेता": 6613,
      "तेऽहं": 6614,
      "हरियूथ": 6615,
      "गतिर्": 6616,
      "स्वर्गं": 6617,
      "मृगपक्षि": 6618,
      "द्धात्मा": 6619,
      "लक्षये": 6620,
      "सागरस्य": 6621,
      "कौन्तेयं": 6622,
      "शेषा": 6623,
      "ैर्वृ": 6624,
      "लोचना": 6625,
      "स्तूय": 6626,
      "तीर्थानि": 6627,
      "केवलम्": 6628,
      "दुःखार्त": 6629,
      "महावीर्यो": 6630,
      "क्षुरप्र": 6631,
      "अती": 6632,
      "दनु": 6633,
      "नलि": 6634,
      "पत्रिभिः": 6635,
      "भयान": 6636,
      "वस्य": 6637,
      "प्रच": 6638,
      "प्रणे": 6639,
      "त्पल": 6640,
      "तिं": 6641,
      "महति": 6642,
      "निच": 6643,
      "याहि": 6644,
      "संगम्य": 6645,
      "महामृधे": 6646,
      "प्रायश्च": 6647,
      "धिपति": 6648,
      "कृत्व": 6649,
      "कृतिः": 6650,
      "स्थान्": 6651,
      "स्थिति": 6652,
      "श्वरो": 6653,
      "बाढ": 6654,
      "सम्बाध": 6655,
      "प्रतिपद्य": 6656,
      "तीरे": 6657,
      "शोष": 6658,
      "ानामिव": 6659,
      "ह्यहम्": 6660,
      "ममृ": 6661,
      "दर्शी": 6662,
      "राजन्ना": 6663,
      "श्चात्र": 6664,
      "दानवा": 6665,
      "वोप": 6666,
      "सुखाव": 6667,
      "पूर्वमेव": 6668,
      "कम्पत": 6669,
      "जीविता": 6670,
      "विति": 6671,
      "कामक्रोध": 6672,
      "चरित": 6673,
      "विक्रम्य": 6674,
      "यन्तौ": 6675,
      "पादप": 6676,
      "दण्डो": 6677,
      "विजित्य": 6678,
      "भरतस्य": 6679,
      "जीमू": 6680,
      "कुशलो": 6681,
      "चेतसम्": 6682,
      "गृह्या": 6683,
      "ताम्रा": 6684,
      "निषूद": 6685,
      "भगवानुवाच": 6686,
      "स्नेहा": 6687,
      "त्तिष्ठ": 6688,
      "स्फी": 6689,
      "राक्षसेन्द्रस्य": 6690,
      "शक्यते": 6691,
      "हनिष्यामि": 6692,
      "साध्वी": 6693,
      "ज्येष्ठं": 6694,
      "सम्भ्रान्त": 6695,
      "पौरुषं": 6696,
      "द्वितीयं": 6697,
      "मधुसूदनः": 6698,
      "ताडयत्": 6699,
      "शीविषोप": 6700,
      "स्तनान्तरे": 6701,
      "छादयामास": 6702,
      "करुणं": 6703,
      "वैनते": 6704,
      "कबन्ध": 6705,
      "थवा": 6706,
      "नरं": 6707,
      "मद्व": 6708,
      "मद्वि": 6709,
      "यस्तथा": 6710,
      "रराज": 6711,
      "वहा": 6712,
      "सन्तो": 6713,
      "सरांसि": 6714,
      "ैति": 6715,
      "्येन": 6716,
      "प्रयत": 6717,
      "विहित": 6718,
      "विपर्य": 6719,
      "विशिष्यते": 6720,
      "वाणी": 6721,
      "स्तः": 6722,
      "निर्वा": 6723,
      "पाद्": 6724,
      "यावद्": 6725,
      "दात्": 6726,
      "परु": 6727,
      "कुशि": 6728,
      "पिङ्ग": 6729,
      "र्तुं": 6730,
      "व्यग्र": 6731,
      "सहदेवं": 6732,
      "गाय": 6733,
      "भ्यधि": 6734,
      "सम्भा": 6735,
      "नीकानि": 6736,
      "लोकपाल": 6737,
      "सूय": 6738,
      "यत्नं": 6739,
      "ैरश्व": 6740,
      "सर्वासु": 6741,
      "द्वारि": 6742,
      "कामये": 6743,
      "धनुष्": 6744,
      "विप्रः": 6745,
      "युगान्ते": 6746,
      "कुलस्य": 6747,
      "तृण": 6748,
      "मीति": 6749,
      "वारणा": 6750,
      "नराधिपाः": 6751,
      "र्जुनेन": 6752,
      "हृदय": 6753,
      "शोभने": 6754,
      "प्नुहि": 6755,
      "सेनापति": 6756,
      "प्सया": 6757,
      "परस्परं": 6758,
      "भ्रातरः": 6759,
      "नैवं": 6760,
      "पुण्ये": 6761,
      "धर्मेषु": 6762,
      "चुक्रुशु": 6763,
      "वशानु": 6764,
      "स्थिरे": 6765,
      "श्छित्त्वा": 6766,
      "कुरवो": 6767,
      "पर्याप्त": 6768,
      "मरुत्त": 6769,
      "केवलं": 6770,
      "दिवाकरः": 6771,
      "लक्ष्यते": 6772,
      "भुञ्जते": 6773,
      "किञ्चि": 6774,
      "मव्ययम्": 6775,
      "पन्थान": 6776,
      "जिह्मगैः": 6777,
      "कैलास": 6778,
      "अतः": 6779,
      "अनेक": 6780,
      "अक्षौ": 6781,
      "एतान्": 6782,
      "कलिङ्ग": 6783,
      "गणे": 6784,
      "जवे": 6785,
      "तैश्च": 6786,
      "दयः": 6787,
      "नश्य": 6788,
      "पथा": 6789,
      "पत्रि": 6790,
      "मयू": 6791,
      "हस्त्य": 6792,
      "ऽभि": 6793,
      "१२": 6794,
      "ानीव": 6795,
      "प्रयुक्त": 6796,
      "राशि": 6797,
      "विमानं": 6798,
      "स्तस्मा": 6799,
      "स्तत्त्व": 6800,
      "क्षणे": 6801,
      "निवार्य": 6802,
      "निबर्ह": 6803,
      "कारी": 6804,
      "कार्षी": 6805,
      "संत्र": 6806,
      "परस्य": 6807,
      "युर": 6808,
      "वेति": 6809,
      "योर": 6810,
      "र्युद्ध": 6811,
      "प्राद्रवन्": 6812,
      "व्यस": 6813,
      "धिष्ठि": 6814,
      "चामि": 6815,
      "चातुर्व": 6816,
      "वैश्व": 6817,
      "शाल": 6818,
      "किरा": 6819,
      "भवन्तं": 6820,
      "बाह्नि": 6821,
      "पूरुष": 6822,
      "तीन्": 6823,
      "पृच्छामि": 6824,
      "ल्लोके": 6825,
      "द्विप": 6826,
      "तपश्च": 6827,
      "कथञ्च": 6828,
      "जनैः": 6829,
      "ञ्जल": 6830,
      "चक्राम": 6831,
      "कामस्य": 6832,
      "धनुषा": 6833,
      "पर्वते": 6834,
      "मन्त्रं": 6835,
      "यौव": 6836,
      "वद्या": 6837,
      "यन्तु": 6838,
      "शक्रः": 6839,
      "सरितां": 6840,
      "बिन्दु": 6841,
      "नादेन": 6842,
      "तस्यापि": 6843,
      "सन्निव": 6844,
      "सप्तत्या": 6845,
      "स्वाध्या": 6846,
      "पाण्डुपुत्राणां": 6847,
      "मत्तो": 6848,
      "माणाः": 6849,
      "दारुणः": 6850,
      "नगरा": 6851,
      "मोहितः": 6852,
      "मानुषम्": 6853,
      "ानीक": 6854,
      "महेश्वर": 6855,
      "गमिष्यसि": 6856,
      "प्रीतिं": 6857,
      "सत्कृत्य": 6858,
      "क्रियते": 6859,
      "द्रौणिः": 6860,
      "प्लवङ्ग": 6861,
      "महानादं": 6862,
      "दस्यु": 6863,
      "वपुषा": 6864,
      "सव्यसाचिना": 6865,
      "थु": 6866,
      "दशर": 6867,
      "नलं": 6868,
      "पय": 6869,
      "बर्हि": 6870,
      "मग्": 6871,
      "मदो": 6872,
      "यसी": 6873,
      "रवि": 6874,
      "रण्": 6875,
      "सैर": 6876,
      "ित्रा": 6877,
      "प्रमुखे": 6878,
      "विद्रु": 6879,
      "विचित्रा": 6880,
      "माप्नोति": 6881,
      "स्तस्मात्": 6882,
      "ांस्तु": 6883,
      "क्षयः": 6884,
      "निदर्शनम्": 6885,
      "त्रया": 6886,
      "सुरेन्द्र": 6887,
      "सर्वशस्त्रभृतां": 6888,
      "श्रितः": 6889,
      "क्राम": 6890,
      "चारा": 6891,
      "कृतेन": 6892,
      "किमु": 6893,
      "शिरांसि": 6894,
      "हास्ति": 6895,
      "स्त्रे": 6896,
      "मितौज": 6897,
      "ग्रेण": 6898,
      "व्याकुल": 6899,
      "र्वाक्य": 6900,
      "ज्ञाप्य": 6901,
      "मृता": 6902,
      "मृषा": 6903,
      "मृषी": 6904,
      "र्हति": 6905,
      "रक्षसः": 6906,
      "सेनया": 6907,
      "गोप": 6908,
      "प्राप्ताः": 6909,
      "द्वाक्य": 6910,
      "निहत": 6911,
      "प्रीयमा": 6912,
      "बाहुं": 6913,
      "पाण्डवेन": 6914,
      "अथान्य": 6915,
      "रम्ये": 6916,
      "वासांसि": 6917,
      "बाणैर्": 6918,
      "जानन्": 6919,
      "पन्ने": 6920,
      "शक्रं": 6921,
      "घाता": 6922,
      "योधान्": 6923,
      "पद्यन्त": 6924,
      "ममापि": 6925,
      "कुशला": 6926,
      "विदुरो": 6927,
      "वायुना": 6928,
      "नियतो": 6929,
      "गम्या": 6930,
      "ध्वजम्": 6931,
      "ह्रियमा": 6932,
      "जानासि": 6933,
      "क्षमाणा": 6934,
      "विन्दते": 6935,
      "च्युतम्": 6936,
      "पञ्चालाः": 6937,
      "मेऽद्य": 6938,
      "विराटस्य": 6939,
      "श्वेता": 6940,
      "महर्षिभिः": 6941,
      "कारिणः": 6942,
      "रौद्रं": 6943,
      "चमूम्": 6944,
      "न्द्रियः": 6945,
      "दशग्री": 6946,
      "कुलाम्": 6947,
      "निरीक्ष्य": 6948,
      "हेतोः": 6949,
      "सावित्री": 6950,
      "शान्तनवो": 6951,
      "गुह्यं": 6952,
      "पर्जन्य": 6953,
      "वृणीष्व": 6954,
      "सम्बन्धि": 6955,
      "अर्जुनं": 6956,
      "बभाषे": 6957,
      "मतम्": 6958,
      "यैर्": 6959,
      "रता": 6960,
      "वह्": 6961,
      "वध्या": 6962,
      "सरी": 6963,
      "हवि": 6964,
      "हरे": 6965,
      "हयाः": 6966,
      "ियते": 6967,
      "ेभ्यो": 6968,
      "ानना": 6969,
      "प्रमुखा": 6970,
      "विवर्ण": 6971,
      "क्ली": 6972,
      "निद्र": 6973,
      "मिवान": 6974,
      "ोऽह": 6975,
      "क्रमेण": 6976,
      "वेदं": 6977,
      "च्छू": 6978,
      "स्वन": 6979,
      "दिदेश": 6980,
      "र्थान्": 6981,
      "धिक्": 6982,
      "लोहित": 6983,
      "वैश्या": 6984,
      "कृद्": 6985,
      "श्वमेध": 6986,
      "श्वर्यं": 6987,
      "जायन्ते": 6988,
      "पुत्रशोका": 6989,
      "शुभाः": 6990,
      "लाभ": 6991,
      "सम्पूज्य": 6992,
      "प्रतिज्ञां": 6993,
      "समाकुलम्": 6994,
      "पाण्डूनां": 6995,
      "दंष्ट्रा": 6996,
      "त्मन्": 6997,
      "वर्तेत": 6998,
      "ब्रह्मण्य": 6999,
      "पतौ": 7000,
      "जनपदे": 7001,
      "र्याः": 7002,
      "युक्ताः": 7003,
      "भीमसेना": 7004,
      "हीयते": 7005,
      "कुरुसत्तम": 7006,
      "ग्राम": 7007,
      "ञ्जसा": 7008,
      "नामयम्": 7009,
      "वनेषु": 7010,
      "ग्निः": 7011,
      "पापो": 7012,
      "शेरते": 7013,
      "क्षुध": 7014,
      "पाण्डवाना": 7015,
      "गिरी": 7016,
      "पार्थिवान्": 7017,
      "धर्मन": 7018,
      "वाक्यानि": 7019,
      "शुभैः": 7020,
      "ब्रूया": 7021,
      "समीर": 7022,
      "स्त्यक्त्वा": 7023,
      "गान्धार": 7024,
      "दुष्कृतं": 7025,
      "ततस्ततः": 7026,
      "दृढं": 7027,
      "समन्विताः": 7028,
      "स्मृत्य": 7029,
      "भगवता": 7030,
      "वत्सलः": 7031,
      "रुधिरो": 7032,
      "हनूमन्तं": 7033,
      "गाण्डीवं": 7034,
      "पथं": 7035,
      "पुरीम्": 7036,
      "वसिष्ठो": 7037,
      "च्चावच": 7038,
      "सीदति": 7039,
      "ऋषयश्च": 7040,
      "किरीट": 7041,
      "गमने": 7042,
      "विशुद्ध": 7043,
      "पाञ्चाली": 7044,
      "दित्या": 7045,
      "मागध": 7046,
      "नमस्कृत्य": 7047,
      "पितॄणां": 7048,
      "पुरंदरः": 7049,
      "किष्कि": 7050,
      "क्षुत्पिपा": 7051,
      "प्रायश्चित्त": 7052,
      "दशरथा": 7053,
      "अर्च": 7054,
      "आप": 7055,
      "गतोऽ": 7056,
      "दिता": 7057,
      "बो": 7058,
      "मये": 7059,
      "वन्त्य": 7060,
      "हतौ": 7061,
      "प्रदाय": 7062,
      "तिम्": 7063,
      "क्षत्ता": 7064,
      "द्ग": 7065,
      "निगृह्य": 7066,
      "ताल": 7067,
      "संगृह्य": 7068,
      "सुन्द": 7069,
      "सुव्रत": 7070,
      "मिथि": 7071,
      "साह्व": 7072,
      "सारथे": 7073,
      "राजेन": 7074,
      "महार्हा": 7075,
      "तुरो": 7076,
      "तुभ्यं": 7077,
      "सर्वः": 7078,
      "भाषि": 7079,
      "योष": 7080,
      "मानानि": 7081,
      "स्वान्": 7082,
      "व्ययम्": 7083,
      "णाद्": 7084,
      "पुत्रक": 7085,
      "बलस्य": 7086,
      "रथम्": 7087,
      "यथाव": 7088,
      "हास": 7089,
      "सम्प्रति": 7090,
      "मिततेजसः": 7091,
      "ग्रतो": 7092,
      "द्विजातयः": 7093,
      "ानुप": 7094,
      "मूषि": 7095,
      "मनुस्मरन्": 7096,
      "पतन्ती": 7097,
      "जनयामास": 7098,
      "पेत्य": 7099,
      "पेदिरे": 7100,
      "सत्यवती": 7101,
      "प्रियत": 7102,
      "वृत्तः": 7103,
      "वृत्तो": 7104,
      "भगी": 7105,
      "पूर्वे": 7106,
      "र्जुना": 7107,
      "द्विजश्रेष्ठ": 7108,
      "पातितः": 7109,
      "पर्वतोप": 7110,
      "न्याः": 7111,
      "ितिष्ठ": 7112,
      "ध्यात्वा": 7113,
      "विप्राः": 7114,
      "वसत्": 7115,
      "तेऽद्य": 7116,
      "नागं": 7117,
      "शक्रा": 7118,
      "तन्ममाचक्ष्व": 7119,
      "श्रीभगवानुवाच": 7120,
      "मन्वि": 7121,
      "शस्त्रं": 7122,
      "प्रभाः": 7123,
      "गृहान्": 7124,
      "शेषतः": 7125,
      "सदृशो": 7126,
      "नदीम्": 7127,
      "प्रेष्य": 7128,
      "ख्यानं": 7129,
      "मादित्य": 7130,
      "ज्येष्ठा": 7131,
      "पूजयत्": 7132,
      "ददामि": 7133,
      "संहितम्": 7134,
      "द्यूत": 7135,
      "ान्तरधीयत": 7136,
      "भग्ना": 7137,
      "श्विनौ": 7138,
      "पवित्रं": 7139,
      "कैकेय्या": 7140,
      "स्थावरजङ्ग": 7141,
      "साम्प्रतम्": 7142,
      "सुयोधन": 7143,
      "अधर्म": 7144,
      "अद्या": 7145,
      "जह": 7146,
      "ण्ये": 7147,
      "धराः": 7148,
      "भयमा": 7149,
      "व्रा": 7150,
      "शना": 7151,
      "सबान्ध": 7152,
      "ुमर्हसि": 7153,
      "ानने": 7154,
      "ित्यं": 7155,
      "प्रहार": 7156,
      "विमुच्य": 7157,
      "नाप": 7158,
      "महानु": 7159,
      "निष्ठा": 7160,
      "संन्य": 7161,
      "सुकृत": 7162,
      "सुदुर्": 7163,
      "सुकुमा": 7164,
      "सारं": 7165,
      "मेका": 7166,
      "ष्टां": 7167,
      "रुचि": 7168,
      "दुम": 7169,
      "मनस": 7170,
      "व्ययः": 7171,
      "सहते": 7172,
      "्येते": 7173,
      "किला": 7174,
      "गालव": 7175,
      "धर्मम": 7176,
      "शिवं": 7177,
      "तीम्": 7178,
      "पृच्छे": 7179,
      "न्नृ": 7180,
      "ष्णं": 7181,
      "कथ्य": 7182,
      "नृपतिः": 7183,
      "जनक": 7184,
      "दाने": 7185,
      "स्थाः": 7186,
      "शतक्रतु": 7187,
      "निहतान्": 7188,
      "शेकु": 7189,
      "विषय": 7190,
      "शत्रो": 7191,
      "तिष्ठेति": 7192,
      "गिरौ": 7193,
      "धनानि": 7194,
      "यशसा": 7195,
      "कौरवाः": 7196,
      "वृद्धो": 7197,
      "क्षत्रियस्य": 7198,
      "परमर्षयः": 7199,
      "सैन्येषु": 7200,
      "विजाना": 7201,
      "वधः": 7202,
      "जगती": 7203,
      "चन्द्रा": 7204,
      "प्रत्युद्य": 7205,
      "अवध्य": 7206,
      "क्षोभ": 7207,
      "मारुह्य": 7208,
      "धनंजयौ": 7209,
      "सूदन": 7210,
      "वासिनाम्": 7211,
      "यतामिति": 7212,
      "पुरुषोत्तमः": 7213,
      "प्रसादेन": 7214,
      "योगात्": 7215,
      "भास्कर": 7216,
      "धन्विनाम्": 7217,
      "वेश्मनि": 7218,
      "दुर्लभम्": 7219,
      "ययातिरुवाच": 7220,
      "मर्त्य": 7221,
      "शतक्रतुः": 7222,
      "गिरेः": 7223,
      "ान्तरात्मना": 7224,
      "चुर्": 7225,
      "जानु": 7226,
      "डु": 7227,
      "थी": 7228,
      "भितो": 7229,
      "वशी": 7230,
      "शर्मि": 7231,
      "ानभि": 7232,
      "प्रख्य": 7233,
      "प्रभिन्न": 7234,
      "विवि": 7235,
      "विही": 7236,
      "तेभ्यो": 7237,
      "निकृति": 7238,
      "तारं": 7239,
      "तायां": 7240,
      "याम्यहम्": 7241,
      "कारे": 7242,
      "सात्": 7243,
      "राजः": 7244,
      "भिरे": 7245,
      "ोऽयम": 7246,
      "कुब्": 7247,
      "त्तमे": 7248,
      "र्यस्य": 7249,
      "मान्त": 7250,
      "मानसाः": 7251,
      "तोः": 7252,
      "प्राग्": 7253,
      "व्यति": 7254,
      "व्यरोच": 7255,
      "शात्र": 7256,
      "कृपं": 7257,
      "किमा": 7258,
      "भवन्तो": 7259,
      "शिव": 7260,
      "चिरेण": 7261,
      "बाह": 7262,
      "तीर्थे": 7263,
      "वृताम्": 7264,
      "मितौजसः": 7265,
      "परिवर्ज": 7266,
      "ानामपि": 7267,
      "ल्लोक": 7268,
      "द्विग्": 7269,
      "र्वाक्यं": 7270,
      "र्दिताः": 7271,
      "गच्छद्": 7272,
      "कीट": 7273,
      "समुदा": 7274,
      "ज्यते": 7275,
      "वृत्तेन": 7276,
      "व्रीड": 7277,
      "रूपः": 7278,
      "स्ताप": 7279,
      "त्मानो": 7280,
      "वित्रा": 7281,
      "पापेन": 7282,
      "युधिष्ठिरस्य": 7283,
      "वाससः": 7284,
      "पालय": 7285,
      "नैनं": 7286,
      "ल्पं": 7287,
      "वदस्व": 7288,
      "निश्चयम्": 7289,
      "मुपागम्य": 7290,
      "दूरा": 7291,
      "मुपस्थितम्": 7292,
      "शरीरि": 7293,
      "स्तीर्थ": 7294,
      "हरति": 7295,
      "पाणिं": 7296,
      "कुर्वते": 7297,
      "जातवेद": 7298,
      "द्भुतम": 7299,
      "नियतं": 7300,
      "भोजनम्": 7301,
      "जुह्व": 7302,
      "हयानां": 7303,
      "मण्डलम्": 7304,
      "समाहिताः": 7305,
      "यशस्विनीम्": 7306,
      "शुभाम्": 7307,
      "कुञ्जर": 7308,
      "प्लवग": 7309,
      "पराजितः": 7310,
      "भरणभूष": 7311,
      "विद्युत्": 7312,
      "सर्वमाख्यातं": 7313,
      "जयद्रथः": 7314,
      "निर्वृत्त": 7315,
      "चन्दन": 7316,
      "वसेत्": 7317,
      "त्मानमात्मना": 7318,
      "पाणयः": 7319,
      "इहा": 7320,
      "एकः": 7321,
      "एतद": 7322,
      "ग्यो": 7323,
      "जेन": 7324,
      "जनम्": 7325,
      "जरत्": 7326,
      "मयी": 7327,
      "वन्तः": 7328,
      "सरो": 7329,
      "ैस्तीक्ष्ण": 7330,
      "ितानां": 7331,
      "प्रभूत": 7332,
      "प्रभृत": 7333,
      "प्रख्यं": 7334,
      "विसंज्ञ": 7335,
      "वाप्नोति": 7336,
      "नास्त्य": 7337,
      "पालो": 7338,
      "पुलि": 7339,
      "र्वै": 7340,
      "संकल्": 7341,
      "मिच्छा": 7342,
      "भिरेव": 7343,
      "द्धृ": 7344,
      "द्धर्म": 7345,
      "क्ति": 7346,
      "त्तर": 7347,
      "वेदाः": 7348,
      "च्छन्न": 7349,
      "मानश्च": 7350,
      "र्थ्य": 7351,
      "व्यवस": 7352,
      "धिगच्छति": 7353,
      "समू": 7354,
      "रोहे": 7355,
      "भीत": 7356,
      "भीतो": 7357,
      "बलः": 7358,
      "नेः": 7359,
      "रथमा": 7360,
      "गाल": 7361,
      "धर्मान्": 7362,
      "समास": 7363,
      "परिवर्तते": 7364,
      "स्याथ": 7365,
      "व्याल": 7366,
      "वचनात्": 7367,
      "राक्षसम्": 7368,
      "शीत": 7369,
      "षुः": 7370,
      "मुखैः": 7371,
      "वान्व": 7372,
      "बुद्ध्वा": 7373,
      "सोमं": 7374,
      "प्रियो": 7375,
      "गोसहस्र": 7376,
      "ान्यान्": 7377,
      "पुराणं": 7378,
      "लक्ष्मणम्": 7379,
      "चिन्तयत्": 7380,
      "निर्मुक्त": 7381,
      "तेऽस्तु": 7382,
      "भाषितं": 7383,
      "कौरवे": 7384,
      "नादयन्": 7385,
      "वसुधां": 7386,
      "पोथ": 7387,
      "विद्यां": 7388,
      "सागरम्": 7389,
      "महाबाहुर": 7390,
      "माणस्य": 7391,
      "शोभत": 7392,
      "भूमिः": 7393,
      "वक्त्रा": 7394,
      "सायकान्": 7395,
      "दोषो": 7396,
      "प्राज्ञो": 7397,
      "समुद्रं": 7398,
      "मुख्यानां": 7399,
      "तस्थे": 7400,
      "पौरुषम्": 7401,
      "त्वत्कृते": 7402,
      "मांसानि": 7403,
      "प्राणिनां": 7404,
      "सौबलः": 7405,
      "योधिनः": 7406,
      "भवेदिति": 7407,
      "रेतरम्": 7408,
      "मोक्ष्यसे": 7409,
      "देवैरपि": 7410,
      "भार्यया": 7411,
      "आजघान": 7412,
      "ऊर्ध्व": 7413,
      "ज्र": 7414,
      "जल्प": 7415,
      "जगतः": 7416,
      "तवः": 7417,
      "रताः": 7418,
      "वति": 7419,
      "शनै": 7420,
      "सचरा": 7421,
      "हतान्": 7422,
      "ूप": 7423,
      "ोट": 7424,
      "विनिष्": 7425,
      "मासि": 7426,
      "वासा": 7427,
      "पुष्ट": 7428,
      "संवृतम्": 7429,
      "सुं": 7430,
      "राजीव": 7431,
      "महासत्त्व": 7432,
      "भिश्चा": 7433,
      "तुष्टा": 7434,
      "देहे": 7435,
      "क्तानि": 7436,
      "दुपा": 7437,
      "त्तदा": 7438,
      "वीरे": 7439,
      "च्छन्द": 7440,
      "भूतस्य": 7441,
      "हिरण्": 7442,
      "ङ्का": 7443,
      "चारो": 7444,
      "चारः": 7445,
      "समजायत": 7446,
      "कृतान्": 7447,
      "ान्तकम्": 7448,
      "सम्भवम्": 7449,
      "मोहात्": 7450,
      "दीर्ण": 7451,
      "परिदेव": 7452,
      "सेन्द्र": 7453,
      "म्यद्य": 7454,
      "स्याभि": 7455,
      "तत्रि": 7456,
      "भुजग": 7457,
      "कोवि": 7458,
      "कोविदः": 7459,
      "कर्मणां": 7460,
      "पुरुषस्य": 7461,
      "ब्रह्मणो": 7462,
      "बुद्धयः": 7463,
      "ैरनु": 7464,
      "जिन": 7465,
      "श्लोक": 7466,
      "ग्राह्य": 7467,
      "म्बरम्": 7468,
      "शतशो": 7469,
      "नामतः": 7470,
      "धीयते": 7471,
      "कारयामास": 7472,
      "चिन्तयित्वा": 7473,
      "धृष्य": 7474,
      "निश्चित्य": 7475,
      "क्षत्रियाः": 7476,
      "दिव्येन": 7477,
      "दण्डं": 7478,
      "श्रीमान": 7479,
      "पुण्यां": 7480,
      "सूतपुत्रं": 7481,
      "हरयो": 7482,
      "पद्मप": 7483,
      "राक्षसाधिपः": 7484,
      "प्रभाते": 7485,
      "नराधिपम्": 7486,
      "महेश्वरः": 7487,
      "त्वरितो": 7488,
      "वृषभ": 7489,
      "दोषान्": 7490,
      "धृष्टद्युम्नश्च": 7491,
      "ैर्वृतः": 7492,
      "चक्षते": 7493,
      "स्थिर": 7494,
      "शोचति": 7495,
      "फाल्गुनः": 7496,
      "सहस्राक्ष": 7497,
      "घ्राय": 7498,
      "भरणानि": 7499,
      "त्रीणि": 7500,
      "प्राञ्जलिः": 7501,
      "मैथिलीम्": 7502,
      "प्रहारिणः": 7503,
      "परित्या": 7504,
      "ोऽभ्यभाषत": 7505,
      "भगवानृषिः": 7506,
      "मुनयः": 7507,
      "निवेद्य": 7508,
      "कृच्छ्रा": 7509,
      "विचक्षणः": 7510,
      "पट्टिश": 7511,
      "कप": 7512,
      "करी": 7513,
      "गतम": 7514,
      "चक्षे": 7515,
      "नस्तथा": 7516,
      "पक्व": 7517,
      "फेन": 7518,
      "यदी": 7519,
      "वरू": 7520,
      "शतेन": 7521,
      "सद्यः": 7522,
      "हत्य": 7523,
      "हितो": 7524,
      "्वी": 7525,
      "प्रमुद": 7526,
      "त्सृज्य": 7527,
      "माहु": 7528,
      "स्तस्थौ": 7529,
      "महौज": 7530,
      "न्तरा": 7531,
      "संवृत": 7532,
      "संहृष्टा": 7533,
      "संकुलम्": 7534,
      "सुभृशं": 7535,
      "साश्व": 7536,
      "साध्य": 7537,
      "सात्त्व": 7538,
      "दातुं": 7539,
      "महागज": 7540,
      "भिश्चैव": 7541,
      "ोऽय": 7542,
      "कुर्य": 7543,
      "योद्धा": 7544,
      "दिग्": 7545,
      "भूयश्च": 7546,
      "किम्": 7547,
      "किनी": 7548,
      "गाद्": 7549,
      "ङ्गे": 7550,
      "मित्राणि": 7551,
      "शोचामि": 7552,
      "परिवर्त": 7553,
      "ल्लोकान्": 7554,
      "व्याः": 7555,
      "च्चैः": 7556,
      "स्माभिः": 7557,
      "पितरो": 7558,
      "नृणां": 7559,
      "एवमेव": 7560,
      "रक्षति": 7561,
      "युधिष्ठिरे": 7562,
      "सत्यपराक्रमः": 7563,
      "रणेऽ": 7564,
      "राष्ट्रं": 7565,
      "रावत": 7566,
      "वरदं": 7567,
      "चरान्": 7568,
      "तदहं": 7569,
      "ख्याता": 7570,
      "ख्यातः": 7571,
      "भीमसेनश्च": 7572,
      "वर्णानां": 7573,
      "पृथिवीपाल": 7574,
      "अभिगम्य": 7575,
      "गुरुणा": 7576,
      "भूषण": 7577,
      "दुरात्मना": 7578,
      "सूतपुत्रस्य": 7579,
      "कूल": 7580,
      "हृदये": 7581,
      "दारुणं": 7582,
      "मार्गे": 7583,
      "दैते": 7584,
      "पुरोहित": 7585,
      "मिच्छन्ति": 7586,
      "न्वि": 7587,
      "पितृपैता": 7588,
      "शेषेण": 7589,
      "गमिष्या": 7590,
      "शय्या": 7591,
      "धार्तराष्ट्रान्": 7592,
      "परीप्स": 7593,
      "नवभिः": 7594,
      "यच्चान्य": 7595,
      "यीत": 7596,
      "राक्षसेश्वरः": 7597,
      "स्तूर्ण": 7598,
      "कच्चिन्न": 7599,
      "प्रतिष्ठितः": 7600,
      "ऋषयो": 7601,
      "स्फु": 7602,
      "पैति": 7603,
      "क्रोधात्": 7604,
      "मित्राणां": 7605,
      "रघुनन्दनः": 7606,
      "क्षेत्रज्ञ": 7607,
      "समीपतः": 7608,
      "शनिसम": 7609,
      "निर्घोषं": 7610,
      "काश्यप": 7611,
      "विचारणा": 7612,
      "मुनयो": 7613,
      "निर्ययौ": 7614,
      "ऋषीणां": 7615,
      "सौमदत्त": 7616,
      "हार्दिक्य": 7617,
      "अनी": 7618,
      "अब्रवीद्": 7619,
      "ऋक्ष": 7620,
      "कलु": 7621,
      "चरं": 7622,
      "जघ्न": 7623,
      "जम्बु": 7624,
      "तमृषि": 7625,
      "दव": 7626,
      "धमः": 7627,
      "भञ्ज": 7628,
      "मरा": 7629,
      "यद्व": 7630,
      "यतव्र": 7631,
      "ानेव": 7632,
      "प्रणु": 7633,
      "प्रमाद": 7634,
      "प्रकृत्या": 7635,
      "विसृष्ट": 7636,
      "मार": 7637,
      "माचार्य": 7638,
      "स्तैः": 7639,
      "क्षम": 7640,
      "नार्थं": 7641,
      "निम्": 7642,
      "निवस": 7643,
      "निवर्तते": 7644,
      "कार्ति": 7645,
      "संछ": 7646,
      "संहा": 7647,
      "साक्षि": 7648,
      "महाभुज": 7649,
      "भिरि": 7650,
      "दुक्त्वा": 7651,
      "त्तरं": 7652,
      "वाचो": 7653,
      "प्राणां": 7654,
      "व्यचर": 7655,
      "ण्डा": 7656,
      "सहितौ": 7657,
      "चारं": 7658,
      "दृते": 7659,
      "कृतकृत्य": 7660,
      "गार्ह": 7661,
      "भ्यभाषत": 7662,
      "ग्ल": 7663,
      "सम्मित": 7664,
      "सम्पूर्ण": 7665,
      "सम्मतः": 7666,
      "नीलो": 7667,
      "मित्यु": 7668,
      "शोभि": 7669,
      "त्म्यं": 7670,
      "न्ध्र": 7671,
      "ह्यहं": 7672,
      "ममृत": 7673,
      "गृद्धि": 7674,
      "ध्यति": 7675,
      "शरौघ": 7676,
      "त्रिदिवं": 7677,
      "यिवान्": 7678,
      "पतन्त": 7679,
      "बहुशः": 7680,
      "विधु": 7681,
      "व्रजे": 7682,
      "ग्निं": 7683,
      "क्षुधा": 7684,
      "नृपसत्तम": 7685,
      "श्चिन्त": 7686,
      "पौरा": 7687,
      "निश्चिता": 7688,
      "योऽयं": 7689,
      "युधाः": 7690,
      "मुपचक्रमे": 7691,
      "अभिषि": 7692,
      "दण्डेन": 7693,
      "शितान्": 7694,
      "कैक": 7695,
      "विविधैः": 7696,
      "सागरा": 7697,
      "चेतनम्": 7698,
      "चन्द्रमाः": 7699,
      "ान्वि": 7700,
      "मन्येत": 7701,
      "मृत्युः": 7702,
      "काञ्चनं": 7703,
      "तत्रापि": 7704,
      "गमद्": 7705,
      "प्रवरं": 7706,
      "ध्वजाः": 7707,
      "त्युत": 7708,
      "मन्नं": 7709,
      "द्रवत": 7710,
      "पथे": 7711,
      "शाश्वतं": 7712,
      "कृत्स्न": 7713,
      "कृत्स्नां": 7714,
      "संज्ञां": 7715,
      "काकुत्स्थः": 7716,
      "पार्श्वे": 7717,
      "शरैस्तीक्ष्ण": 7718,
      "सख्यं": 7719,
      "निःश्वस": 7720,
      "रम्यां": 7721,
      "शाम्यति": 7722,
      "लभ्यते": 7723,
      "धूम्रा": 7724,
      "द्रौपद्या": 7725,
      "पुलस्त्य": 7726,
      "आग": 7727,
      "आनृशं": 7728,
      "उभे": 7729,
      "कले": 7730,
      "चितं": 7731,
      "चचाल": 7732,
      "जितो": 7733,
      "णश्च": 7734,
      "तप्स्य": 7735,
      "दधे": 7736,
      "नलो": 7737,
      "नन्ति": 7738,
      "पक्षे": 7739,
      "भान्ति": 7740,
      "यवी": 7741,
      "रक्षि": 7742,
      "शपे": 7743,
      "ीर": 7744,
      "प्रसुप्त": 7745,
      "विरु": 7746,
      "विस्र": 7747,
      "विजान": 7748,
      "विकर्ष": 7749,
      "माज्ञाय": 7750,
      "वाष्प": 7751,
      "न्नः": 7752,
      "क्षिता": 7753,
      "क्षितम्": 7754,
      "महद": 7755,
      "महौजसः": 7756,
      "मिनि": 7757,
      "भिरिव": 7758,
      "युतः": 7759,
      "रुच्यते": 7760,
      "सर्वभूते": 7761,
      "श्रमः": 7762,
      "कुलि": 7763,
      "मनं": 7764,
      "स्वयमा": 7765,
      "स्वस्त्य": 7766,
      "प्राय": 7767,
      "रोध": 7768,
      "रोहिणी": 7769,
      "भीतवत्": 7770,
      "र्णवे": 7771,
      "बलिं": 7772,
      "गाह्य": 7773,
      "स्त्रै": 7774,
      "समाधि": 7775,
      "समार्पयत्": 7776,
      "स्तुल्य": 7777,
      "वृक्षं": 7778,
      "त्मकम्": 7779,
      "सूतो": 7780,
      "वचना": 7781,
      "क्षिप्ता": 7782,
      "र्हसि": 7783,
      "पुरुषर्षभाः": 7784,
      "ब्रह्मलोकं": 7785,
      "समुद्रा": 7786,
      "युधिष्ठिरम": 7787,
      "वानपि": 7788,
      "सुखे": 7789,
      "त्त्वं": 7790,
      "पर्वतो": 7791,
      "क्षेमं": 7792,
      "कार्यः": 7793,
      "भ्रान्त": 7794,
      "सुरैः": 7795,
      "नागेन्द्र": 7796,
      "पादेन": 7797,
      "वृद्धः": 7798,
      "योऽपि": 7799,
      "यानघ": 7800,
      "यानो": 7801,
      "यान्व": 7802,
      "युधम्": 7803,
      "बुभु": 7804,
      "पाण्डुनन्दनः": 7805,
      "भर्तु": 7806,
      "दैवतं": 7807,
      "ममार": 7808,
      "र्पण": 7809,
      "करिष्या": 7810,
      "चेतसा": 7811,
      "विदुरं": 7812,
      "देशान्": 7813,
      "भारता": 7814,
      "भिरभि": 7815,
      "संख्य": 7816,
      "गृहीता": 7817,
      "गदाम्": 7818,
      "शयनं": 7819,
      "प्रववृते": 7820,
      "मारुतः": 7821,
      "कुरूद्वह": 7822,
      "मनीषि": 7823,
      "सुग्रीवस्य": 7824,
      "अथास्य": 7825,
      "धर्मज्ञः": 7826,
      "यशस्विनः": 7827,
      "यत्ता": 7828,
      "वरुणा": 7829,
      "सेवते": 7830,
      "प्युप": 7831,
      "कार्मुकं": 7832,
      "स्फोट": 7833,
      "राधेयं": 7834,
      "महानासीत्": 7835,
      "केशवस्य": 7836,
      "श्रियम्": 7837,
      "तपस्विनी": 7838,
      "पण्डितः": 7839,
      "राजर्षिः": 7840,
      "स्मृति": 7841,
      "घटोत्कचः": 7842,
      "सम्पन्नो": 7843,
      "साक्षाद्": 7844,
      "यत्नतः": 7845,
      "मरिंदमम्": 7846,
      "ेष्यति": 7847,
      "मुसल": 7848,
      "दुद्रुवुः": 7849,
      "सुदुष्करम्": 7850,
      "ऋष्य": 7851,
      "एतदा": 7852,
      "एकं": 7853,
      "नमु": 7854,
      "मनि": 7855,
      "मज्": 7856,
      "मर्मा": 7857,
      "मयै": 7858,
      "रब्रवीत्": 7859,
      "सशरं": 7860,
      "ुम्": 7861,
      "्यन्ध": 7862,
      "प्रतप": 7863,
      "प्रमदा": 7864,
      "मागम्य": 7865,
      "स्तेषा": 7866,
      "पात्र": 7867,
      "न्तर": 7868,
      "र्वृ": 7869,
      "संर": 7870,
      "सुतस्य": 7871,
      "सुताः": 7872,
      "सुमित्र": 7873,
      "मिच्छे": 7874,
      "भिक्ष": 7875,
      "तुल्यं": 7876,
      "सर्वधर्म": 7877,
      "भास": 7878,
      "त्तमं": 7879,
      "मानस्तु": 7880,
      "दिष्टा": 7881,
      "प्राकार": 7882,
      "रिक्षं": 7883,
      "कृपा": 7884,
      "केतुं": 7885,
      "ग्म": 7886,
      "सम्पन्नः": 7887,
      "नीता": 7888,
      "नीला": 7889,
      "शोचित": 7890,
      "ग्रहो": 7891,
      "व्याहर": 7892,
      "द्विपम्": 7893,
      "नोः": 7894,
      "ततस्ता": 7895,
      "स्माभिर्": 7896,
      "सौभ": 7897,
      "पतिव्रता": 7898,
      "पत्या": 7899,
      "सेनो": 7900,
      "बहुभि": 7901,
      "भ्रातुः": 7902,
      "घोरो": 7903,
      "सुखो": 7904,
      "सुखमेध": 7905,
      "चरन्ति": 7906,
      "राघवे": 7907,
      "कार्ये": 7908,
      "विप्रं": 7909,
      "शक्ता": 7910,
      "पुष्पा": 7911,
      "पुष्कर": 7912,
      "मानाश्च": 7913,
      "दक्षिणः": 7914,
      "शैलं": 7915,
      "दिव्यां": 7916,
      "नित्यमेव": 7917,
      "शान्ता": 7918,
      "ित्स": 7919,
      "पीडितम्": 7920,
      "विविधं": 7921,
      "नगर": 7922,
      "बलाह": 7923,
      "बृहद्": 7924,
      "काञ्चना": 7925,
      "भ्रातृन्": 7926,
      "कृपणं": 7927,
      "महेष्वासा": 7928,
      "कुरूणा": 7929,
      "शौचं": 7930,
      "शोचन्ति": 7931,
      "जनार्दनम्": 7932,
      "विमल": 7933,
      "कुञ्जरः": 7934,
      "महानदी": 7935,
      "विललाप": 7936,
      "ह्येते": 7937,
      "अर्जुनस्य": 7938,
      "दुर्धर्षो": 7939,
      "तुमुले": 7940,
      "चमूः": 7941,
      "दुःखार्ता": 7942,
      "राजपुत्री": 7943,
      "खङ्गं": 7944,
      "साक्षात्": 7945,
      "निषेवितम्": 7946,
      "सर्वेषामेव": 7947,
      "खड्ग": 7948,
      "पिशाच": 7949,
      "कौतूहलं": 7950,
      "कथञ्चन": 7951,
      "अभ्या": 7952,
      "ण्यु": 7953,
      "तन्द्र": 7954,
      "तैर": 7955,
      "दभि": 7956,
      "दहे": 7957,
      "पतत्रि": 7958,
      "रसं": 7959,
      "लज्ज": 7960,
      "सपुत्र": 7961,
      "सृत्य": 7962,
      "्यम": 7963,
      "ितव्य": 7964,
      "प्रता": 7965,
      "रामम": 7966,
      "रात्रं": 7967,
      "मार्द": 7968,
      "माख्या": 7969,
      "मायान्तं": 7970,
      "महान्ति": 7971,
      "याता": 7972,
      "मुहुः": 7973,
      "सामात्य": 7974,
      "महादेवं": 7975,
      "भिस्तथा": 7976,
      "युषः": 7977,
      "तुमिच्छामि": 7978,
      "कुन्त्या": 7979,
      "वेत्थ": 7980,
      "स्वरं": 7981,
      "ज्ञाः": 7982,
      "ज्ञिरे": 7983,
      "रिष्यति": 7984,
      "दृशो": 7985,
      "समभवत्": 7986,
      "कृतैः": 7987,
      "रोमहर्ष": 7988,
      "गावः": 7989,
      "शुक्": 7990,
      "शुगैः": 7991,
      "बाह्री": 7992,
      "पूर्य": 7993,
      "स्त्रयः": 7994,
      "समादाय": 7995,
      "परिग्रहः": 7996,
      "सेत्": 7997,
      "स्याम": 7998,
      "ह्यु": 7999,
      "लिप्त": 8000,
      "श्चारु": 8001,
      "क्षिप्तं": 8002,
      "त्रिगर्त": 8003,
      "किंस्वि": 8004,
      "पतये": 8005,
      "पतितो": 8006,
      "भूताना": 8007,
      "दशभि": 8008,
      "घोरां": 8009,
      "कृष्णौ": 8010,
      "नृपं": 8011,
      "कार्यो": 8012,
      "धिपम्": 8013,
      "कौरवान्": 8014,
      "निश्चयं": 8015,
      "नादृत्य": 8016,
      "अभिषे": 8017,
      "यदाश्रौषं": 8018,
      "तूष्णी": 8019,
      "वाहनम्": 8020,
      "दैवतम्": 8021,
      "यदहं": 8022,
      "शोभिताम्": 8023,
      "उत्सृज्य": 8024,
      "विनश्यति": 8025,
      "इत्युक्तो": 8026,
      "गृहस्थ": 8027,
      "स्पृशे": 8028,
      "ततस्तौ": 8029,
      "करवाणि": 8030,
      "साम्ना": 8031,
      "प्रोक्ता": 8032,
      "सिद्ध्य": 8033,
      "महेष्वासाः": 8034,
      "मुवाचेदं": 8035,
      "जघाना": 8036,
      "रुधिरा": 8037,
      "वृकोदरम्": 8038,
      "सैन्धवं": 8039,
      "हुर्मनीषिणः": 8040,
      "दद्यात्": 8041,
      "गाङ्गेय": 8042,
      "मासीनं": 8043,
      "वृष्टिभिः": 8044,
      "पुण्डरीका": 8045,
      "अयोध्या": 8046,
      "हृषीके": 8047,
      "पृथग्वि": 8048,
      "परपुरंजयः": 8049,
      "अजात": 8050,
      "अहिंसा": 8051,
      "आसीत्": 8052,
      "उग्र": 8053,
      "ऊचु": 8054,
      "गन्धा": 8055,
      "च्या": 8056,
      "जैः": 8057,
      "तरा": 8058,
      "दरी": 8059,
      "पट": 8060,
      "यैव": 8061,
      "वन्द": 8062,
      "शमं": 8063,
      "शरां": 8064,
      "हानि": 8065,
      "ेभ्यः": 8066,
      "र्महा": 8067,
      "र्बु": 8068,
      "विव्यथ": 8069,
      "विचिन्व": 8070,
      "माल्या": 8071,
      "तेभ्यः": 8072,
      "क्षप": 8073,
      "संहर": 8074,
      "सुप्ता": 8075,
      "सुगन्धि": 8076,
      "साहाय": 8077,
      "भिक्षु": 8078,
      "युष्म": 8079,
      "सर्वतोऽ": 8080,
      "दुस्त": 8081,
      "क्रन्द": 8082,
      "र्मध्ये": 8083,
      "दिवस": 8084,
      "वाच्यं": 8085,
      "भूः": 8086,
      "कृतानि": 8087,
      "रोमा": 8088,
      "धारण": 8089,
      "कृश": 8090,
      "श्वरे": 8091,
      "देवकी": 8092,
      "शिक्षा": 8093,
      "केशि": 8094,
      "सम्पन्नं": 8095,
      "प्रतिपाद": 8096,
      "वृष्णी": 8097,
      "दीर्": 8098,
      "परिवा": 8099,
      "सेव्य": 8100,
      "ग्रजः": 8101,
      "ैर्महा": 8102,
      "लेन्द्र": 8103,
      "स्तेजो": 8104,
      "स्मार": 8105,
      "र्दनः": 8106,
      "सौहृ": 8107,
      "भोगान्": 8108,
      "पुरुषाः": 8109,
      "रक्षितः": 8110,
      "चेदमब्रवीत्": 8111,
      "सेनं": 8112,
      "दशरथो": 8113,
      "विशन्": 8114,
      "शम्ब": 8115,
      "गोमायु": 8116,
      "भगिनी": 8117,
      "दुःखानि": 8118,
      "पूर्वम": 8119,
      "पायेन": 8120,
      "शतधा": 8121,
      "त्मानम": 8122,
      "वीर्ये": 8123,
      "तमना": 8124,
      "कार्यम": 8125,
      "युगान्त": 8126,
      "चिन्तय": 8127,
      "पन्था": 8128,
      "सिंहो": 8129,
      "मानाय": 8130,
      "तन्निबोध": 8131,
      "पूजिताः": 8132,
      "योधयत्": 8133,
      "प्रजायते": 8134,
      "मृगाः": 8135,
      "सिंहस्य": 8136,
      "विजयो": 8137,
      "विजने": 8138,
      "विविधैर्": 8139,
      "जीवा": 8140,
      "देशकाल": 8141,
      "उत्थाय": 8142,
      "ानीह": 8143,
      "भ्रातृणां": 8144,
      "शार्दूलो": 8145,
      "महर्षी": 8146,
      "वानरैः": 8147,
      "धृष्टद्युम्नो": 8148,
      "शल्यः": 8149,
      "द्रौणिं": 8150,
      "मपराज": 8151,
      "वृकोदर": 8152,
      "स्तपोध": 8153,
      "ददाह": 8154,
      "सलिला": 8155,
      "प्रशस्यते": 8156,
      "तद्वचनं": 8157,
      "नरोत्तम": 8158,
      "निमित्तानि": 8159,
      "बुध्यसे": 8160,
      "समागतान्": 8161,
      "मन्त्रिणः": 8162,
      "निवात": 8163,
      "वपुः": 8164,
      "हन्यात्": 8165,
      "प्रदास्यामि": 8166,
      "दिवौकसाम्": 8167,
      "इत्येवमुक्त्वा": 8168,
      "नहुष": 8169,
      "जिघांसया": 8170,
      "मनन्तरम्": 8171,
      "वृष्ण्यन्ध": 8172,
      "आससाद": 8173,
      "सोऽतिविद्धो": 8174,
      "बाह्वो": 8175,
      "जरत्कारु": 8176,
      "अज": 8177,
      "अम्ब": 8178,
      "उष": 8179,
      "उद्ध": 8180,
      "क्वा": 8181,
      "चितम्": 8182,
      "बद्धा": 8183,
      "मलं": 8184,
      "यमः": 8185,
      "रजः": 8186,
      "वणि": 8187,
      "ववृ": 8188,
      "वक्ता": 8189,
      "शते": 8190,
      "सव्यं": 8191,
      "ऽस्मि": 8192,
      "१३": 8193,
      "्यश्च": 8194,
      "प्रतो": 8195,
      "प्रपश्यामि": 8196,
      "विरथं": 8197,
      "विजानी": 8198,
      "मावृत्य": 8199,
      "क्षणम्": 8200,
      "निपेतु": 8201,
      "्यात्": 8202,
      "तामपि": 8203,
      "याते": 8204,
      "कारः": 8205,
      "संजज्ञे": 8206,
      "संकाशा": 8207,
      "संवत्सर": 8208,
      "महावीर्या": 8209,
      "युतम्": 8210,
      "युतानि": 8211,
      "ोऽयमिति": 8212,
      "योगो": 8213,
      "च्छितः": 8214,
      "मानवा": 8215,
      "मानसं": 8216,
      "वाचलः": 8217,
      "ण्ठ": 8218,
      "भूमे": 8219,
      "प्रायात्": 8220,
      "व्यक्ता": 8221,
      "चात्मानं": 8222,
      "कृती": 8223,
      "कृशः": 8224,
      "देवेन": 8225,
      "भवने": 8226,
      "रथैः": 8227,
      "गाह": 8228,
      "भ्योऽ": 8229,
      "यथाक्र": 8230,
      "स्त्रयो": 8231,
      "तीर": 8232,
      "वृन्द": 8233,
      "सेतु": 8234,
      "ल्मी": 8235,
      "स्त्वयि": 8236,
      "स्रु": 8237,
      "ब्रह्मोवाच": 8238,
      "समुच्छ्र": 8239,
      "क्ष्यन्ति": 8240,
      "दानवान्": 8241,
      "बहुविधं": 8242,
      "सृञ्ज": 8243,
      "सृजे": 8244,
      "जिही": 8245,
      "प्राप्तकालं": 8246,
      "सर्वास्त्र": 8247,
      "ध्वजि": 8248,
      "हीति": 8249,
      "वर्षेण": 8250,
      "नमोऽस्तु": 8251,
      "शत्रवः": 8252,
      "तिष्ठे": 8253,
      "धनूंषि": 8254,
      "राज्ञे": 8255,
      "युगं": 8256,
      "स्त्रियं": 8257,
      "वदनं": 8258,
      "वाक्येन": 8259,
      "तोऽसि": 8260,
      "क्रोधः": 8261,
      "दक्षिणम्": 8262,
      "निश्चे": 8263,
      "मुपागतः": 8264,
      "पूजित": 8265,
      "पूजितम्": 8266,
      "धृतराष्ट्रं": 8267,
      "अभिदुद्राव": 8268,
      "वर्धत": 8269,
      "स्वादु": 8270,
      "मधू": 8271,
      "विद्यया": 8272,
      "संनिभः": 8273,
      "मैथु": 8274,
      "मुत्थ": 8275,
      "ज्वलन्": 8276,
      "पुरोग": 8277,
      "पुरोहितः": 8278,
      "सृजन्": 8279,
      "वराङ्ग": 8280,
      "भयाव": 8281,
      "कश्चिन्": 8282,
      "माश्रितः": 8283,
      "शकुनिः": 8284,
      "घोररूपं": 8285,
      "भगवन्तं": 8286,
      "बलिना": 8287,
      "वृत्तिः": 8288,
      "त्थितः": 8289,
      "वरुणो": 8290,
      "फाल्गुन": 8291,
      "वैदेहि": 8292,
      "कल्याणी": 8293,
      "बृहस्पतिः": 8294,
      "ज्येष्ठो": 8295,
      "प्रयच्छन्ति": 8296,
      "विशुद्धात्मा": 8297,
      "सखी": 8298,
      "हैडिम्ब": 8299,
      "दद्याद्": 8300,
      "प्रदक्षिणं": 8301,
      "शान्तनवं": 8302,
      "स्रोत": 8303,
      "जीविनः": 8304,
      "जग्मतुः": 8305,
      "मृदङ्ग": 8306,
      "निनदं": 8307,
      "प्रह्लाद": 8308,
      "सुश्रोणि": 8309,
      "महासुरः": 8310,
      "परुषा": 8311,
      "अरु": 8312,
      "अदृश्य": 8313,
      "अव्यक्त": 8314,
      "खल": 8315,
      "चण्ड": 8316,
      "जलम्": 8317,
      "ययु": 8318,
      "यसि": 8319,
      "वस्था": 8320,
      "िः": 8321,
      "ैन": 8322,
      "१४": 8323,
      "प्रवीर": 8324,
      "विरे": 8325,
      "क्षन्तु": 8326,
      "पारि": 8327,
      "संप्र": 8328,
      "संन्या": 8329,
      "संयुक्तः": 8330,
      "मेतदु": 8331,
      "महाघोरं": 8332,
      "देशो": 8333,
      "देशः": 8334,
      "श्रिताः": 8335,
      "कुत्स": 8336,
      "त्येष": 8337,
      "त्यजे": 8338,
      "स्वजन": 8339,
      "ष्ठी": 8340,
      "व्यराज": 8341,
      "शाला": 8342,
      "्येतां": 8343,
      "जाग": 8344,
      "गाम्": 8345,
      "धर्ममा": 8346,
      "हारः": 8347,
      "मोक्षं": 8348,
      "समाचरेत्": 8349,
      "तथाऽ": 8350,
      "दीनि": 8351,
      "परिष": 8352,
      "लोकाना": 8353,
      "स्यार्थे": 8354,
      "ततस्त्व": 8355,
      "त्रिवर्ग": 8356,
      "ीव्र": 8357,
      "सर्वेऽ": 8358,
      "ब्राह्मणां": 8359,
      "परामृ": 8360,
      "युक्तस्य": 8361,
      "षिञ्च": 8362,
      "तथै": 8363,
      "धुः": 8364,
      "नरशार्दूल": 8365,
      "सोऽह": 8366,
      "वरौ": 8367,
      "वनस्": 8368,
      "वेदपारग": 8369,
      "प्रीतोऽस्मि": 8370,
      "पर्वताः": 8371,
      "प्रेप्सु": 8372,
      "ब्राह्मण्यं": 8373,
      "गुणान्व": 8374,
      "तिष्ठन्त": 8375,
      "धनेन": 8376,
      "मृतो": 8377,
      "दमयन्त": 8378,
      "पुष्पाणि": 8379,
      "मर्हथ": 8380,
      "विधिः": 8381,
      "पन्नगा": 8382,
      "तावकाः": 8383,
      "योधयामास": 8384,
      "हितकाम्यया": 8385,
      "लक्षणं": 8386,
      "शोककर्श": 8387,
      "करिष्यन्ति": 8388,
      "प्सितं": 8389,
      "नारदं": 8390,
      "गिरिः": 8391,
      "कृपश्च": 8392,
      "सिद्धचारण": 8393,
      "सभामध्ये": 8394,
      "मुहूर्ते": 8395,
      "विपुला": 8396,
      "मनीकानि": 8397,
      "कल्पते": 8398,
      "सुहृदो": 8399,
      "जुहा": 8400,
      "बलीयसा": 8401,
      "मूढो": 8402,
      "व्यथिता": 8403,
      "केचिद": 8404,
      "विमला": 8405,
      "महानभूत्": 8406,
      "पाण्डवेषु": 8407,
      "शुश्रूषा": 8408,
      "बुधाः": 8409,
      "समृद्धि": 8410,
      "समृद्धा": 8411,
      "शरैरा": 8412,
      "यदुक्तं": 8413,
      "प्रवर्तन्ते": 8414,
      "जनेश्वर": 8415,
      "हुताशनम्": 8416,
      "ज्वाला": 8417,
      "गृहाण": 8418,
      "ब्रुवाणं": 8419,
      "तिर्यग्यो": 8420,
      "दीर्यते": 8421,
      "स्वप्न": 8422,
      "मुच्येत": 8423,
      "पन्थानं": 8424,
      "पुरस्तात्": 8425,
      "कवचा": 8426,
      "एवमस्त्विति": 8427,
      "त्रैलोक्यं": 8428,
      "अय": 8429,
      "अप्य": 8430,
      "अस्म": 8431,
      "आशीविष": 8432,
      "कटा": 8433,
      "कत्थ": 8434,
      "गतां": 8435,
      "तदि": 8436,
      "तरे": 8437,
      "पर्णा": 8438,
      "पवना": 8439,
      "मलि": 8440,
      "लभा": 8441,
      "वक्ष्यति": 8442,
      "शराणां": 8443,
      "सत्र": 8444,
      "सत्रे": 8445,
      "१५": 8446,
      "र्दा": 8447,
      "र्धा": 8448,
      "ानव": 8449,
      "स्तया": 8450,
      "तिमि": 8451,
      "यास्य": 8452,
      "सुवि": 8453,
      "सुसमाहितः": 8454,
      "सुवर्च": 8455,
      "ष्टाः": 8456,
      "श्रित्य": 8457,
      "ोऽभू": 8458,
      "ोऽर्जुन": 8459,
      "स्वस्थ": 8460,
      "स्वतेजसा": 8461,
      "प्राञ्जल": 8462,
      "सहसो": 8463,
      "दृषि": 8464,
      "समम्": 8465,
      "समवा": 8466,
      "ानिल": 8467,
      "भीरू": 8468,
      "धर्म्य": 8469,
      "धर्मपुत्रो": 8470,
      "शिवः": 8471,
      "सम्भवः": 8472,
      "परिपृच्छसि": 8473,
      "ग्रीव": 8474,
      "पृष्ट्वा": 8475,
      "ष्णीं": 8476,
      "सीनं": 8477,
      "द्विग्न": 8478,
      "ब्रवीहि": 8479,
      "तपस्वी": 8480,
      "मुक्तस्तु": 8481,
      "स्रष्टा": 8482,
      "मयामास": 8483,
      "सत्यवादी": 8484,
      "प्रियां": 8485,
      "व्रते": 8486,
      "गोषु": 8487,
      "ध्वानं": 8488,
      "तथ्यं": 8489,
      "क्रुद्धस्य": 8490,
      "भृत्": 8491,
      "तेजसम्": 8492,
      "कारान्": 8493,
      "संशय": 8494,
      "राघवेण": 8495,
      "क्षेम": 8496,
      "कार्येषु": 8497,
      "स्त्रिषु": 8498,
      "कृतात्मभिः": 8499,
      "रौघ": 8500,
      "धृतिः": 8501,
      "बिभे": 8502,
      "योऽभि": 8503,
      "चतुष्": 8504,
      "बुधा": 8505,
      "दिव्ये": 8506,
      "पुरन्द": 8507,
      "शान्तनव": 8508,
      "शरीराणि": 8509,
      "मत्तः": 8510,
      "शृणुष्व": 8511,
      "सागरः": 8512,
      "भरता": 8513,
      "करिष्य": 8514,
      "मार्गेण": 8515,
      "निष्क्र": 8516,
      "निष्क्रम्य": 8517,
      "मोहिताः": 8518,
      "ज्वलिता": 8519,
      "मानुषी": 8520,
      "सृजद्": 8521,
      "वज्रेण": 8522,
      "निरय": 8523,
      "राज्यस्य": 8524,
      "गदापाणि": 8525,
      "प्रव्रा": 8526,
      "दोषेण": 8527,
      "पुष्पकं": 8528,
      "कर्षति": 8529,
      "प्राज्ञः": 8530,
      "क्रियमा": 8531,
      "रथेना": 8532,
      "ताम्र": 8533,
      "क्षमाणो": 8534,
      "पुङ्गवम्": 8535,
      "शौन": 8536,
      "रुधिर": 8537,
      "महाभागे": 8538,
      "शोणितो": 8539,
      "बीजं": 8540,
      "ब्रह्माणं": 8541,
      "भर्तार": 8542,
      "वहन्": 8543,
      "भुजौ": 8544,
      "वसिष्ठं": 8545,
      "भूतात्मा": 8546,
      "सुग्रीवेण": 8547,
      "देवेषु": 8548,
      "फाल्गुनं": 8549,
      "सुवर्णं": 8550,
      "महानृषिः": 8551,
      "सलिले": 8552,
      "तरंह": 8553,
      "लम्बुष": 8554,
      "गात्रेषु": 8555,
      "द्यूते": 8556,
      "निःस्वनः": 8557,
      "मोघं": 8558,
      "तस्मिंस्तु": 8559,
      "मार्जा": 8560,
      "जिष्णु": 8561,
      "काम्बोज": 8562,
      "व्यधमत्": 8563,
      "परिप्लुतः": 8564,
      "रूपेणा": 8565,
      "पाप्मा": 8566,
      "तवानघ": 8567,
      "नैर्ऋ": 8568,
      "रिपून्": 8569,
      "मरीचि": 8570,
      "ितेन्द्रियः": 8571,
      "क्षुरप्रेण": 8572,
      "अथान्यद्": 8573,
      "दशग्रीवः": 8574,
      "अध्या": 8575,
      "आद": 8576,
      "आन": 8577,
      "आकाश": 8578,
      "इक्ष्वा": 8579,
      "कञ्च": 8580,
      "जितः": 8581,
      "जपे": 8582,
      "दिते": 8583,
      "नयः": 8584,
      "पमम्": 8585,
      "बभञ्ज": 8586,
      "यजे": 8587,
      "वक्ष": 8588,
      "हला": 8589,
      "१७": 8590,
      "ानन": 8591,
      "राहु": 8592,
      "विग्रह": 8593,
      "विदेह": 8594,
      "मात्रे": 8595,
      "वारा": 8596,
      "वाल्मी": 8597,
      "स्तैर्": 8598,
      "न्मथ": 8599,
      "स्युः": 8600,
      "क्ष्व": 8601,
      "क्षान्": 8602,
      "नाध्य": 8603,
      "नापरा": 8604,
      "निष्ट": 8605,
      "त्रयः": 8606,
      "यातो": 8607,
      "पुः": 8608,
      "मुत्र": 8609,
      "मेकेन": 8610,
      "दाप": 8611,
      "दाव": 8612,
      "तुलं": 8613,
      "तुल्या": 8614,
      "रुत्": 8615,
      "सर्वै": 8616,
      "मन्यं": 8617,
      "त्यर्थ": 8618,
      "भारं": 8619,
      "त्तं": 8620,
      "वेदी": 8621,
      "वेदो": 8622,
      "च्छी": 8623,
      "त्वमे": 8624,
      "त्वेव": 8625,
      "भूताः": 8626,
      "णामा": 8627,
      "चाति": 8628,
      "चातु": 8629,
      "वैष्ण": 8630,
      "स्थित्वा": 8631,
      "किः": 8632,
      "नेना": 8633,
      "प्तवान्": 8634,
      "यथावद्": 8635,
      "प्रतिपत्": 8636,
      "तीह": 8637,
      "तथाविध": 8638,
      "शोकः": 8639,
      "ल्पि": 8640,
      "वचने": 8641,
      "श्चाप": 8642,
      "र्दिता": 8643,
      "मासान्": 8644,
      "युक्तानि": 8645,
      "रूपम": 8646,
      "भगवं": 8647,
      "पञ्चविंशत्या": 8648,
      "दुःखिताः": 8649,
      "र्जुनम्": 8650,
      "वीर्यस्य": 8651,
      "द्विजसत्तमः": 8652,
      "धनुरु": 8653,
      "मत्स": 8654,
      "एवमुक्ते": 8655,
      "भागशः": 8656,
      "पूजिता": 8657,
      "शत्रुताप": 8658,
      "सूर्ये": 8659,
      "मत्ता": 8660,
      "प्रजज्वाल": 8661,
      "ग्रहणं": 8662,
      "रथिनो": 8663,
      "स्त्रीषु": 8664,
      "ज्ञानेन": 8665,
      "खाद": 8666,
      "द्रुतं": 8667,
      "कर्माण": 8668,
      "श्रोत्रि": 8669,
      "जीर्ण": 8670,
      "कुशली": 8671,
      "पद्मा": 8672,
      "पावकं": 8673,
      "विदुरस्य": 8674,
      "गजेन्द्र": 8675,
      "वासुदेवेन": 8676,
      "गान्ध": 8677,
      "ज्ञेयं": 8678,
      "विनश्य": 8679,
      "वराणि": 8680,
      "मृत्युं": 8681,
      "सायकै": 8682,
      "विष्णुं": 8683,
      "सीताया": 8684,
      "समुत्सृज्य": 8685,
      "हर्षेण": 8686,
      "मन्युः": 8687,
      "च्छिद्य": 8688,
      "दोषं": 8689,
      "मारुत": 8690,
      "मन्थ": 8691,
      "भोजनं": 8692,
      "विमलं": 8693,
      "राधेयः": 8694,
      "सम्प्राप्ते": 8695,
      "कारिणम्": 8696,
      "नान्यं": 8697,
      "मनुष्येषु": 8698,
      "महाप्राज्ञो": 8699,
      "क्रीडा": 8700,
      "समागमः": 8701,
      "मन्त्रिभिः": 8702,
      "सर्वानेव": 8703,
      "विंशतिः": 8704,
      "मांसशोणित": 8705,
      "महावीर्यः": 8706,
      "र्थिनः": 8707,
      "दुर्जयः": 8708,
      "निशाचराः": 8709,
      "प्राप्स्यसि": 8710,
      "पाताल": 8711,
      "नभस्त": 8712,
      "प्रश्न": 8713,
      "त्वत्तः": 8714,
      "भूयिष्ठं": 8715,
      "शर्वरी": 8716,
      "रथोपस्थे": 8717,
      "मनुष्येन्द्र": 8718,
      "एतावदुक्त्वा": 8719,
      "एतदिच्छाम्यहं": 8720,
      "स्त्वमसि": 8721,
      "महार्हाणि": 8722,
      "प्राग्ज्योति": 8723,
      "गोसहस्रफलं": 8724,
      "अल": 8725,
      "अस्या": 8726,
      "अल्प": 8727,
      "अमात्य": 8728,
      "आर्त": 8729,
      "आसीद्": 8730,
      "इमा": 8731,
      "एतन्मे": 8732,
      "कस्माद्": 8733,
      "खान": 8734,
      "गभ": 8735,
      "जनि": 8736,
      "तद्ध": 8737,
      "तज्": 8738,
      "धैः": 8739,
      "ध्रा": 8740,
      "नर्म": 8741,
      "पव": 8742,
      "पयः": 8743,
      "भव्य": 8744,
      "यने": 8745,
      "रितं": 8746,
      "वानिव": 8747,
      "शश": 8748,
      "सक": 8749,
      "सैव": 8750,
      "सद्यो": 8751,
      "हस्य": 8752,
      "ितवान्": 8753,
      "प्रश्र": 8754,
      "विभ्र": 8755,
      "विन्दा": 8756,
      "क्षयो": 8757,
      "नादो": 8758,
      "निध": 8759,
      "त्रय": 8760,
      "पाश्च": 8761,
      "पातेन": 8762,
      "संस्त": 8763,
      "मुदीर": 8764,
      "मेधे": 8765,
      "महामुनिम्": 8766,
      "द्धः": 8767,
      "सर्वमेव": 8768,
      "क्ताः": 8769,
      "ोऽब्रवीद्": 8770,
      "योधनं": 8771,
      "दिन": 8772,
      "चारेण": 8773,
      "कृतवर्म": 8774,
      "स्थिताम्": 8775,
      "जाप": 8776,
      "पुत्रेषु": 8777,
      "धर्मज्ञा": 8778,
      "त्वाम": 8779,
      "बाह्य": 8780,
      "न्यु": 8781,
      "वृष्टिं": 8782,
      "शोके": 8783,
      "परिव": 8784,
      "परिवृतो": 8785,
      "न्नपि": 8786,
      "पार्थे": 8787,
      "किंशु": 8788,
      "चैवं": 8789,
      "तवैव": 8790,
      "ब्रह्मवादि": 8791,
      "पश्यद्": 8792,
      "जनकस्य": 8793,
      "पराः": 8794,
      "सोः": 8795,
      "शून्य": 8796,
      "विशन्ति": 8797,
      "सर्वात्मना": 8798,
      "हीनं": 8799,
      "दुःखशोक": 8800,
      "शतशः": 8801,
      "नरान्": 8802,
      "चक्रुर्": 8803,
      "नमस्ते": 8804,
      "धनुर्वे": 8805,
      "मिवान्तकम्": 8806,
      "विषं": 8807,
      "ब्राह्मणैः": 8808,
      "गुणैर्यु": 8809,
      "स्त्रिदश": 8810,
      "मीढ": 8811,
      "वदसि": 8812,
      "नादितम्": 8813,
      "भीष्मा": 8814,
      "दूत": 8815,
      "चतुर्द": 8816,
      "युधं": 8817,
      "प्रविष्टा": 8818,
      "सिंहेन": 8819,
      "बन्धं": 8820,
      "सूतपुत्रः": 8821,
      "कूज": 8822,
      "धारयन्": 8823,
      "निष्क": 8824,
      "तत्त्ववित्": 8825,
      "ज्वलित": 8826,
      "चारित्र": 8827,
      "अभ्यवर्ष": 8828,
      "त्वरितं": 8829,
      "धृष्टद्युम्नस्य": 8830,
      "धावताम्": 8831,
      "गर्भा": 8832,
      "शोणितम्": 8833,
      "जुगु": 8834,
      "कल्याणं": 8835,
      "गान्धार्या": 8836,
      "विहितो": 8837,
      "बलवता": 8838,
      "बलवत्त": 8839,
      "वेदाङ्ग": 8840,
      "चतुर्विध": 8841,
      "यामासुः": 8842,
      "महाप्राज्ञः": 8843,
      "भास्करः": 8844,
      "चिकीर्षया": 8845,
      "चिकीर्षितम्": 8846,
      "प्राप्नुवन्ति": 8847,
      "हेतुना": 8848,
      "शिखण्डिनं": 8849,
      "प्रसादाद्": 8850,
      "केकया": 8851,
      "स्मिते": 8852,
      "मुद्दिश्य": 8853,
      "शुश्रुवे": 8854,
      "वर्तिनः": 8855,
      "प्रणिपत्य": 8856,
      "मन्योन्य": 8857,
      "प्रादात्": 8858,
      "वैवस्वत": 8859,
      "नरेश्वर": 8860,
      "प्रहरतां": 8861,
      "विषण्ण": 8862,
      "षोडश": 8863,
      "पृषत्": 8864,
      "म्लेच्छ": 8865,
      "अतो": 8866,
      "असि": 8867,
      "असौ": 8868,
      "असंशयं": 8869,
      "इक्ष्वाकु": 8870,
      "ऊर्ध्वं": 8871,
      "कपी": 8872,
      "जवेन": 8873,
      "तयः": 8874,
      "दद्य": 8875,
      "यान्य": 8876,
      "लया": 8877,
      "वला": 8878,
      "शक्ष्यामि": 8879,
      "सकुण्ड": 8880,
      "िह": 8881,
      "ेः": 8882,
      "१८": 8883,
      "ानल": 8884,
      "प्रका": 8885,
      "प्रणी": 8886,
      "प्रज्ञया": 8887,
      "विहा": 8888,
      "विद्धा": 8889,
      "विजानीहि": 8890,
      "विन्दे": 8891,
      "माश्च": 8892,
      "स्यैव": 8893,
      "क्षमं": 8894,
      "नादः": 8895,
      "श्चतु": 8896,
      "निजघान": 8897,
      "कालि": 8898,
      "संयुक्तो": 8899,
      "साद्": 8900,
      "ृतो": 8901,
      "ेनो": 8902,
      "द्रं": 8903,
      "त्येवं": 8904,
      "भाविनि": 8905,
      "भामिनी": 8906,
      "र्मू": 8907,
      "दिग्धा": 8908,
      "वाच्य": 8909,
      "त्वथ": 8910,
      "प्राप्नो": 8911,
      "चाभ्य": 8912,
      "रियं": 8913,
      "जालं": 8914,
      "पुत्रम": 8915,
      "नेता": 8916,
      "नेत्रे": 8917,
      "भवत": 8918,
      "शुल्": 8919,
      "गुर्व": 8920,
      "गुप्ता": 8921,
      "प्रतिश्रुत्य": 8922,
      "दीनो": 8923,
      "त्मजे": 8924,
      "द्विपः": 8925,
      "ह्यनु": 8926,
      "कोविद": 8927,
      "ानुलेप": 8928,
      "शूरान्": 8929,
      "बहुला": 8930,
      "श्नी": 8931,
      "नरैः": 8932,
      "निहनि": 8933,
      "ोपमम्": 8934,
      "सहस्रे": 8935,
      "च्यवन": 8936,
      "धर्माणां": 8937,
      "तदद्भुतमिवाभवत्": 8938,
      "युगक्षये": 8939,
      "मीदृशम्": 8940,
      "वन्दे": 8941,
      "पार्थिवम्": 8942,
      "जेतु": 8943,
      "देवासुरे": 8944,
      "भाषते": 8945,
      "द्राव्य": 8946,
      "रौद्रा": 8947,
      "वाक्यमुवाच": 8948,
      "तोऽपि": 8949,
      "क्रोधेन": 8950,
      "दक्षिणे": 8951,
      "रथाश्व": 8952,
      "वृद्धानां": 8953,
      "क्षत्रियः": 8954,
      "चतुरो": 8955,
      "युधां": 8956,
      "बुभूष": 8957,
      "शिखा": 8958,
      "मभिप्रेक्ष्य": 8959,
      "नानाप्रहरण": 8960,
      "सिंहनादं": 8961,
      "पदां": 8962,
      "लक्षणः": 8963,
      "जीवे": 8964,
      "पावका": 8965,
      "दैवे": 8966,
      "वासुदेवो": 8967,
      "वक्तव्यं": 8968,
      "विद्ध्य": 8969,
      "विनता": 8970,
      "ब्रह्माण": 8971,
      "निरर्थ": 8972,
      "चोदयामास": 8973,
      "राघवौ": 8974,
      "राज्यम": 8975,
      "इन्द्रा": 8976,
      "सत्कृतः": 8977,
      "महेष्वास": 8978,
      "त्वरमाणो": 8979,
      "व्यवसा": 8980,
      "धावति": 8981,
      "मुहूर्तमिव": 8982,
      "स्मृत्वा": 8983,
      "नारायणो": 8984,
      "सूदनः": 8985,
      "लोकाय": 8986,
      "गाण्डि": 8987,
      "धर्मज्ञो": 8988,
      "माधवः": 8989,
      "यत्तो": 8990,
      "सीदन्ति": 8991,
      "वतीं": 8992,
      "विध्यत्": 8993,
      "मिथु": 8994,
      "राधेयो": 8995,
      "ब्रुवति": 8996,
      "पण्डित": 8997,
      "बाधते": 8998,
      "विप्राणां": 8999,
      "केतुश्च": 9000,
      "शिबिरं": 9001,
      "पुरंदर": 9002,
      "मनस्विनः": 9003,
      "वक्त्रं": 9004,
      "इन्द्रियाणि": 9005,
      "युद्धमवर्तत": 9006,
      "संशितव्रतः": 9007,
      "गृह्णाति": 9008,
      "पाट्य": 9009,
      "हृषीकेश": 9010,
      "वरवर्णि": 9011,
      "वरवर्णिनी": 9012,
      "चरणौ": 9013,
      "पाकशासनः": 9014,
      "माहात्म्यं": 9015,
      "नलिनी": 9016,
      "मृषीणां": 9017,
      "क्लीब": 9018,
      "किष्किन्ध": 9019,
      "कोविदाः": 9020,
      "गार्हस्थ": 9021,
      "दीर्घा": 9022,
      "अल्": 9023,
      "अपरा": 9024,
      "अस्ति": 9025,
      "अनाग": 9026,
      "अर्जुनो": 9027,
      "आर्य": 9028,
      "एतन्": 9029,
      "कथाः": 9030,
      "घान": 9031,
      "चितः": 9032,
      "छितः": 9033,
      "छत्रं": 9034,
      "तद्र": 9035,
      "तद्धि": 9036,
      "दर": 9037,
      "पयो": 9038,
      "पक्षा": 9039,
      "मस्त्रं": 9040,
      "रव": 9041,
      "वदा": 9042,
      "वश्य": 9043,
      "सफलं": 9044,
      "हर्ता": 9045,
      "ऽस्य": 9046,
      "ैश्चा": 9047,
      "१६": 9048,
      "र्नाम": 9049,
      "ान्यु": 9050,
      "्वं": 9051,
      "प्रब्रूहि": 9052,
      "प्रयत्नेन": 9053,
      "विघ्न": 9054,
      "मामा": 9055,
      "मासीद्": 9056,
      "स्तरण": 9057,
      "स्तस्मै": 9058,
      "तिका": 9059,
      "नामृष्य": 9060,
      "पातं": 9061,
      "पुरम्": 9062,
      "काक्षि": 9063,
      "संयुक्ता": 9064,
      "सुधा": 9065,
      "सुतौ": 9066,
      "सुप्तं": 9067,
      "सुचिरं": 9068,
      "मेतां": 9069,
      "भिर्ज": 9070,
      "रुचिर": 9071,
      "सर्वशास्त्र": 9072,
      "सर्वलोकेषु": 9073,
      "दुष्य": 9074,
      "योनौ": 9075,
      "च्छर": 9076,
      "च्छन्ति": 9077,
      "तोयं": 9078,
      "णामिव": 9079,
      "रिह": 9080,
      "दृप्त": 9081,
      "धावत्": 9082,
      "कृपो": 9083,
      "भवो": 9084,
      "भवन्तः": 9085,
      "गाव": 9086,
      "शिल्पि": 9087,
      "न्यग्र": 9088,
      "सम्प्राप्तं": 9089,
      "प्रतिश्र": 9090,
      "मोहं": 9091,
      "समारम्": 9092,
      "ैर्हय": 9093,
      "सूता": 9094,
      "कर्मण": 9095,
      "स्माक": 9096,
      "नृणाम्": 9097,
      "चेकित": 9098,
      "क्ष्यते": 9099,
      "शूलं": 9100,
      "रामस्या": 9101,
      "वनवास": 9102,
      "वेदान्": 9103,
      "चक्रतुः": 9104,
      "कृष्णद्वैपाय": 9105,
      "नमब्रवीत्": 9106,
      "भवेन्": 9107,
      "शत्रुः": 9108,
      "चोत्": 9109,
      "तिष्ठते": 9110,
      "धनैः": 9111,
      "तदैव": 9112,
      "स्त्रिया": 9113,
      "निर्द्वन्द्व": 9114,
      "मत्कृते": 9115,
      "नैषा": 9116,
      "पुष्पिता": 9117,
      "चैन": 9118,
      "चैत्य": 9119,
      "द्रौणे": 9120,
      "मुपादाय": 9121,
      "पुत्रात्": 9122,
      "तावका": 9123,
      "वांशु": 9124,
      "राक्षसस्य": 9125,
      "दण्डः": 9126,
      "भूषणैः": 9127,
      "करोमि": 9128,
      "ङ्गार": 9129,
      "वाहन": 9130,
      "सूर्यस्य": 9131,
      "दुरात्मा": 9132,
      "समीपं": 9133,
      "षीन्": 9134,
      "केशवं": 9135,
      "कूब": 9136,
      "रथिनः": 9137,
      "माणौ": 9138,
      "क्वचि": 9139,
      "विदुषां": 9140,
      "प्रत्युप": 9141,
      "त्रेता": 9142,
      "बृहद": 9143,
      "मानुषे": 9144,
      "नारदो": 9145,
      "विनिर्ज": 9146,
      "भारती": 9147,
      "ततस्तस्मिन्": 9148,
      "विष्णुः": 9149,
      "गिरिम्": 9150,
      "धर्मराजेन": 9151,
      "दुर्मनाः": 9152,
      "शकुन्त": 9153,
      "तिक्रान्त": 9154,
      "द्रवन्ति": 9155,
      "मेवाभ्य": 9156,
      "सुहृत्": 9157,
      "भुजङ्ग": 9158,
      "शोचसि": 9159,
      "कामार्थ": 9160,
      "वरुणस्य": 9161,
      "दुःशासनं": 9162,
      "व्यूहं": 9163,
      "विश्वामित्रं": 9164,
      "ऋषय": 9165,
      "ऋषयः": 9166,
      "पितुर्व": 9167,
      "विष्णुना": 9168,
      "शक्यः": 9169,
      "भिराशुगैः": 9170,
      "निन्दिता": 9171,
      "दुर्धर्षं": 9172,
      "तपस्विनः": 9173,
      "पुंग": 9174,
      "जयद्रथम्": 9175,
      "रात्रिं": 9176,
      "योजनानां": 9177,
      "गाङ्गेयं": 9178,
      "जघ्ने": 9179,
      "दुर्लभं": 9180,
      "र्षीणां": 9181,
      "द्रौपदेयाश्च": 9182,
      "विकत्थ": 9183,
      "पशून्": 9184,
      "गम्भीर": 9185,
      "वरूथि": 9186,
      "सात्त्वि": 9187,
      "यथाक्रमम्": 9188,
      "उपाय": 9189,
      "ऋषे": 9190,
      "एकेन": 9191,
      "एतानि": 9192,
      "चष्ट": 9193,
      "जहा": 9194,
      "डी": 9195,
      "तमु": 9196,
      "भयः": 9197,
      "मरण": 9198,
      "मस्त्र": 9199,
      "मकरा": 9200,
      "लानां": 9201,
      "लब्धा": 9202,
      "वते": 9203,
      "वतो": 9204,
      "वयस्य": 9205,
      "हर्तु": 9206,
      "हविः": 9207,
      "हसन्निव": 9208,
      "ानः": 9209,
      "म्नि": 9210,
      "प्रशं": 9211,
      "प्रकाशं": 9212,
      "प्रकीर्ण": 9213,
      "रात्रा": 9214,
      "त्सा": 9215,
      "विपा": 9216,
      "विवास": 9217,
      "विमौ": 9218,
      "विमोक्ष": 9219,
      "विसर्ग": 9220,
      "मामनु": 9221,
      "माहार": 9222,
      "स्तद्व": 9223,
      "क्षन्त": 9224,
      "निराम": 9225,
      "निमेष": 9226,
      "निकृत्या": 9227,
      "यात्र": 9228,
      "यास्यन्ति": 9229,
      "र्व्य": 9230,
      "मुण्ड": 9231,
      "मिहे": 9232,
      "मिक्ष्वाकु": 9233,
      "सारि": 9234,
      "राजसु": 9235,
      "द्रक्ष्यामि": 9236,
      "देष": 9237,
      "रुह": 9238,
      "वेतौ": 9239,
      "योध्या": 9240,
      "र्यत्र": 9241,
      "स्वानि": 9242,
      "दिषु": 9243,
      "प्राणो": 9244,
      "र्थेषु": 9245,
      "रिदं": 9246,
      "धात्रा": 9247,
      "जाते": 9248,
      "पुत्रांश्च": 9249,
      "बलवान": 9250,
      "त्वाद्": 9251,
      "केशी": 9252,
      "न्यत्र": 9253,
      "लाव": 9254,
      "तीर्य": 9255,
      "दीक्षा": 9256,
      "न्नरः": 9257,
      "व्यासो": 9258,
      "व्याहृतं": 9259,
      "तत्रोप": 9260,
      "सूत्र": 9261,
      "सूनु": 9262,
      "ब्रवीषि": 9263,
      "पार्थानां": 9264,
      "कथम": 9265,
      "च्चि": 9266,
      "स्तेजसा": 9267,
      "पितरः": 9268,
      "वानरो": 9269,
      "सोमो": 9270,
      "दानानि": 9271,
      "सुखानि": 9272,
      "प्राप्तुं": 9273,
      "सर्वाङ्ग": 9274,
      "हेममा": 9275,
      "शतसहस्रशः": 9276,
      "सोऽथ": 9277,
      "सोऽभ्य": 9278,
      "वर्षति": 9279,
      "ग्निसम": 9280,
      "कृष्णया": 9281,
      "लक्ष्मणे": 9282,
      "धनुश्च": 9283,
      "सहस्रस्य": 9284,
      "क्षेत": 9285,
      "तिष्ठत्": 9286,
      "वदना": 9287,
      "स्विनः": 9288,
      "पृथिवीमिमाम्": 9289,
      "तस्याहं": 9290,
      "महात्मसु": 9291,
      "हितैषि": 9292,
      "शान्तनु": 9293,
      "प्रययु": 9294,
      "दैवत": 9295,
      "मतिम्": 9296,
      "द्रुतम्": 9297,
      "पराक्रम": 9298,
      "पद्भ्यां": 9299,
      "बलाद्": 9300,
      "कल्पयत्": 9301,
      "विदुरः": 9302,
      "देशेषु": 9303,
      "बृहन्न": 9304,
      "क्षिप्रमेव": 9305,
      "प्रभावं": 9306,
      "वरारोहे": 9307,
      "गौतमः": 9308,
      "राज्येन": 9309,
      "सिद्धये": 9310,
      "पृष्ठं": 9311,
      "व्यवस्थिताः": 9312,
      "भ्रातॄ": 9313,
      "मुहूर्तमपि": 9314,
      "स्थिरो": 9315,
      "संतप्ता": 9316,
      "फाल्गुनस्य": 9317,
      "पुरुषोत्तम": 9318,
      "यूथप": 9319,
      "विस्मिता": 9320,
      "ज्येष्ठः": 9321,
      "पश्चाद्": 9322,
      "सम्प्राप्ता": 9323,
      "संहन": 9324,
      "सारथिम्": 9325,
      "प्रवृत्ते": 9326,
      "शिलाशितैः": 9327,
      "हन्याद्": 9328,
      "सुयोधनम्": 9329,
      "संनिभैः": 9330,
      "सविता": 9331,
      "दाशरथि": 9332,
      "भल्लैः": 9333,
      "दशग्रीवो": 9334,
      "द्विरद": 9335,
      "वेदेषु": 9336,
      "श्लिष्य": 9337,
      "प्रशाधि": 9338,
      "परिष्कृतम्": 9339,
      "दुर्वृत्त": 9340,
      "वसुन्धराम्": 9341,
      "ममर्षणम्": 9342,
      "कार्तिके": 9343,
      "विधुन्व": 9344,
      "जिहीर्ष": 9345,
      "अमृष्य": 9346,
      "आदि": 9347,
      "ख्ये": 9348,
      "गजानी": 9349,
      "चर्मा": 9350,
      "जगृ": 9351,
      "जमद": 9352,
      "जह्या": 9353,
      "जज्ञिरे": 9354,
      "णीव": 9355,
      "तस्तु": 9356,
      "दत्": 9357,
      "दमेन": 9358,
      "रेष": 9359,
      "रनु": 9360,
      "ववौ": 9361,
      "शनः": 9362,
      "शरः": 9363,
      "सन्ध": 9364,
      "सवास": 9365,
      "सर्षि": 9366,
      "ऽभ्य": 9367,
      "ून": 9368,
      "ृम्भ": 9369,
      "ोपा": 9370,
      "र्च्य": 9371,
      "ितश्चैव": 9372,
      "म्बा": 9373,
      "प्रयत्": 9374,
      "प्रली": 9375,
      "प्रदानेन": 9376,
      "विचिन्त्य": 9377,
      "विचेतसः": 9378,
      "माणे": 9379,
      "क्ष्यं": 9380,
      "निन्दा": 9381,
      "तासु": 9382,
      "यादृशं": 9383,
      "काणां": 9384,
      "काश्चैव": 9385,
      "संहार": 9386,
      "संकुले": 9387,
      "दाक्षि": 9388,
      "महास्व": 9389,
      "महाभुजः": 9390,
      "भिन्द": 9391,
      "देक": 9392,
      "सर्वत": 9393,
      "कुर्यां": 9394,
      "भामिनि": 9395,
      "मानृ": 9396,
      "ज्ज्वल": 9397,
      "णाभि": 9398,
      "चाव": 9399,
      "रिः": 9400,
      "रिवो": 9401,
      "शापा": 9402,
      "कृषि": 9403,
      "द्वहः": 9404,
      "श्वांश्च": 9405,
      "देवर्ष": 9406,
      "किङ्": 9407,
      "शिली": 9408,
      "यथागतम्": 9409,
      "बालं": 9410,
      "बाल्या": 9411,
      "नीकेषु": 9412,
      "समाधाय": 9413,
      "सेयं": 9414,
      "सेन्द्रा": 9415,
      "ब्रवीद": 9416,
      "ब्रवीतु": 9417,
      "तदाऽऽ": 9418,
      "कोटी": 9419,
      "तपसि": 9420,
      "लिख": 9421,
      "क्षिपन्": 9422,
      "तत्सर्वं": 9423,
      "कथयिष्यामि": 9424,
      "ज्ञातुं": 9425,
      "स्तेपे": 9426,
      "मूलानि": 9427,
      "स्रं": 9428,
      "ब्रह्मण": 9429,
      "दर्शय": 9430,
      "पश्यन्तु": 9431,
      "सेनश्च": 9432,
      "सत्यधर्म": 9433,
      "सत्यवादि": 9434,
      "बहुश": 9435,
      "ैश्चि": 9436,
      "ध्वरे": 9437,
      "कुरुनन्दनः": 9438,
      "सैन्या": 9439,
      "दुःखस्य": 9440,
      "ग्रामं": 9441,
      "प्रत्यदृश्यत": 9442,
      "स्ताम": 9443,
      "राष्ट्रे": 9444,
      "भृगू": 9445,
      "रावणम्": 9446,
      "शतसहस्राणि": 9447,
      "जीवितुम्": 9448,
      "ण्यो": 9449,
      "कामश्च": 9450,
      "बाहुः": 9451,
      "कारैः": 9452,
      "यज्ञेषु": 9453,
      "विक्रमे": 9454,
      "विप्रेन्द्र": 9455,
      "धृतराष्ट्रा": 9456,
      "जाने": 9457,
      "प्रहस्त": 9458,
      "नागाः": 9459,
      "भावनः": 9460,
      "निश्चयाः": 9461,
      "अभिवाद": 9462,
      "सप्ता": 9463,
      "स्वर्गगामिनः": 9464,
      "समन्ताद्": 9465,
      "स्वाहा": 9466,
      "सूर्यः": 9467,
      "शरीरस्य": 9468,
      "दैवतैः": 9469,
      "गम्यतां": 9470,
      "कूर्म": 9471,
      "उपवास": 9472,
      "नाराचै": 9473,
      "जगतो": 9474,
      "शोभनम्": 9475,
      "जीर्य": 9476,
      "गजवाजि": 9477,
      "वासुदेवः": 9478,
      "मानुषेषु": 9479,
      "विनिघ्न": 9480,
      "त्वरिता": 9481,
      "दोषः": 9482,
      "कदाचिद्": 9483,
      "परीता": 9484,
      "मुहूर्ता": 9485,
      "चक्षुर्": 9486,
      "कुम्भकर्णो": 9487,
      "त्मजाः": 9488,
      "ग्नयः": 9489,
      "मूढा": 9490,
      "महेन्द्रस्य": 9491,
      "तयोर्": 9492,
      "दुःशासनो": 9493,
      "काकुत्स्थं": 9494,
      "सुसंरब्ध": 9495,
      "सदनं": 9496,
      "पताकि": 9497,
      "सम्प्राप्तः": 9498,
      "ददृशुर्": 9499,
      "चित्तं": 9500,
      "सूक्ष्मा": 9501,
      "पार्षतं": 9502,
      "लङ्कायां": 9503,
      "योगाद्": 9504,
      "मिहागतः": 9505,
      "संसक्त": 9506,
      "सिद्धाश्च": 9507,
      "स्मृता": 9508,
      "समनुज्ञा": 9509,
      "नारीणां": 9510,
      "ब्राह्मणेभ्यः": 9511,
      "ब्रह्मचर्येण": 9512,
      "त्वत्तो": 9513,
      "पिशाचा": 9514,
      "कण्टकम्": 9515,
      "चूर्ण": 9516,
      "पर्युपासते": 9517,
      "श्रुत्वैव": 9518,
      "वधीत्": 9519,
      "विस्फार्य": 9520,
[...]
